[PAD]
[UNK]
[CLS]
[SEP]
[DOC]
[MASK]
!
"
#
$
%
&
'
(
)
*
+
,
-
.
/
0
1
2
3
4
5
6
7
8
9
:
;
<
=
>
?
@
[
\
]
^
_
`
a
b
c
d
e
f
g
h
i
j
k
l
m
n
o
p
q
r
s
t
u
v
w
x
y
z
{
}
~
¡
¢
£
¤
¥
¦
§
¨
©
ª
«
¬
®
¯
°
±
²
³
´
µ
¶
·
¸
¹
º
»
¼
½
¾
¿
×
ß
æ
ð
÷
ø
þ
đ
ı
ł
œ
ƀ
ƒ
ƙ
ƭ
ǀ
ɓ
ɔ
ə
ɛ
ɪ
ɲ
ʻ
ʼ
ʿ
ˆ
ˈ
ˑ
˚
˝
˟
ͷ
΄
α
β
γ
δ
ε
ζ
η
θ
ι
κ
λ
μ
ν
ξ
ο
π
ρ
ς
σ
τ
υ
φ
χ
ψ
ω
а
б
в
г
д
е
ж
з
и
к
л
м
н
о
п
р
с
т
у
ф
х
ц
ч
ш
щ
ъ
ы
ь
э
ю
я
ђ
є
ѕ
і
ј
њ
ґ
қ
ҟ
ң
ա
ե
հ
յ
ն
ր
א
ב
ג
ד
ה
ו
י
כ
ל
ם
מ
ע
ק
ר
ש
ת
؟
ء
ا
ب
ة
ت
ث
ج
ح
خ
د
ذ
ر
ز
س
ش
ص
ض
ط
ع
ـ
ف
ق
ك
ل
م
ن
ه
و
ى
ي
ٱ
پ
ڣ
گ
ڵ
ڶ
ڷ
ی
۳
܂
ܐ
ދ
द
न
भ
ह
ि
ी
অ
ই
া
ি
ਜ
ਪ
ਬ
ਾ
ੀ
ભ
உ
ழ
భ
ල
ෆ
ข
ช
ต
ท
น
พ
ย
ร
ว
อ
า
฿
ไ
ລ
ཆ
ཇ
ა
ვ
მ
ს
ქ
ᄀ
ᄂ
ᄃ
ᄅ
ᄆ
ᄇ
ᄉ
ᄋ
ᄌ
ᄎ
ᄑ
ᄒ
ᅡ
ᅢ
ᅣ
ᅥ
ᅦ
ᅧ
ᅩ
ᅪ
ᅫ
ᅮ
ᅲ
ᅳ
ᅴ
ᅵ
ᆨ
ᆫ
ᆭ
ᆯ
ᆶ
ᆸ
ᆻ
ᆼ
ት
ᐅ
ᐈ
ᑎ
ᒪ
ᗪ
ភ
ᨅ
ᵒ
‐
‑
‒
–
—
―
‘
’
‚
‛
“
”
„
‟
†
‡
•
‣
…
‧
‰
′
″
‹
›
※
‼
⁄
⁴
⁵
⁻
₂
₊
€
₴
₺
₽
℃
℉
№
℠
™
ℵ
⅛
⅞
←
↑
→
↓
↔
↜
↦
↩
↳
↴
↵
⇐
⇑
⇒
⇓
⇚
⇢
⇥
⇧
⇨
⇵
∂
−
∗
∘
∙
√
∞
∧
∨
∩
≡
≤
≥
⊗
⋅
⋆
⋮
⌄
⌅
⌘
ⓒ
ⓚ
ⓜ
ⓞ
ⓢ
ⓦ
─
│
├
█
▎
░
▒
■
□
▪
▫
▬
▲
▴
▶
▷
▸
►
▼
▾
◀
◄
◆
◊
○
◎
●
◠
◢
◼
◾
☀
★
☆
☎
☐
☑
☕
☛
☪
☭
☮
☰
☺
♀
♂
♠
♡
♣
♥
♦
♪
⚏
⚒
⚓
⚔
⚠
⛷
✄
✅
✆
✈
✉
✌
✓
✔
✖
✘
✝
✠
✣
✦
✨
✩
✭
✲
❌
❖
❘
❞
❣
❤
❧
❭
❯
❺
➔
➙
➛
➜
➝
➞
➠
➡
➢
➤
➥
➪
➫
⟨
⟩
⟵
⟶
⠀
⦁
⬇
⭐
⯈
ⱄ
、
。
〈
〉
》
」
【
】
〖
〗
〜
〰
あ
い
う
か
き
さ
す
そ
た
ち
て
と
な
の
は
ま
む
よ
り
る
を
イ
ウ
カ
ク
ケ
コ
ツ
ト
ナ
ノ
ハ
フ
ホ
メ
レ
ロ
ン
・
ー
ㅠ
㎟
㎡
一
丁
万
三
上
下
不
与
两
个
中
主
之
乡
二
云
井
交
享
亮
亲
人
们
仲
伊
住
佐
体
你
保
信
傳
兄
克
六
具
典
内
农
分
创
別
副
加
务
勝
千
博
厚
去
台
号
君
吧
吳
命
和
商
围
国
國
地
坂
城
堂
声
备
多
大
天
夫
女
好
妈
娃
娘
子
字
季
宏
宜
宮
家
富
寿
小
屋
岡
嵐
工
带
常
平
年
幸
库
弟
彩
快
恩
恵
我
所
手
才
投
拳
拿
探
教
文
斯
新
旅
无
日
时
明
星
時
月
有
服
朝
木
本
机
李
来
松
板
果
柳
柴
桜
梶
横
橋
正
残
汉
池
沪
油
注
源
漢
灣
煎
爆
父
物
猫
玉
王
理
琴
環
生
田
的
益
盤
相
确
礼
秀
秋
稲
穷
空
章
简
算
管
簡
粵
精
糟
糠
紙
細
結
統
繁
网
老
者
聪
育
良
花
芸
萩
蔡
藤
血
行
袁
裤
語
誤
謙
譚
语
谢
谷
象
貧
走
超
跡
路
軍
辞
辭
速
遍
遗
遜
遺
郁
郭
鄭
里
金
銘
间
陽
雪
雷
靴
須
顓
页
風
首
體
鱼
鲽
鳩
鹅
ﬀ
ﬁ
！
（
）
＊
，
－
．
：
；
？
ａ
ｂ
ｅ
ｍ
ｎ
ｐ
ｒ
ｓ
ｔ
｜
～
￼
𝑒
𝒹
𝒾
𝓃
𝓈
𝓮
𝗮
𝗱
𝗲
𝗴
𝗶
𝗼
𝗿
𝘀
𝚗
𝚘
🇧
🇨
🇩
🇪
🇫
🇬
🇭
🇮
🇳
🇴
🇷
🇸
🇹
🇺
🇻
🇿
🌍
🌎
🌏
🌞
🌹
🌾
🍀
🍪
🍸
🍺
🍾
🎁
🎄
🎅
🎈
🎉
🎨
🎲
🎶
🏁
🏆
🏻
🏼
🏽
🐮
🐵
🐶
🐷
🐹
🐼
👀
👄
👇
👉
👋
👌
👍
👏
👦
👨
💋
💌
💎
💕
💗
💙
💚
💜
💡
💪
💰
💻
📅
📆
📈
📌
📜
📞
📣
📸
🔊
🔓
🔥
🕵
😀
😁
😃
😄
😅
😆
😈
😉
😊
😍
😎
😔
😘
😛
😜
😥
🙁
🙂
🙈
🙋
🙌
🙏
🚀
🚗
🚲
🚽
🛢
🤓
🤔
🤗
🤙
🤛
🤸
🥇
🦊
🧡
##r
##o
##v
##i
##s
##t
##u
##n
##d
##g
##e
##b
##l
##a
##m
##6
##0
##9
##4
##2
##1
##3
##5
##c
##h
##7
##q
##x
##y
##p
##k
##f
##е
##о
##р
##г
##и
##8
##z
##w
##ß
##ð
##€
##©
##j
##™
##×
##ø
##ł
##°
##´
##¼
##с
##л
##ƙ
##¬
##®
##√
##～
##ο
##σ
##у
##к
##æ
##º
##ə
##¤
##💚
##ρ
##ε
##π
##ι
##λ
##γ
##η
##²
##₴
##ழ
##ν
##κ
##ς
##ј
##├
##⟶
##¢
##⁄
##✅
##ᅡ
##ᆫ
##ᄀ
##ᅮ
##ᆨ
##ᄋ
##ᅥ
##ا
##ل
##ع
##ر
##ب
##ي
##ة
##т
##а
##я
##н
##д
##м
##в
##б
##ı
##฿
##і
##ь
##ш
##£
##ท
##ย
##½
##｜
##α
##п
##φ
##ω
##❤
##ч
##ط
##ن
##ك
##¨
##◆
##х
##🙂
##د
##ه
##ﬁ
##ि
##न
##द
##ी
##✭
##ෆ
##い
##㎡
##œ
##¸
##¹
##و
##س
##ت
##¯
##▼
##さ
##℃
##ц
##█
##►
##ª
##ƒ
##∂
##β
##ב
##ו
##ת
##י
##★
##ж
##ю
##⅛
##ʼ
##₽
##☆
##ف
##ᅵ
##ы
##з
##−
##⇵
##→
##΄
##÷
##ی
##¾
##😈
##¦
##ˈ
##³
##⁵
##þ
##🌹
##˟
##μ
##υ
##¥
##⁻
##ר
##ᅳ
##ƀ
##■
##🏽
##♂
##ـ
##ڣ
##ء
##😊
##◠
##🏼
##щ
##𝚘
##⭐
##❌
##ע
##ק
##☐
##ز
##♦
##±
##と
##は
##◄
##℠
##🤙
##ق
##م
##る
##👦
##●
##○
##⅞
##ф
##🌞
##😜
##ד
##ה
##µ
##⛷
##🏻
##♡
##מ
##ם
##😁
##⇒
##đ
##χ
##τ
##ζ
##ᵒ
##া
##ি
##ह
##ל
##─
##ᆼ
##ᄎ
##ᅦ
##ש
##า
##น
##ต
##อ
##≥
##🇪
##🇺
##🇸
##ᅢ
##ไ
##ψ
##🎉
##✓
##δ
##♥
##ᄆ
##ᄑ
##ᄅ
##◼
##ᆸ
##ᄉ
##ᄂ
##ᄃ
##🇨
##🇿
##🌾
##ش
##▾
##𝓈
##₂
##を
##ケ
##ト
##✔
##ٱ
##ъ
##𝗼
##𝗿
##𝘀
##𝗲
##ѕ
##ґ
##ク
##イ
##ン
##❣
##👍
##📌
##ᆻ
##∙
##う
##そ
##ช
##🇫
##🇷
##🐶
##🦊
##🐮
##🐷
##🐹
##🐼
##⠀
##𝑒
##𝒾
##𝓃
##ح
##↓
##ｎ
##ｔ
##ｅ
##ｐ
##ʿ
##✈
##ᆯ
##ض
##ɓ
##э
##👏
##✌
##🇬
##🇧
##ˆ
##✆
##⚔
##℉
##˚
##ᄒ
##🇹
##ร
##♪
##🙈
##ー
##て
##🥇
##✨
##👋
##😍
##ᑎ
##ᒪ
##ᗪ
##➥
##❞
##ג
##↑
##ᅧ
##ث
##▴
##ナ
##ウ
##カ
##🎄
##ʻ
##ᆶ
##す
##ﬀ
##🍺
##フ
##ᅩ
##א
##む
##ᅴ
##🚽
##ђ
##њ
##😥
##ａ
##ｓ
##☭
##є
##🛢
##😉
##メ
##ى
##ҟ
##░
##𝗶
##ج
##כ
##🍀
##🙏
##ち
##𝗮
##ᅪ
##🇭
##ص
##☕
##👌
##🙋
##🇴
##←
##∧
##💻
##ա
##յ
##ե
##ր
##ն
##ਪ
##ਜ
##ਾ
##ਬ
##ੀ
##▬
##ᄇ
##▶
##🇩
##🇮
##🇳
##ว
##😃
##θ
##ｒ
##☪
##𝗴
##り
##🙌
##た
##⋅
##≤
##🏆
##💪
##𝓮
##ᅲ
##✘
##◀
##✖
##ま
##ᅫ
##ᆭ
##│
##ვ
##ა
##˝
##𝚗
##ㅠ
##ⓒ
##۳
##◊
##ͷ
##か
##な
##の
##ɪ
##ⓞ
##ⓢ
##ⓚ
##ⓦ
##⁴
##𝗱
##ᅣ
##ข
##հ
##er
##en
##ch
##in
##es
##on
##ie
##an
##it
##or
##ur
##st
th
##at
##ar
##nd
20
##ll
##re
##is
in
##ou
201
##te
the
##as
##al
##ich
##om
we
##le
##un
##ti
sie
to
un
##ag
##ir
##ed
##ber
you
##ing
##el
##et
##ro
and
##ay
##ion
au
##hr
uns
##il
und
an
##em
##ig
ein
##ung
be
of
##ten
##ic
##ts
wir
se
for
##ere
re
zu
pro
##ter
no
ha
die
fr
##ind
on
ver
##am
##ation
##our
##ent
##um
di
is
wh
##ve
00
all
##ach
##der
##ier
##ow
##ol
der
us
er
##ct
##ont
##ut
##den
##eit
ne
##de
fur
st
##au
##ce
are
##ess
##ben
##lich
your
##os
de
ist
##ul
our
##ill
##day
##tion
##men
##oo
ar
##ge
##and
von
2019
auf
me
##ers
##nen
##kt
mit
##for
ih
##th
sp
2018
##20
das
##ine
en
##im
##gen
al
ge
##ru
##ues
##ck
10
sch
##ver
##icht
##age
do
##du
this
##chen
##ah
##onta
will
##ad
##us
dies
##op
im
es
was
mo
##ff
it
##ember
##ith
##ist
##est
so
ma
sind
su
##mer
with
##ab
##ien
or
##igh
com
##all
produ
ch
ab
##ite
##ri
19
##ate
##ort
##ly
##ke
##00
##pp
##ook
te
wer
##ast
##eren
##ust
##form
am
from
##isch
can
##ahr
##ne
fre
##und
12
fe
##ome
##erv
arti
have
what
den
nicht
2017
200
##ant
ich
##oll
le
##sch
mar
ex
as
30
##ore
not
at
##ase
##ra
wie
##ld
inform
bes
eine
##ib
##art
ihr
haben
##ann
18
res
ple
uber
11
##ot
##og
##sen
##ungen
wel
bis
15
kon
sh
vor
he
##be
ihre
##pr
##ice
aus
wor
##itte
##hal
sich
##ary
more
pr
##ail
##ank
##ish
##se
information
um
##ies
ges
##agen
ad
##fen
please
nach
##etz
##ommen
als
inter
##end
2020
li
unser
##anu
##ner
##uch
conta
##ze
##tw
##19
werden
alle
oder
##bs
##ear
find
bitte
##ight
##stag
##out
unsere
new
##tem
contact
con
##kel
##ity
by
min
17
war
mehr
##ue
##ang
##tions
ihnen
##ost
##ug
16
hier
##ober
year
##gl
##nt
14
unter
janu
##utz
vie
##bru
##fe
##ste
here
pers
mon
wen
##len
konta
ke
##we
up
artikel
##able
pre
##ick
##ual
that
##ft
##per
eur
ger
2016
##ummer
ho
##id
person
13
off
##hen
24
21
webs
##iert
du
des
febru
konnen
##ard
how
##line
##unden
her
##tember
about
##ptember
##ia
tr
##ive
wo
##ure
ac
##ci
per
22
hel
01
pl
uhr
serv
online
##kti
ques
tim
reg
zur
##pril
mont
##ted
##ment
23
##che
day
##ould
bei
cl
##je
##one
september
##vember
25
if
num
comp
##come
##ollow
follow
##uck
jun
weit
wenn
number
##iv
2015
##ain
seit
any
##ass
man
erf
##kommen
op
diese
there
##land
##beit
##cts
look
req
##ern
fragen
website
jul
april
##geb
##ute
##ack
##very
fol
jahr
##ise
dat
##gust
##halten
engl
auch
##iz
reserv
dur
##ak
dem
##ther
november
em
ag
09
##tig
##ieren
welcome
may
spe
time
##wer
fa
##nummer
##llen
part
work
ste
ph
##are
br
##tsch
##ide
last
##tel
##ik
##bl
##off
my
sin
##11
every
proje
##ap
##atur
##ated
years
##her
##uen
questions
lo
nur
dec
folgen
wird
like
kann
vis
jed
##ood
##21
don
av
artic
##fr
einen
august
##uests
zeit
##ose
##now
##kte
##chte
08
##ven
who
##cess
gen
2013
##reich
##ac
willkommen
2014
##lo
best
noch
##ied
dien
##nis
thank
now
##bar
sein
gro
##ition
##ild
##igen
wur
get
need
##iday
kom
since
lie
03
05
##itat
artikelnummer
kontakti
##ights
know
informationen
##etzt
avail
##ink
26
article
hotel
cook
##uss
form
31
one
##man
bet
qual
##ame
verf
january
also
keine
27
##ige
07
hat
help
par
28
04
gesch
##me
##ian
tag
seite
02
fu
son
##ctober
want
##ible
##zember
##sp
sa
##keit
mail
ind
##zeit
ben
add
000
pos
##ance
januar
has
##lle
bel
##uten
50
beg
akt
##anz
home
deu
kontaktieren
##ktober
##ry
##10
unseren
##ount
service
##pt
##ffe
available
product
use
##ahl
only
##ges
pe
##entlich
##hmen
december
preis
go
29
cookies
##gr
##ek
upd
da
##let
visit
app
dezember
march
products
price
##ord
##ound
zum
06
october
##ign
february
##ward
##ateg
dieser
following
##ations
##ices
but
good
##urs
##heit
##he
mach
bl
finden
dis
marz
monday
##34
februar
verfug
##ahlen
would
##ong
deutsch
##ubl
##ile
##ction
##ens
news
2012
europ
gr
call
##pl
gl
see
out
##utes
vorbe
##50
##ibt
oktober
groß
##ungs
freuen
##ahre
dass
##ally
##ous
page
supp
than
german
ru
##tim
vers
##cl
why
##dn
rights
ro
fir
hour
rechte
##chten
montag
49
exper
friday
jetzt
##30
unserer
kontakt
post
##ble
reserved
##if
##ert
##glich
pol
##cial
##ater
happ
jahre
##22
##ander
vorbehalten
imp
bu
ital
##56
##ful
weitere
ta
mai
##sible
sol
open
##xt
moglich
##way
regist
##itag
mein
peop
##och
freitag
##ategor
offer
fun
people
team
##nerstag
lang
##31
beste
english
##sam
##ht
donnerstag
##esday
wedn
wednesday
bere
cur
mich
##alog
warum
einf
##reat
sam
##ular
##pe
##vel
##net
##assen
ihren
ber
kl
dieses
##offentlich
minutes
forward
gibt
june
##sten
minuten
gast
gef
wurde
tra
spr
veroffentlich
##qu
40
dank
##ange
##ursday
##ische
##ages
thursday
##uesday
juni
##ire
kind
tuesday
they
arbeit
cop
##enden
verw
week
##78
where
interess
month
##ial
einfach
letz
schon
ent
mus
##riv
mochten
##15
##ese
##ings
##ds
co
days
##tet
##atalog
##aus
them
##ud
hours
erfahr
##arbeit
read
prof
##ren
##16
##chn
##rit
##ischen
immer
##fer
##yr
##cht
world
2010
100
##no
durch
bed
other
dienstag
##iel
zug
##thing
wun
2009
##17
produkte
when
##aturday
##24
##liche
tele
saturday
looking
back
##ans
##99
##rei
##rent
possible
##ult
publ
fam
##18
july
current
2011
viel
##twoch
det
mittwoch
##hn
aber
ans
alles
send
over
gew
pass
##zu
veroffentlicht
copyr
einem
##ip
juli
kunden
##iss
star
famil
##ustom
cho
##ments
custom
support
gerne
teil
proble
besuch
schne
copyright
##ree
ide
first
partner
daten
##wo
herz
acc
techn
##stand
##alt
email
end
##to
even
##ults
mod
45
##olg
soon
##io
verb
##auf
nutz
some
just
##23
span
##ßen
##ualis
##ience
very
##ktion
##ierung
phone
which
guests
##25
los
##nehmen
##aft
##tr
dan
##ale
samstag
##ace
compan
hin
##ress
mir
dire
##feren
verfugbar
##sel
gaste
posted
sund
##ors
##ph
dar
nie
wish
angeb
fl
##get
##af
happy
39
tun
##eite
aktualis
##60
##fu
stand
##hl
##atz
35
zuruck
bo
##tigen
##stell
does
erfolg
jo
rep
weiter
sehen
##los
requests
vom
##28
##issen
hand
einer
free
book
##oren
##ways
monat
cont
##own
sprach
##uchen
##ntag
##av
leben
suc
##gebnis
dein
gru
sehr
wahlen
sunday
make
sonntag
##kun
produkt
kein
rufen
always
start
##ond
##ken
##its
##kl
##esen
##40
##oug
fin
##lichen
services
priv
order
sy
##27
englisch
qu
gu
pm
vielen
sicher
zugri
begin
success
cre
stunden
##ieten
##ster
##co
personen
next
che
under
##gram
ergebnis
schnell
##ichtig
soll
child
take
som
##als
##ein
quality
dich
these
langu
ter
##ely
mess
incl
sm
helfen
34
found
adv
##29
##uest
##26
many
##stem
problem
been
##auen
2008
##ory
zugriffe
med
telef
letzte
##36
60
af
zwe
##eld
geb
count
experience
##forder
unterst
heute
show
vide
date
link
36
rec
##icken
detail
la
##80
##eth
##halt
##ished
##ps
sec
site
tage
wissen
zusam
diff
##min
antw
##70
zusammen
##wor
##tiv
port
unterstutz
rel
##gan
welt
90
today
right
results
##ution
##til
anfr
room
let
##14
neue
##ffen
down
program
rest
##ons
choose
machen
99
emp
europe
gem
sele
##ieden
much
folgenden
ev
##itt
95
##ational
woll
##immer
##book
special
jahren
##ession
##ict
allah
rece
bus
ze
qualitat
##zt
##35
dann
##fort
##arn
hil
##ma
##rechen
euch
face
say
##kunft
brau
etw
erw
added
most
str
stat
kost
##olog
wahr
name
company
sel
comm
##jo
high
2006
hol
##39
sw
##schen
##unde
referen
##ple
design
cons
again
##ical
sim
##ested
ask
##aub
win
data
##ws
dr
##int
##iness
dir
two
##ement
should
ihrer
erhalten
currently
nachr
jeder
mitgl
intern
import
##ough
##load
##part
##ility
updated
men
russ
48
registr
wieder
44
list
long
click
##75
mark
##ider
##12
2007
gar
stad
kinder
real
##tige
meine
##fore
nor
##aufen
nr
##cri
ander
unserem
member
children
55
##bst
inv
##halb
##aten
diesen
##rie
net
##ces
got
##mal
further
system
then
del
facebook
tre
##olle
come
##mar
question
andere
bal
##tive
##200
##otos
mom
interested
##wn
request
38
##genommen
##ious
life
their
inf
##tern
lu
answer
ur
requ
##38
##itz
##ize
unternehmen
bieten
bre
##74
customers
kle
bin
stay
after
log
##ities
po
him
benutz
prov
bro
ins
car
##igkeit
wunschen
199
update
telefon
important
great
fut
published
wollen
neu
love
version
inst
##iger
aktue
frien
##ication
herzlich
dau
##79
etwas
##ause
check
oh
##iden
details
##000
mal
zwei
##idu
##76
##sche
bez
##lex
##vie
cm
zw
33
folgende
business
stim
##essen
80
indiv
categor
anfrage
individu
##letzt
euro
project
##ina
##mt
until
future
##read
ja
welche
fru
##cept
germany
zuletzt
sor
ganz
val
italien
diesem
europa
stadt
woche
his
shop
##tell
catalog
##ners
natur
beno
kosten
##letter
##44
require
deine
frage
pict
##tif
thanks
schw
gut
message
enjo
##cken
parti
verwend
haus
##88
way
enjoy
download
##vor
##ktiv
##cted
newsletter
##ents
gener
kur
habe
danke
impr
schl
##lin
##anden
##acht
within
##nov
perfe
senden
##ote
ser
##hlen
everything
viele
gel
wichtig
tot
große
##ell
well
##leist
fill
##aren
##ep
tur
mor
land
aut
register
better
entw
kategor
video
pay
##ited
bas
46
geben
##ient
loc
mens
katalog
##wort
organ
give
##agt
meet
aktualisiert
events
ass
bess
##dern
ents
formular
menschen
##zen
before
did
sti
##ger
einz
eas
eu
max
##55
trans
##ready
ob
erfahren
innov
dam
already
ble
##49
##ries
70
funktion
wei
chr
below
##ates
prote
43
neues
select
yes
besuchen
angebot
inner
made
##amp
wr
klicken
tru
gute
old
aufgenommen
ir
el
moment
bewer
##bo
full
nachricht
projekt
never
verg
##gt
fast
aust
international
far
##kten
web
kommen
##orten
hoch
54
besten
##aur
plan
##achten
##schaft
partners
ohne
##ating
red
##les
##66
ago
deutschland
59
total
ken
41
##irl
##ets
sagen
feel
wa
##ning
##abe
webseite
einige
pa
language
32
sur
##velop
without
night
voll
modif
try
rich
##igt
konn
##teil
develop
innerhalb
ele
fall
versch
personal
grund
wurden
##leich
erreich
rem
gefunden
##eln
##self
lassen
pleas
girl
erfahrung
restaur
selbst
differ
sc
##85
fil
##ative
##ench
##offnet
##ced
comple
##ething
jeden
something
##ax
zukunft
region
top
geoffnet
profession
##reiben
zimmer
##13
resp
##3456
item
##acy
##ium
##77
franz
##els
bil
different
french
##andert
##tieren
bald
##mb
portug
suchen
own
wochen
interest
too
dienst
term
##ante
offers
##ital
500
##com
##910
nummer
contin
sit
were
beh
place
event
tour
sprache
buch
##ießen
##amt
includ
##onder
art
##86
##ctly
##89
##az
christ
vertr
##sh
eing
arbeiten
##ures
##199
pra
##dition
franzos
##ath
anderen
ange
antworten
miss
grou
hilfe
ang
hast
gluck
mind
ihrem
##ler
##ude
##zahl
sk
learn
cost
nehmen
wann
##cy
##laub
enter
bereit
chang
gefall
##zep
##anst
family
its
ak
trad
lat
##llo
ergebnisse
##bt
receive
play
##tt
info
##33
preise
verl
je
##ield
##br
##ix
##elden
prices
spez
fullen
muss
##schl
37
nacht
wirk
gott
##schutz
bist
##icy
bar
technolog
##elt
col
bild
##yp
##kes
conten
brauchen
##345678
##ationen
ve
must
##att
sprechen
lesen
hau
##ooper
##ingen
privacy
months
##46
franzosisch
ret
##ansp
##arch
projects
herr
dist
##lossen
yet
##ween
those
##gar
winter
##gend
##urg
##page
km
sat
thr
56
##ichten
change
between
cour
erste
mussen
still
holiday
##ves
sub
cor
veranst
duration
##cip
blog
benotigen
flex
##ouse
ll
three
##alth
##ichts
arch
each
2005
##erg
speak
dauer
##ants
##ave
##ichte
##tra
besser
dienstleist
clos
##ieder
break
belie
deli
##vers
zwischen
liebe
##ipp
##lung
##ww
mag
sl
countries
field
into
##tic
view
##utions
policy
besucher
weg
alter
allen
bilder
stimmen
lander
live
##ions
exp
conf
verfugung
ausw
drei
##pro
belg
friends
##ved
process
geandert
times
nutzen
could
appl
mer
toget
##erein
kategorie
transp
hear
address
apart
komment
schreiben
datenschutz
together
bestell
##ks
erfolgreich
##45
sign
links
restaurant
admin
komp
##ade
www
working
eigen
search
account
internet
market
veranstalt
nah
##iben
char
##mo
##ics
75
beant
##aden
tal
##geben
solution
category
wait
damit
##achsen
##111
##aterial
bec
##ys
think
pres
neuen
health
god
fruh
##ower
esc
bereits
verbind
##alten
adress
lux
##etzen
through
met
##satz
aktiv
##ertif
geh
##345678910
##uz
stehen
verwenden
prom
unten
eff
buy
mill
42
##unst
ca
##aß
##ope
code
things
social
##irk
ready
yourself
small
effe
58
frank
##cover
ok
47
age
content
size
accept
italian
ear
##find
seiten
##nung
gre
2003
##tens
##eten
activ
##view
zahl
disc
##otes
##314
mitglieder
unterstutzung
particip
##fang
erreichen
agree
##red
##fuhr
##king
##imum
care
##ss
##atch
sicherheit
##mog
##71
##ica
besch
entde
cap
fer
gleich
65
nieder
alt
beantwor
dienstleistungen
stud
write
##que
heraus
modified
bleiben
such
##angen
nichts
##ctive
gehen
reach
erstell
verk
##ving
zusammenarbeit
##fahr
##ately
solutions
fahr
est
##rib
manag
material
comments
access
##ritt
kont
##69
easy
##par
losung
##ability
programm
##uer
energ
wirklich
##wend
verein
##ho
##fast
save
89
gefallt
##ines
direkt
weeks
recommen
##asst
##quir
##2021
##ca
akzep
##jun
verschieden
##37
schwe
votes
short
cooper
begru
because
dre
mode
liefer
spanish
rom
inc
tak
##ande
city
recommend
created
breakfast
verwendet
indust
##entr
bur
##lass
adresse
share
##aum
commun
cle
sprachen
##jul
complete
tell
option
##ria
pur
genießen
languages
kar
standard
stellen
country
discover
##ov
2004
interesse
sal
guar
condition
beau
tax
members
gesund
##ock
really
##bed
##11121
big
hope
##ße
anderung
##ingungen
##59
guarante
few
gemein
##dy
##november
erstellt
##emb
##isen
group
##iele
welch
colle
##word
mochte
waren
##tiert
tick
tradition
##ser
buchen
provide
house
##september
same
##nah
users
##11121314
escort
51
##mas
picture
##ßer
aktuell
photos
##uman
macht
european
main
berlin
ende
sorry
geht
persons
##48
beauti
##uber
fotos
kaufen
##ty
##aben
##unter
denn
##gal
used
aktualisierung
##itate
leave
orig
##august
##ub
##erland
lange
##stuck
var
republ
##febru
losungen
hist
##ouch
##mitte
customer
mob
##ature
hinzu
pat
reas
eng
##keiten
##oto
hes
benutzer
auth
##ients
less
summer
##gru
##oun
##rufen
##fur
reference
##iere
##orn
##zeiten
spanisch
beautiful
sof
##frieden
##april
##allen
registered
konnte
##act
##ats
level
##inge
52
66
frei
verbindung
##led
53
note
##isp
##isten
durfen
bewert
69
mitglied
organis
course
pack
##1516
spiel
italy
closed
understand
kennen
sollten
##na
leider
##ye
##oc
oper
doch
taglich
bereich
antwort
media
simple
schweiz
model
oster
nein
press
funktioniert
##pos
works
gest
origin
##ogra
brows
entdecken
##anze
eines
familie
vergessen
hesitate
##ativ
jede
##ism
prev
morgen
##cm
grupp
geschlossen
visitors
opening
power
2021
become
lord
##inen
##hren
##weise
##fl
feed
79
##tre
##ierte
kg
##isf
##cript
offen
latest
300
impress
##full
rooms
##thers
gegen
fro
##hol
bezirk
million
kunst
##ption
anm
ihn
austria
##ugt
exam
außer
##ache
##ehen
##eden
jav
install
melden
quick
insp
geschichte
water
##usive
86
##ator
interessieren
osterreich
angebote
bring
kor
sta
##ka
ort
sommer
einmal
fehl
##111213141516
set
catalogue
150
##schn
france
luxemb
57
##bes
##ittle
pages
##med
versuchen
aben
train
ren
##ather
##zeich
addition
satisf
erhalt
##apan
dig
##itr
jederzeit
##hend
needs
fruhstuck
##gesch
wunsche
##ery
mitarbeit
little
via
invest
##84
##des
being
suche
komm
projekte
tagen
zog
trust
zufrieden
using
password
##ctions
##erung
##back
##ently
##11121314151617
nun
individual
said
##afts
ganze
##aily
nachsten
##ters
85
daily
meiner
ausge
##pect
nam
##ove
amer
urlaub
anre
entsp
touch
##ende
##tellt
impro
##ique
japan
##forderungen
sent
pun
during
wom
##ument
present
sou
essen
##liches
##ey
erwachsen
##igkeiten
##stellung
nothing
pri
##ness
everyone
empfe
##ckt
##ized
verp
sug
seine
compet
genau
ol
tri
##phone
stuck
##gle
##rieben
christmas
she
had
air
lim
lot
glad
##ef
##igung
weniger
guten
##aler
anzahl
spaß
professional
creat
tel
join
reise
bede
datum
homepage
zogern
vol
##standen
teilen
##ha
erst
kommentare
mat
##pre
interessiert
autom
verbess
vill
##stehen
javas
##wh
glau
entwick
conditions
besonder
##73
forg
##itzerland
##196
whole
beisp
sollte
javascript
##1819
ersten
hung
##inner
mann
tw
lar
kommt
warten
italienisch
exist
challen
abs
sparen
##aut
##gem
##90
keep
terms
slo
ziel
dream
untersch
rele
reli
begrußen
##ernen
frankreich
##urn
uses
id
produkten
##lands
text
uk
required
cooperation
befind
usa
##ief
area
##0000
##setz
##teile
freund
const
weihn
impressum
horen
directly
##tware
others
optim
pictures
beantworten
hinter
letzten
##bal
ihm
##mbh
kurze
flexib
russian
exce
switzerland
wert
inquir
kostenlos
beitr
weiß
innovation
##cc
slow
vertrauen
##ritten
around
accord
##fern
showing
##ugen
gmbh
et
production
office
portugal
videos
fields
##juz
united
manu
browser
previous
passwort
weltw
anything
speci
##ielle
##janu
unterstutzen
kannst
software
unver
beim
sugges
erle
ergebnissen
##elder
lieben
user
##abei
##arten
##asse
saf
mad
bir
dabei
reservation
job
cas
##zimmer
##83
gesamt
##111213141516171819
return
protection
env
travel
allow
spain
perfect
freunde
##achen
##nisse
goo
recht
drink
##pm
##neh
##schnitt
conc
glo
fact
betr
leist
successful
ec
##ever
##antwort
dav
##other
##2223
wasser
sing
##orts
##iron
doc
##eter
bek
derzeit
##verage
technical
development
##fall
weight
google
setzen
##ino
##ications
bit
erforder
excl
##2425
erhaltlich
appro
darauf
emplo
test
shall
build
pleased
dear
consult
##roat
atten
nachste
hotels
transport
perio
##2627
might
##ruck
traum
##2930
comfort
err
verantwort
##20212223
weltweit
advant
##ark
64
##100
##ieß
delivery
bestat
lau
environ
##87
##iten
##ilt
paar
##row
sun
##trag
##amm
##ok
##moglich
typ
inkl
anfang
specif
##asch
sport
fehler
##itaten
##262728
dinge
##jahr
ersch
##ision
##oud
unique
feedback
above
##32
##81
valid
##202122232425
environment
cal
starts
gra
##hin
beachten
zuver
##2627282930
sum
another
sek
wahrend
mitarbeiter
tom
spanien
money
zuverlass
markt
lebens
weil
gemacht
##fin
##grund
##licher
able
##gef
kr
situ
##imm
least
statt
##dem
create
##ada
networ
veranstaltungen
average
##ission
##gth
bul
##erst
obje
##zial
monate
dest
enth
##ison
kurz
##ania
2000
werde
wishes
reply
##uld
warm
clients
accom
sag
friend
hallo
##formular
##affen
##igar
hal
##2021222324252627282930
##ting
forum
##65
##ischer
##old
near
prin
payment
landern
original
##fully
##onds
##gs
safe
har
mindes
benef
opp
rating
##ielen
minute
geld
music
private
##ana
##ins
##ultur
film
geschafts
modell
##nungs
costs
##flich
adults
park
nutzung
subs
steht
relax
##iziert
htt
kap
erkl
dou
##41
##72
##sehen
ris
ann
##herlands
confir
entsche
88
120
##zech
secur
verwendung
perform
china
##ivers
images
vorher
treffen
mindestens
pop
ged
gewicht
continue
##iet
believe
gul
##fol
digital
##ily
wohn
jedes
##otogra
##uche
##345678910111213141516171819
telephone
bond
##ruf
reasons
##etho
##up
transl
act
allgem
referenz
richtige
vier
##reib
##raum
##ickel
werk
receiv
##wers
bulgar
tit
tem
erwachsene
lernen
niederl
##uhr
netherlands
ed
booking
camp
##coming
gemeinsam
sea
##2019
result
##anken
four
##ites
glauben
czech
height
effic
unterschied
##202122232425262728293031
76
wind
ach
changed
companies
##ype
gee
##ane
einver
talk
management
ce
##ands
schicken
##tice
leute
nice
##wide
##nam
author
##ucht
hause
suggestions
94
stra
respon
certif
mot
asked
stre
##legen
answers
##seite
##icial
story
##annt
hei
##alen
away
non
1000
daß
king
voraus
gerade
step
##auch
worldwide
ideas
assist
##ety
geschrieben
ka
nahe
general
##nahme
wund
registration
equ
##195
zusatz
musik
garan
##where
tsche
period
application
##gel
##iven
##gestellt
naturlich
problems
010
regular
mensch
interesting
96
tschech
anal
##gest
according
earth
bondage
aufent
bestim
gall
history
mos
seas
deta
strong
bevor
guarantee
mean
##gesamt
waiting
##weis
frau
legal
nights
tool
location
ruck
##fact
##bedingungen
##itive
bekommen
safety
ko
strateg
rev
grow
ever
hello
offnungs
watch
##hip
position
requirements
belgium
bestellung
##ually
##ente
inhalt
gesundheit
##82
super
inspir
##sicht
##fig
##dom
security
##hib
##itable
##unsch
auswahlen
##ral
likes
falls
##elle
auto
subscri
denken
beginnt
apartment
##oten
##ided
ideal
insgesamt
nature
moglichkeiten
sure
empfehlen
hohe
##tag
happen
food
reliable
heart
idea
netz
sow
bie
ganzen
anim
##lie
exc
makes
done
vorteile
##room
aller
minimum
additional
both
deinen
irgend
##dec
forgot
manufact
profil
##irt
##ides
include
##ulation
inde
simp
felder
##dat
necess
61
eben
favor
##ples
kleine
login
tat
einzigar
##43
fuhlen
spam
faq
activities
changes
durchschnitt
##df
arriv
wunsch
einzel
profile
400
prior
entwicklung
cann
dazu
till
##atze
card
##ash
konnten
meer
mr
##arung
jem
##ret
game
wonder
##ortun
schauen
akzeptieren
##onom
##time
sozial
196
niem
mw
opportun
##ination
##47
berat
telefax
klein
poland
##tu
vielle
##utet
vielleicht
reservierung
belgien
case
else
republic
umf
class
bru
poss
behand
tau
words
expect
##ives
##gungen
expl
dom
vision
updates
gultig
##001
beach
tut
articles
true
##merk
laden
fab
jour
##innen
once
##ains
##enter
key
offnungszeiten
andern
pras
official
anb
##eldung
##por
differen
##ko
##rol
##ctor
stunde
##march
simply
mid
inte
stor
umw
einverstanden
aktuelle
continu
##nehmer
schritt
birth
##gefugt
sondern
zeige
entwickel
##mit
clear
grie
empf
##urf
luck
##uh
steps
keinen
auswahl
##ised
coming
eig
items
abend
72
bearbeit
sei
human
schutz
niederlande
born
zuh
map
offiz
achie
hilf
##iti
dok
enough
proper
##raft
later
##tial
##2018
beginning
liste
attention
sagt
##selves
technology
bedeutet
lit
ung
bra
hinzugefugt
mun
occ
##ense
##rik
fair
ideen
meeting
metho
110
nachrichten
included
##ee
##bild
##ought
holidays
deliver
##ilities
frequ
idee
##ike
##2020
##auft
inquiry
going
season
kontaktformular
##arte
employe
tickets
normal
##shop
wahl
stu
##ibility
##ott
personlich
gebur
##ames
##zeug
großen
monaten
denen
energy
##endet
black
uberp
blick
maximum
bestellen
probleme
##may
##halte
2002
treten
##december
##aste
250
##sk
##ourg
stop
familien
##datum
##ng
zertif
follower
weihnachten
##ric
image
attra
##tigt
##uge
800
##ara
##ichen
willst
##medi
ware
dut
necessary
rech
##ements
among
effiz
mwst
anfragen
beraten
national
type
cannot
##ull
beginnen
categories
includes
##345678910111213141516171819202122232425262728293031
##iges
nav
##stain
##by
word
grunde
error
chance
##october
##zug
##onn
herrn
entfer
longer
mil
##leit
areas
shipp
##ika
flug
maxim
apartments
nachte
bietet
cent
##oktober
##bel
sustain
##aces
##heiten
beispiel
confirm
richtig
##orrow
anregungen
absol
74
gutes
pie
firma
funf
wal
##zeigt
modern
haufig
seconds
example
letzt
comment
unseres
neuigkeiten
##uts
##app
##port
##iled
##juni
##ury
ref
extra
##forderung
verschiedene
situation
##mark
light
passen
gesam
choice
##ool
##ake
##achst
conne
treat
##ierungen
integr
imple
suitable
##ney
telefonisch
##pan
##itter
europaischen
##oint
##yle
ukra
##ired
gruppe
kam
sekunden
gallery
run
##ob
global
98
##mel
vat
registrieren
aufenthalt
netzwer
67
based
augen
merry
dev
##ragen
spielen
phil
##tschaft
zahlen
dep
active
bewertung
##go
##juli
##voll
daruber
##gene
exhib
close
fertig
altern
##mitted
##unch
##uth
gern
##jen
##ony
sud
hor
lic
bewe
nachhal
spezial
##februar
manufactur
##da
##isches
availability
##mai
prac
##mm
themen
anwend
platz
termin
namen
turn
##oot
tomorrow
##july
automat
##bewer
protected
vollstand
raum
passion
zugang
77
center
##hang
imprint
employees
##cel
##standnis
frequently
ero
plus
clock
eure
workshop
past
immedi
guest
thing
68
##june
##chtest
erde
options
zuhause
five
##bereit
##istr
wohl
purch
##february
##ahle
1st
##rodu
sofort
len
davon
dafur
##ledge
##zess
anforderungen
report
promo
##ule
##play
uberall
photo
morning
polen
mission
##zo
stru
haupt
hatte
quickly
fes
##42
##views
improve
pdf
opin
dort
pal
informieren
##ulture
passiert
jung
##ift
nov
fort
geboren
russisch
austral
mochtest
flexible
veranstaltung
etc
green
regel
followers
second
univers
##setzung
##ister
##press
komfort
polit
danken
south
folgt
konto
78
kan
oben
##uf
##fre
defin
##58
spater
erforderlich
tro
##inn
##ellen
iso
##olution
host
verander
##rive
##ization
training
##ertain
##anc
bad
allowed
verbessern
##ona
erne
arr
##abor
##ene
sever
thema
dutch
letztes
rab
finn
welches
bab
union
##atures
aw
##pun
kop
entsch
menu
wrong
healthy
befinden
wich
##mann
alm
plann
distance
ens
thous
hard
industry
63
73
87
low
villa
##str
constru
kit
##mittel
vac
meinen
umwelt
93
##ribution
prepar
seen
arab
eigenen
community
richtigen
verschiedenen
profit
jan
ye
##57
##kehr
##bere
hund
##ints
hoffen
san
##09
tes
##bung
##blick
corre
sales
##reten
stol
##res
brand
advice
erwarten
123
findet
##gabe
several
bau
motiv
anders
mi
law
laufen
written
expert
aktivitaten
##unately
leiden
left
##gangen
descri
local
luxembourg
sound
erlaub
##2017
##ume
energie
sex
##ktur
wenden
verfugbarkeit
richt
halten
##ba
upon
71
notwend
started
beratung
##ikation
##orted
##gehend
versand
sale
herunter
discuss
trip
twitter
performance
mul
##ends
ticket
cr
rund
##wel
ihres
tv
verbr
##maß
bewertungen
##gang
registriert
##mod
thir
truth
creative
bank
sil
##emark
knowledge
kategorien
specific
means
party
cam
unfort
iss
value
satisfied
challenge
factory
jes
direct
##air
hungary
certain
mm
exhibition
wahrlich
respons
kingdom
84
97
reisen
##vak
prob
public
##igation
entfernt
##ker
##ßt
hot
##haus
##oph
comes
status
ster
anze
##ierten
parts
privat
whom
women
side
##ordin
##klarung
effective
mut
braucht
##marz
rent
##aven
freue
remember
##uments
##kunf
turke
liegt
unfortunately
fire
zuerst
deuts
angem
att
entry
##ondere
##alerie
sem
int
kommun
indeed
single
62
##dezember
responsible
##action
anmeldung
agen
rad
##stes
views
jahres
large
successfully
fal
difference
table
##llent
##eder
schr
##ader
##tube
sand
vorh
space
gehe
control
ungarn
fest
herzen
stimme
600
artist
konig
##bet
##onnen
unterstutzt
ap
##esh
smart
##riter
2001
technische
luxemburg
advantages
coff
proud
finanz
verkauf
bud
##jenigen
91
##51
depart
alb
administr
##ises
wett
angezeigt
discount
reservations
##gress
muse
staff
##ried
##iam
##ists
appoint
bedurf
fax
efficient
rou
##ged
##erklarung
states
##ids
jedem
journey
stren
usd
innovative
stolz
kuche
range
package
##ton
produktion
informations
takes
slovak
wonderful
verstehen
bisher
useful
##erve
repr
##idung
##wert
benutzen
reviews
##aul
doing
compl
function
overview
cred
secure
mount
buro
##ilitat
gesehen
garden
gestell
zeigen
pix
ruman
regard
cookie
geschaft
bedingungen
body
worth
color
##anca
youtube
##burg
gep
wes
##bind
##osten
teilnehmer
understanding
leistungen
tausen
##54
##ron
sonder
coffee
sle
bew
##aften
fund
##angeb
##ource
ip
vo
asian
##abl
hilfreich
##ystem
exa
display
##body
wahle
##utzt
grat
systems
81
paris
365
frohe
excellent
taken
highest
schone
uberze
180
network
dah
fuhr
1999
gelesen
surpr
behind
##eiten
verstandnis
acht
##ship
##lassen
genug
matter
republik
##bare
##yes
##kom
ansp
starten
redu
##ject
consider
himmel
immediately
##ja
frauen
therefore
83
erz
##rid
gruppen
##partner
telefonnummer
standards
bem
pan
verd
madchen
hands
foto
sweden
mobile
commer
kil
beginn
says
##januar
east
goal
listen
##cke
##lar
oft
sieht
wenig
selection
shortly
cele
##rig
veh
kultur
##laden
##ico
elect
##ars
heaven
##reece
messen
realis
schweden
put
##53
##ignet
programme
logo
##earch
rat
double
##mitt
personlichen
siehe
##ulations
160
bringen
##vin
allgemein
length
initi
vehic
school
eroff
froh
verarbeit
features
finde
##druck
angene
sell
living
experien
point
##ießlich
wettbewer
celebr
allem
##antie
deinem
datenschutzerklarung
kommentar
forget
follows
concern
betragt
karte
accommod
almost
leidenschaft
##det
subscribe
foc
##less
##mens
tas
##itude
wed
often
##abel
informed
##anten
##cture
capac
ra
uberr
weiteren
wichtigsten
entsprechen
received
submitted
masch
##richt
vorschl
##preis
late
spons
wahrheit
pleasant
groups
rate
fabrik
herzlichen
anderungen
millionen
##lage
meinem
tourism
##ules
geschen
##idence
##64
##olf
##eldet
abonn
research
instit
bor
##rank
##iell
euros
seeing
respond
##iting
aud
head
tages
greece
mittel
prefer
points
advance
against
##liegen
coll
##uter
##ano
helpful
kaffe
exactly
zentr
##chenland
various
advise
seinen
detailed
##wahl
young
photogra
000€
aktuellen
gehort
bein
##iste
##prach
pleasure
appointment
##ios
##steller
##auer
freunden
gesendet
engag
wort
##gh
##hm
##ones
##ahn
teams
kamp
lt
##kosten
liefern
apply
line
##gung
##posal
tex
neuesten
denmark
##ident
participants
##fuhrt
##une
##wards
econom
uberprufen
##ager
starting
kompeten
white
basis
vereinbar
##january
qur
##bnis
seiner
##ension
focus
##vert
schritte
unterkunft
##cular
##ising
bege
dopp
museum
dauert
shipping
##ram
virt
won
ziele
##96
including
arbeits
evening
danemark
eat
diffic
pain
##ically
lieferung
##gro
##esch
notice
##frage
##ec
##ags
##frist
hon
style
dienste
offizielle
alone
chin
##mos
welcoming
wunder
erlaubt
##ktive
##urch
diejenigen
org
except
glucklich
griechenland
ungl
##2016
arrival
cast
galerie
plat
schonen
daran
document
ten
##ran
##km
sonst
blue
komplet
190
kunde
prem
##ipment
action
zeichen
sowie
norwe
sitz
##bil
erinner
012
highl
histor
while
projekten
strand
individuell
comfortable
##ellschaft
einge
processing
hearing
##ichert
##emap
versp
##stein
anmelden
croat
##war
##tend
turk
##of
##ape
glaub
orders
third
00h
erstellen
anbieten
capacity
teile
##stellen
##weil
zahlung
guaranteed
festiv
##platz
bleibt
ju
seien
konz
geburt
dy
##bau
##hnt
died
portugues
construction
##beg
particular
beitrage
##ior
##ationale
mittag
420
peace
renov
##uern
kaffee
kauf
worte
possib
impression
collection
##bin
gewunsch
neuer
rein
##ersch
bestimm
meisten
##gende
building
ukraine
##cep
##zept
irgendwel
700
nied
##va
##forum
club
parad
bos
##ienen
leicht
##wohn
rabatt
obl
##lier
schle
farbe
archite
vorhanden
##uhl
##mission
visits
forums
kitchen
kummer
##95
##recht
analy
##ingt
experten
poten
##ably
schwar
besonders
geeignet
##ires
350
##ping
lead
##punkt
betrie
russia
verantwortlich
bill
schluss
afr
##igte
happens
##ktionen
##use
140
einzigartig
##ierungs
##rift
erklaren
board
etwa
kleinen
reservierungen
downloads
https
##chs
##berg
conferen
topics
property
erneut
##fah
incre
tar
moder
box
outs
sloven
##onen
wet
wirst
sitemap
clean
tools
angemeldet
ern
respe
eigene
lok
road
verpassen
kroat
##ii
##hnen
deal
models
sleep
##lagen
##01
kontaktiere
opportunity
##artet
pool
sold
gilt
€1
##oes
##arf
informiert
##98
que
guter
consent
autor
jesus
chinese
review
sollen
entfern
irgendwelche
gesetz
doppel
##orben
schul
bitten
##erte
##tire
rechts
nachhaltig
exkl
release
store
marketing
92
fant
finan
ensure
alex
pet
konk
folgendes
##aim
stock
##lichkeit
meas
besteht
finally
##zeichnet
licht
pak
##tiere
foren
half
record
archive
fac
deiner
gebr
##flicht
##hand
load
north
##hendes
beitrag
folge
weather
prozess
chf
needed
meinung
technologie
niederland
welcher
photograph
gegrund
poln
##h00
invite
pf
##ffer
inhalte
medien
garten
jemand
difficult
weekend
birthday
360
##gn
parking
benefits
license
culture
lad
jobs
wine
maß
angeboten
wochenende
unglaub
remain
organisation
unverbind
##tain
##merksam
ire
##ding
##hung
##ified
gegrundet
dimens
gesand
appre
erreichbar
gold
##rat
##annen
aufmerksam
wichtige
portuguese
lage
firmen
korper
http
sustainable
##zogen
upload
reason
gift
hatten
meter
kunstler
anges
##2015
produk
gleichen
exclusive
appreci
##ican
##ama
umgehend
contacts
trink
##grat
transfer
großer
natural
satisfaction
purchase
introdu
##ias
##onia
##anted
hamb
##grad
benotigt
perfekt
absolute
eigentlich
nord
##od
repl
##anger
##gebung
implement
chann
infos
window
zuverlassig
eyes
malt
unge
##roll
##ross
proph
isra
nachstes
ferien
82
coun
##iellen
verm
herausforderung
equipment
wein
habt
##fft
##iko
samm
weiterhin
##fahren
communication
fit
##oci
seid
##tical
##kg
garantie
sagte
garantiert
ireland
##ael
##gehen
lizen
swiss
challenges
kraft
##ms
##m1
##52
##era
portugies
session
mehrere
disk
ansichten
lost
##ances
schwer
congrat
sens
##iver
##zus
convin
##ancais
ltd
##rd
besitz
concept
experts
moglichkeit
entschuld
##oforum
##68
foroforum
hinweis
pap
studio
befindet
bedurfnisse
kore
vertre
produz
klar
russland
gestorben
documents
##ased
personally
##so
leg
heil
untenste
##icate
places
anrufen
170
stelle
schnellst
##61
print
##stead
schwier
feier
mart
archiv
examples
gab
ps
ven
##ork
welchen
supported
reality
finland
america
lunch
feb
export
kummern
instead
consum
gestellte
sau
entire
tech
baby
due
weise
section
##stellungen
industrie
woman
##bereich
taste
##buch
gewahr
anderes
lass
##cer
bedanken
fly
kreat
ones
atmos
offentlich
polish
cool
kennt
subject
niemals
##schließlich
untenstehendes
dru
##orte
unto
saison
##345
##fugen
farben
inklusive
##atory
completely
advantage
##falls
dor
allein
schneller
responsibility
hamburg
erlebnis
six
##brit
benutzt
philos
##erweise
##lla
disposal
hi
vergangen
steuern
temper
outside
entfernung
given
mand
##uhe
mogen
##annien
130
slowen
strength
##mon
possibilities
##umen
aufge
prec
finnland
collabor
##pal
chines
zeitraum
someone
easier
benefit
kids
schaffen
dates
mindest
erleben
motor
mex
nutzungs
modification
portugiesisch
presen
hersteller
competition
unverg
entscheiden
atmosph
##ife
##lose
references
url
schlaf
associ
herausforderungen
bekannt
achieve
##ette
spend
sports
spezif
meters
advent
hinterlassen
##ickt
##ips
##cially
seinem
fuhren
indem
relations
gottes
##britannien
gelegen
beiden
zie
##gaben
protect
##redit
##lungen
##rech
erster
gefallen
wider
##rad
##ties
##ether
##icated
offnen
bran
romania
popular
malta
wall
##aw
advert
server
materials
route
spir
semin
bi
##´s
##geschlossen
##reibung
statist
designed
##63
##°c
##reicht
irland
roman
kilom
dynam
##aschen
135
shows
##atives
friendly
title
sozialen
effizien
gespe
opened
hoffe
located
establ
##auty
opinion
eintrag
##ervice
extre
track
mass
##iff
computer
reservieren
accommodation
abonnieren
kindern
##azitat
eg
ros
early
beantwortet
slovakia
330
##ita
trade
shopping
serve
flexibel
##tritt
vacation
vien
##iety
##ources
besondere
zeiten
liebl
geburtstag
##94
reading
##233
completed
verkaufen
mel
##tionen
gren
entwickelt
hom
limited
relev
##zw
##2000
festival
niederlandisch
##ya
##irat
worden
interview
manch
schreib
agent
##404
prasen
##vol
beauty
file
##ullen
##daten
amb
founded
dokument
##met
##za
##achts
##izes
handels
enthalten
animals
philosoph
wachsen
##xx
##times
langer
spring
internationale
punkte
##akei
treatment
rumanien
ul
##itor
##umente
##rika
provided
generation
africa
lizenz
schnelle
geschenk
wetter
kre
island
##zeuge
optionen
camping
##kauf
fordern
jedoch
selected
throughout
came
freude
visiting
verlassen
bearbeitet
verarbeitung
source
agre
losen
akzeptiere
installation
m²
##iar
unvergess
gespeichert
##spr
##ml
charac
vienna
9001
##uren
##senden
sicherheits
hy
rules
soul
studen
planning
holl
1998
ober
##ilen
##fullen
navigation
gesamte
platform
croatia
blo
##67
married
##teilung
##ny
##ling
##ai
##karte
unfor
##begri
fach
##eine
shar
vorbereit
cet
##table
town
##110
fully
beispiele
fish
sn
anliegen
gesellschaft
##qual
websites
serb
engine
ere
edition
##fal
divers
##deu
girls
gehoren
umfassen
schnellstmoglich
doesn
approx
risk
exciting
##quem
volk
wohnung
richtlin
ill
seven
michael
interessant
erfahrungen
quant
##name
##more
vertrau
slowakei
however
hilft
##folio
arrang
path
surely
alternative
credit
leid
referenzen
euer
##bringen
games
##ctiv
sched
teach
startseite
lin
erfullen
john
bezahlen
tor
##do
sometimes
contrib
match
gladly
zusatzliche
schlussel
master
##505
darf
##dam
##immen
hoher
maybe
cover
besucht
corpor
##mobil
thousands
220
wien
instag
3d
wachst
erreicht
##angel
west
##91
12345678910111213141516171819202122232425262728293031
wohin
registrierung
eins
hergestellt
geschutzt
großar
endlich
##nahmen
lach
male
anzu
kostet
promise
cou
lasst
vieles
1997
conference
slovenia
centr
##ohlen
##chter
fear
tschechische
practice
unforget
instagram
lives
faster
##produ
applications
##cle
erg
verantwortung
##inform
seem
##2014
motto
niemand
kroatien
##ories
amaz
client
positive
partnern
constant
assistance
anzeigen
enquir
aim
stil
##ij
##kor
bequem
schau
125
15th
##eint
zeigt
instr
limit
enthalt
move
buchung
bereichen
entspannen
translation
multi
dinner
##zy
looks
stars
occur
paket
intell
verste
gegeben
unforgettable
fle
ow
##ett
whether
##iken
schwarz
momentan
kooper
sen
##ball
feuer
##plan
recommended
allgemeine
laufenden
##fest
##isiert
##rop
maj
ausfuhr
prag
gesagt
starke
bind
rot
##gent
emo
spricht
nutzer
viewed
##finden
baum
cat
##ux
anruf
anytime
knows
großbritannien
album
slowenien
##via
##feld
##ini
canada
inspiration
israel
##sc
##748
manager
forsch
jeweil
##assung
regional
nutzungsbedingungen
lith
##ky
##ases
hair
death
doll
operation
zufriedenheit
##alter
dead
espe
##ahren
##panol
##ex
##usiv
bessere
edu
kolle
##tz
##pose
wear
##icke
spat
ways
piece
bon
##lauf
##kund
charge
trinken
2nd
##pen
spezielle
begins
bestellungen
consulting
herunterladen
pension
##pts
00€
maps
tragen
##ikationen
stark
ausgewahl
certified
highlights
spirit
swe
ubern
anywhere
notwendig
gmt
zukunf
shoes
portfolio
regarding
##days
##ima
accep
beide
gene
rob
answered
bezie
staaten
continuing
konigreich
competen
manchmal
feld
##ga
##spro
klick
besuche
budget
##cing
##210
getting
guide
perfekte
kredit
##orden
unab
##ders
goals
##hof
achtung
flo
##ester
##icher
enable
##verstand
ausstellung
##atzen
unternehmens
developed
entwickeln
999
bath
hits
##dle
##esent
##reg
ansehen
profitieren
##ienst
princi
##arian
##astic
clo
everywhere
anwendung
expertise
especially
kir
konferen
##vention
##anzen
##augustseptember
##62
cu
feder
mem
##ufen
##500
einfacher
topic
##liste
anti
spo
##haltet
internationalen
networks
wanted
thou
aug
making
unters
sites
colour
dreams
bulgaria
kn
##attet
solve
termine
##fahrt
erstes
netzwerk
feiern
##fangen
##ierend
themselves
serious
participate
wunscht
bott
##erk
dog
beruf
iden
konnt
24h
stell
ahn
##con
insel
elekt
##comes
investment
aufmerksamkeit
fotogra
les
##93
mitte
chat
families
##ternal
##hafen
profilbild
jud
ankunft
##ppe
hoff
ruf
einfache
menge
##ichtet
##entum
koll
##leg
##imate
indep
ruh
filter
vorschlage
##vo
12345678910
hell
distrib
optional
dogs
empt
copy
lithu
perspe
##altung
erfolgreiche
punkt
weihnachts
##viel
feiert
appear
archives
bulgarien
oct
rome
##kauft
supplier
hum
lauf
wide
115
erwartet
locations
abente
correct
mu
sep
magic
levels
unabhang
##stad
unbe
##pected
publiziert
round
##raf
anyone
##werk
1995
##445
planen
##teilen
detaill
revolution
mutter
hos
##kon
##cker
pray
gewinnen
individuelle
eleg
kommunikation
egal
m2
##isse
210
numbers
vorbei
##vely
represent
##po
##elf
grun
final
parties
partnership
agency
ther
div
reques
niedrig
peter
went
##nach
abst
leer
##iding
brief
letzter
empfangen
flughafen
##xis
wirtschaft
relig
eroffnung
empty
fen
kontakte
##bots
lust
##reise
built
logist
restaurants
favorite
accepted
requested
##vement
respect
##aint
teilnahme
self
presse
commercial
ereig
##etragen
desto
receiving
effizient
hr
kat
mas
21st
commit
japanese
manufacturer
beinhaltet
tiere
##hner
arten
101
##head
veroffentlichung
instru
beschreibung
titel
##altet
marken
##annten
speed
hochste
financial
20th
##inger
##next
ausfullen
zurich
brauch
kapazitat
105
personliche
bedarf
values
domain
450
eye
interessante
bekom
mountains
##legt
platt
erweit
types
analys
priority
aufget
##2013
gepl
standort
lett
scre
erzahlen
chinesisch
spannen
fem
sizes
fresh
##ordnung
easily
congratulations
gib
lond
##hab
lieber
format
paper
anspru
##mals
##ero
marke
kostenlose
garantieren
daher
wants
##hor
##iency
reserve
##einander
##ativen
##belie
##hau
##hund
##yl
europaische
opportunities
promotion
tausende
5th
##setzen
usually
sonne
smile
immobil
portal
activity
description
##maßig
900
cz
##iß
sieben
haust
machine
##wohner
978
##stoff
##ilar
seek
##ausch
ourselves
10th
gemaß
actually
australia
gratis
london
vi
##rah
##300
##cs
deren
##schaften
##190
cold
champ
goes
tisch
##pers
sprich
selbstverstand
inquiries
lieblings
##deutsch
hunde
vater
##ses
##hle
##omas
cars
drinks
moses
happened
ew
##ieb
18th
gesprach
smo
uberzeugen
identif
dialog
maschinen
produktions
educ
##itation
andre
spa
geist
bestes
airport
##afen
##edom
getan
announ
bauen
fri
aufnehmen
##ighted
ubersicht
known
statement
naher
bestatigen
turkey
relationship
##zie
##ari
hall
having
deshalb
fahren
older
manner
empfohlen
jen
##97
separ
prim
desired
angaben
verloren
population
geehr
din
lut
francais
ship
vari
umfasst
prepared
versprechen
ehr
##aktiv
##joe
##test
##zust
##ione
auftrag
##usst
##aps
gros
abenteuer
##ffic
growing
##zul
##chsel
neben
gefahr
efficiency
pflicht
##ament
##umn
ausland
##ending
eigentum
polnisch
selbstverstandlich
##bre
##ennen
##2011
##ienten
konzept
discl
competitive
lautet
middle
herv
##gu
thejoe
norway
hochwer
ep
##aude
convers
brit
visitor
1996
kanada
eintritt
25th
funktionen
##bald
cart
rates
##cies
progress
contra
traume
##mlich
amount
##endar
darum
sorgen
hinzufugen
issue
certainly
deutsche
geheim
celebrate
##stru
proced
publication
technik
approach
mic
ton
##wand
phys
centre
norwegen
adventure
brauchst
kol
oil
volle
##wind
verhe
common
behandlung
##una
sechs
erken
express
purpose
bestimmt
wid
##wunsch
##ahlt
##3839
haupts
aufgetreten
hervor
##ktor
##rus
fav
404
##464
mobil
ebenfalls
##cen
##hop
##3435
supply
##1424
reception
voller
##teilt
versandkosten
##rag
contains
regeln
##izin
medical
fruher
geduld
##mack
##piel
##utt
freedom
betre
departure
##bu
though
##isa
umfang
brauche
mention
colors
magaz
##ultural
##itel
##rolle
rei
##2012
schuhe
##idden
##haf
participated
competent
schutzen
deutschen
initiative
##arm
toll
unk
bett
##3637
summe
heim
angst
angel
##alender
kurs
##aster
uhrzeit
##fragen
visited
generated
ful
##3233
thought
##nischen
teilgenommen
##code
praz
korre
##angebote
##ills
sobald
findest
belong
similar
inside
##tics
maximale
##iter
schre
goods
teilnehmen
angesehen
whate
##cks
werkt
##raw
##ostet
anderem
flexibility
lithuania
whatever
schrift
seele
musst
eltern
verandern
pixel
##quen
study
implementation
channel
ba
##fil
##amer
lacheln
roo
##sa
001
gekommen
decision
marked
surf
modelle
central
ef
##gers
gross
bringt
tod
30th
secret
##begriffen
cir
sicht
spiele
angegeben
powered
gelegenheit
##volk
ut
anw
front
##ffet
##spe
##zeitig
assume
partnersch
capital
colleag
calendar
major
pets
##bon
##org
##ators
##imal
nachdem
held
american
heißen
zentrum
##tended
5000
jack
##system
##tes
everybody
##sph
##ify
wherever
##trage
quite
praxis
turkei
fas
##ola
abendessen
quran
##12345678910111213141516171819202122232425262728293031
latvia
litauen
van
erho
##2010
langfrist
flexibilitat
cases
012345678910
potential
wand
fallen
##volkerung
##ki
imag
facts
##ouses
drucken
ress
handler
luft
series
missing
##moglichen
boo
##frei
mother
zahlungs
taxi
calc
response
extrem
owner
lettland
pen
108
##riere
werke
personenbe
qualitats
inves
##igtes
tourist
estonia
##ograph
##freund
##34445
patient
forgotten
australien
falsch
collaboration
##ille
maria
lots
machines
blau
vehicle
380
crit
lose
erl
geworden
##sterdam
transparen
##36373839
neug
contain
lab
rain
anmerk
amsterdam
ubersetzung
bless
glass
darin
dokumente
zertifiziert
tu
umgebung
fuß
##ipped
vorherige
##32333435
inn
##igten
##utze
##gefuhrt
erfull
estland
materialien
anreise
ernst
##bank
bewerbung
binding
fotograf
eh
hu
##uhren
##08
unc
exch
stets
poly
trading
capt
##immung
vollstandig
sounds
martin
favour
fah
##92
##pa
tolle
herbst
verfasst
bedroom
quote
medizin
liter
frohes
cd
soc
19th
daniel
hinweise
commons
irgende
##aucher
fan
thomas
inbegriffen
einsatz
##ruft
whats
grand
##reifen
norm
technologies
kompetenz
kollek
monthly
investition
criter
hen
##ichtigen
werdet
##ogn
besonderen
politik
vereinbaren
appreciate
##itiv
2020april
##angt
##arbeiten
professionell
welchem
existiert
##ssel
##kau
##reche
sieh
##admin
resources
jahrhund
mogliche
lieferzeit
spambots
walk
testen
##4041424
father
gere
##ius
##ware
seg
empfehl
experiences
none
zz
church
168
offices
##herz
##bestim
heißt
##leitet
##stadt
luther
4th
ahead
einl
erm
stress
yours
arrive
books
sterne
ungefahr
holland
hosp
driv
oem
alte
produce
fahrzeug
munich
maximal
thousand
##endent
169
##zeption
optimal
##isierung
vergleich
workshops
##unehmen
2019november
##prom
schonheit
zweif
sky
surprise
gewahrleist
##404142434445
snow
state
trends
##cious
erfol
parents
grenzen
7th
everyday
freiheit
gestalten
##ammiam
bruder
miammiam
##will
##este
reich
##aufnahme
trotz
##son
frieden
regulation
datei
evangel
leistung
growth
##3233343536373839
kal
prufen
paul
zy
##gra
adult
cloud
parl
treffer
##74849
personenbezogen
pil
##bination
##esten
##eds
zustand
##ump
128
faith
geschmack
schonsten
handeln
markets
schlafen
##prochen
##poses
functional
##ranke
6th
por
sar
wil
##nete
nachster
schließen
reached
york
werte
nachfol
avo
begann
akzeptiert
gunst
wies
##la
##geber
##work
vereinigtes
gemeinschaft
entscheidung
explain
pieces
opinions
messenger
mandatory
750
rah
175
##renz
invol
reden
##leitung
virtual
neugier
##bestimm
cities
ht
##pol
##rust
chem
exter
participation
außerdem
probieren
##ctives
nl
thy
##alu
##uly
aufgaben
dritte
##box
implemen
plattform
##46474849
##mp
##erts
##ura
abrah
einzige
reduz
david
##ashion
haustiere
abraham
bike
sus
sector
##2030
liegen
hinaus
beschaf
gleiche
vehicles
konferenz
##atter
##ftung
##schluss
confirmation
halt
##merz
11th
##heber
saying
verkauft
handen
##yal
##arks
##setzungen
os
forder
##plex
erschaffen
brussel
krit
##ox
##iw
##orf
thee
##asche
zust
stab
higher
autumn
rober
##prechen
##cha
##ured
eindruck
kons
euren
england
##606
fenster
akti
band
2020august
myself
##platze
impos
purposes
accompan
strategy
verbringen
relevant
ii
lib
##statt
verme
verandert
109
extens
doppelzimmer
kreativ
ost
##zehn
14th
##cide
feeling
expens
8th
ball
fight
foot
wus
##07
##urd
##ichter
chap
gestern
flie
terr
valu
basic
drive
fig
##terday
##eits
lehr
16th
sinn
mails
christian
barcel
presentation
munchen
##ew
##cow
##eries
wem
##osen
##schein
standig
simpl
authen
##ounts
ded
kund
##wir
mall
119
prep
##101
offered
arbeitet
zusammenf
afterno
farm
consultation
passende
enquiry
fashion
wp
bevolkerung
decide
##usion
woher
complex
yesterday
century
wettbewerb
competence
langen
##lim
wege
##edish
abgeschlossen
##rif
engagement
vertreten
##informationen
geplant
##3233343536373839404142434445
vorteil
recy
urheber
belieb
equipped
micro
ath
sort
##asil
##prache
2020september
learning
prasent
##onym
motivation
tourismus
commitment
fak
repe
28th
kontaktaufnahme
advertising
##faltig
whatsapp
award
na
tue
spreche
sogar
mac
aspe
zeitpunkt
bezug
effect
vereinigte
method
sandra
mittagessen
kollegen
##atten
ordered
holz
organiz
vergangenheit
9th
kalender
tats
##mente
104
external
truly
disp
gelten
eigenes
employ
methods
bio
emer
mb
rar
##igner
leader
ausgest
adap
joy
transform
contents
kontin
fine
pu
##arent
firm
##565
recent
programs
okay
##oss
24th
getranke
coach
##mogliche
technischen
criteria
dress
##karten
##ceed
103
##ails
listed
moments
untersuch
##323334353637383940414243444546474849
echt
gps
sant
##04
##zip
##wise
flight
prakt
speziell
floor
##ental
##gegeben
imm
gestellt
street
tatig
zertifik
oblig
religion
cc
##mherz
arm
creation
swedish
confidence
außerhalb
cyp
##vis
106
12th
111
shown
upcoming
gewinner
##markt
cy
##ence
118
##uchte
demand
##ikan
großte
curious
signs
village
stories
komplett
korean
fern
hur
vote
##nungen
##bur
##pern
solid
dark
monats
taking
gepostet
constantly
afternoon
##hme
wichtigste
##unternehmen
amerika
wood
fore
didn
called
cheats
barmherz
schweizer
continuous
occas
##riterien
aktion
##ora
anna
lebt
recogn
prioritat
electric
##aimer
colleagues
tipp
##201
schule
##vern
aussehen
ausschließlich
##368
zufriedene
geburts
exchange
dun
fans
gal
##fa
##anne
reward
zuvor
station
##auchen
scheint
produced
großes
##chtenstein
vergn
planned
##large
quantity
obs
compos
guid
kopf
absolutely
laufzeit
cyprus
lager
##aco
starken
lauft
koordin
kleiner
education
impossible
##06
gesucht
##gramm
##fordern
autos
experienced
wedding
##zustellen
society
971
bib
##hel
furn
verfugt
basierend
established
roll
##uted
##erungen
##ulate
##ppen
##glish
functions
##arbeitet
foundation
##ova
dollar
aff
kne
##cil
##col
##urance
expected
premium
gewunschte
independent
zzgl
barcelona
##119
##lei
umsetzung
165
149
breite
integration
##bb
##icherung
effektiv
gesandten
students
wachstum
##felder
thus
##adem
wenige
##baren
installiert
disclaimer
##service
##02
##05
##400
##ering
##vell
asia
151
22nd
compon
commission
holen
sorg
straße
##setzt
##03
##haft
regen
enc
##ida
holy
heavens
character
forschung
##eind
##ourcen
##gewohn
großten
fahrt
glaube
distribut
procedure
##volle
##ables
erfolgs
paid
zahlt
betriebs
block
##dauer
##zunehmen
##atte
hab
aufgrund
##ford
danach
gebiet
planung
files
traditional
##furt
destination
practical
issues
angenehmen
schedule
fix
krie
##zil
ing
innen
##ighte
freut
served
appet
ruhe
keiner
terra
schwed
hochzeit
itself
harm
delivered
anzeige
agreement
muh
infr
##asen
##aced
##4050
highly
reliability
schlecht
##afft
##leiten
schritten
shirt
##iving
liechtenstein
bestehen
verlieren
organisieren
struktur
regelmaßig
bathroom
dad
druck
gives
tier
##fill
##ieht
denk
param
entr
individuals
neueste
##sphare
bought
golf
##cent
##iete
aufgabe
worauf
##weckt
durchgefuhrt
greet
moscow
netzwerken
seems
##bestimmungen
679
##ago
beteil
##steuer
demo
26th
eingesch
increase
led
##zentr
##road
einkauf
beig
29th
flow
afrika
technologien
vergnugen
lies
##ta
##tik
##ither
1989
residence
brasil
##1525
transparent
mrs
privatsphare
uberraschen
dimension
##iratet
hospital
fi
##zz
wegen
trend
delighted
cooperate
vollstandige
preparation
gent
wart
##rt
##dr
##kts
def
ausgabe
sichere
##ismus
wundersch
administrator
reduced
3000
##mat
##eters
anonym
##reichen
belo
meinungen
klass
accur
##2008
professionelle
greek
##000000
421
echte
earn
sache
##leben
auss
17th
##after
designs
1990
federation
cross
jury
isn
gefuhl
entscheid
radio
dimensions
produzieren
il
##rial
werfen
13th
##2009
1992
sett
object
verdienen
records
kooperation
las
2019september
##ishment
happiness
finished
medium
1993
gluckwunsch
submit
##stehende
normalerweise
connection
paradise
konkur
##di
##haps
##ira
##annung
perhaps
button
gebaude
urspr
##board
eingetragen
warmly
genehm
888
sense
abge
residen
##hens
mache
allahs
##2006
neugierig
dv
gn
hande
ib
##ctors
uberblick
351
patienten
##holen
ausgezeichnet
environmental
running
jugend
117
mehrwert
##weg
lob
quiet
plane
eingel
smoking
steuer
komplex
dankbar
##2001
requires
organization
edited
wettbewerbs
amazing
bund
core
pure
##rete
##aging
##amen
##ustr
exec
posts
otherwise
digit
schlafzimmer
pick
wow
1985
##uste
155
kontaktiert
klingt
trail
frankfurt
biggest
japanisch
betrieb
avoid
oce
writ
##ederland
##inder
171
##gruppe
packages
##imming
##angebot
uberrasch
turkish
effizienz
instructions
##ging
##isions
##bert
anfangen
##anda
##schrank
##well
anymore
27th
india
##354
versions
fruhl
speaks
aktivieren
cards
ukrain
anwendungen
target
uid
##719
argent
158
conven
plans
evil
##haber
glob
favoriten
einzigartige
steuernummer
9000
mist
##700
forever
espanol
wieviel
compre
##manag
bestellt
besonderes
wesentlich
prophet
association
detaillierte
mur
tie
129
dienen
nutzt
committe
kleines
wichtiger
kenn
distribution
##fahrung
bewegen
begeist
uploads
fulfill
gas
##over
##vements
##asing
##agne
##igr
einwohner
##istan
werbung
bisschen
monitor
##nown
##iance
greatest
erschein
##mach
##orca
notig
##ams
career
uberzeugt
zypern
sev
dele
114
wenigen
##gesetzt
##7080
organize
kontrolle
economic
zweifel
mis
##800
door
2020november
webseiten
##iki
probably
entsprechend
atmosphere
prepare
dri
##here
##roffen
meist
121
artikeln
221
##izieren
evalu
1994
connect
impressions
agentur
fakten
##lungs
##wurd
##ests
##olo
107
31st
qualif
montags
bericht
gewesen
consists
requirement
paypal
cafe
tausend
ressourcen
##card
##ades
bester
##agenda
geschatz
handel
##1990
searching
bereiche
unknown
dus
##itch
warning
fuhl
gasten
wissenschaft
filled
##1995
sustainability
correctly
maschine
kirche
geehrte
towards
andro
116
lieb
##spl
wellness
funktionieren
##859
wonach
jp
rather
##lesen
abw
hey
##116
preisen
einges
anmerkungen
bou
cru
cultural
leit
##same
##achlich
##thes
swimming
zweite
bleib
madrid
annual
index
brazil
device
tasks
snack
##2199
##ays
becomes
##achte
##ruckt
##opf
##rian
ubernehmen
nachmitt
##9999
deter
inclusive
realitat
planet
processes
engel
verheiratet
zusammenfassung
##eur
##ancy
theme
ansch
113
##280
related
playing
strafe
dessen
iv
kern
inhab
tea
2020march
wurd
sav
solche
existing
richtlinie
##isl
soft
tee
liebt
openagenda
berech
recently
casa
gardens
hidden
units
0000
travell
balance
bucher
##design
zuverlassigkeit
soziale
contract
partnerschaft
##falt
verkehr
alleine
134
phara
disbelie
systeme
owners
mexico
##aun
##cas
230
helps
himself
regularly
awa
displaying
az
pruf
##inter
##arily
##isst
noah
freitags
dateien
hearts
essential
shipped
occurred
323
##weit
##chan
beer
orte
23rd
brands
sending
##ology
took
suchst
ausgefull
geschaftsbedingungen
confirmed
campa
ladies
convince
corporate
##zulernen
html
authentic
cause
20uhr
deb
webshop
climate
datab
##fragt
began
ebenen
##master
fortsch
240
berg
nutzliche
insbes
hungarian
tschechien
zertifiz
artists
concerning
honest
elegant
bern
race
##anced
wechsel
##2022
gekauft
lebe
designer
##180
medic
##haltung
buros
einzelnen
rahmen
alten
warn
##heim
arabic
##warts
sweet
cut
fok
##horen
abroad
resolution
dating
genommen
##losung
bookings
categorie
lieferbar
summ
durchschnittliche
arrange
commerce
konzentr
campaign
cra
wild
weder
##anner
##iano
letter
dauern
shops
navig
hotline
allgemeinen
##ighteous
550
##bro
##zig
##tier
proz
##gew
worked
1991
expor
außergewohn
names
ident
objekt
griech
structure
bemerk
nachhaltigkeit
inhabit
insbesondere
##250
anforderung
schm
wash
sohn
##astru
interpre
govern
publish
boat
##2007
provides
##iefert
##geladen
veranderung
paradies
expensive
bier
pfer
##atible
spenden
1988
verfahren
##365
erwart
##1994
fahrzeuge
entschuldigung
##405060
dol
##dings
resort
145
##akes
zehn
385
##lernen
kennenzulernen
tschechisch
gesamten
erinnern
obligation
##korb
captcha
wieso
##zentrum
either
fisch
##agn
2019august
156
166
##2005
remains
##1997
bestatigung
0101
sponsors
ah
##sichtig
##etent
versenden
diam
##reiche
launch
gluckliches
rechtliche
1200
righteous
sah
##1999
botschaft
bestatigt
krank
jemals
promotions
enabled
ursprung
20uhr20
ice
lam
nennen
##enken
verordnung
159
##ername
##1996
##1998
internetseite
varian
##ammad
bearbeiten
norweg
papier
##haupt
robert
base
piz
vict
##ller
notif
deep
1970
##ogel
##icks
glas
glance
##301
gebaut
ausgestattet
comprehens
inhabitants
##itely
intens
vern
rock
empfang
collect
##zeichen
accordance
ratings
virtue
atmosphare
vermeiden
untersuchung
android
jens
##orgen
124
mini
179
berge
schones
warenkorb
##moglichkeiten
possibility
castle
eth
kill
##hne
bey
erk
plant
folgender
gets
klima
coordin
buying
##große
##scheinlich
##4050607080
324
##uhen
frag
##entw
along
feet
viet
hohen
##ungsdatum
endet
industrial
patients
animal
apolog
electron
korrekt
mallorca
gol
houses
##li
##ls
##utung
alco
##ateful
##kehren
worry
visa
risiko
strategie
absolut
attribution
besitzer
infrastru
##ieße
marina
189
heard
gerat
lohnt
indien
begleiten
registrierte
changing
kompetent
thinking
destin
kollektion
emergen
##band
##zi
##´t
alko
139
##ologie
command
provin
gegenuber
verpack
automatisch
mountain
##rustung
boot
bzw
jene
squ
##ala
ungar
##tenance
##ours
##immt
desire
zurzeit
##754
brow
##leistungen
basiert
##1992199
ski
entertain
philosophy
3rd
##1988
zusatzlich
arrived
temperature
entrance
ubr
##text
102
##icklung
elements
junge
department
valuable
foreign
rss
##2b
##edia
ant
verstanden
movie
cance
##iveau
whenever
##2003
provider
kapitel
regularer
task
gebrauch
schreibe
urheberrecht
mix
saint
##sum
##arter
##ilflich
usw
moon
wofur
sincer
buffet
moglicherweise
gewiß
expand
zusammenarbeiten
facilities
erlau
4000
650
apr
aktionen
##ena
##ila
combin
1500
loved
behilflich
player
behandelt
explore
institution
intelligen
gentle
alkohol
##cia
einigen
legen
gesprochen
##tragen
flash
shower
delic
##park
achieved
cuis
involved
components
##omb
##ula
stadte
signed
philipp
seminar
prasentieren
schwedisch
muhammad
pharao
##iede
##the
144
verboten
nutzlich
zweck
##707
individually
besseren
vollig
patience
exception
exclusiv
vereinbarung
couple
uncategor
ausgefullt
##luss
##ald
##alle
##halts
manage
##1112
##ground
schoner
emails
lowest
bonus
principles
##amerika
##20304050607080
chapter
eight
passt
##house
##ians
saved
299
wollte
parkplatz
wohnungen
classic
360°
windows
occasion
370
cit
cos
ring
##lang
abreise
europas
##ification
ends
englischer
confiden
mercy
joined
erfullt
nimm
##iant
verily
besprechen
##1985
appar
versuche
##ific
skills
matters
positions
exhibitions
fuhrt
##5051525
konkurrenz
cott
##tene
sichern
acqu
satan
koran
tempor
ultim
database
browse
cuisine
ast
ram
vir
##pri
deut
##1986
172
donation
damen
maintenance
unverbindlich
hart
nom
##h30
einschließlich
##rufe
##fehl
regions
courses
##hotel
powerful
singap
entschuldigen
cry
dro
dance
nat
neit
wit
##ili
##igent
reag
frame
verz
perman
##asser
genannten
queries
longitude
zweit
charm
leistungs
miles
bestimmten
wussten
alcohol
draw
##cin
##anb
tochter
##eless
erhol
##auber
##weisen
permission
numer
##ikations
verfugen
kleidung
serie
definitely
moderne
illustr
##management
322
od
denke
untersche
211
##ifi
cockt
##160
gewo
erfolgt
linked
fruit
element
operating
prinzip
##bildung
wichtigen
kilometer
neither
aqu
caus
##round
##just
verst
##umb
spass
##ime
185
kombin
##ungszeit
##rieb
broch
datenschutzbestimmungen
gedanken
attractive
##bett
korea
approxim
fruhling
vietnam
456
schatzen
frem
fee
##1984
176
starker
meetings
karriere
entspannung
branche
suppliers
female
ly
##mess
##mus
##600
##kle
propos
##osed
contacted
##1989
tragt
woch
membership
richtung
ansprech
danger
hong
lower
ub
einricht
aufbau
sinne
komme
ideale
deines
innovativ
applies
became
casino
lokale
sammlung
convinced
consumer
philosophie
hoffnung
jose
rap
sab
##ilet
##anfrage
##ela
nobody
schief
##ops
leisten
##1987
##ktiven
geschichten
tags
##ault
ereignisse
lug
ms
208
##ush
indones
deutscher
##170
chef
talking
accessible
appropri
streit
mentioned
approximately
affe
lag
##ored
reader
erh
##onto
compar
stein
genu
robo
contribution
brother
karten
bosn
clothes
geburtsdatum
320
bag
2019december
meilen
##ktoren
asien
##raid
##1980
21000000
##ussion
falle
##869
speziellen
erfolgreiches
accessories
lieferanten
##aprilmai
expectations
##ski
##oktobernovember
beyond
weib
suite
1986
vorstellen
316
carry
generiert
domin
analysis
conversation
tonnen
##cher
##tively
##licht
gebe
schaden
across
opens
280
momente
insurance
completion
aktuelles
##octobernovember
arabisch
tips
abges
163
actions
therein
afraid
lake
grunden
certificate
##julyaugustseptember
bord
rolle
2019april
##opa
danish
mediter
prompt
##flug
verpflich
ruckkehr
##marchapril
automatically
presence
dynamic
geheimnis
reihe
##oktobernovemberdezember
##octobernovemberdecember
biz
cab
##nal
force
##iers
admission
##1983
030
grateful
einfachen
sicherlich
professionals
italiano
audio
photography
emotion
favourite
summary
##marchaprilmay
524
##ск
anfordern
00pm
cham
##riff
uberhaupt
gesche
loves
declar
curren
merci
##junijuli
particularly
richtlinien
brasilien
amen
##seit
##ham
##zur
##ieg
##tele
refer
stage
defen
##1976
wartet
161
serviert
direction
garage
##2002
bewerb
nachhaltige
individuelles
instrument
spoken
sincerely
uncategorized
aktive
gb
zone
##ssen
##night
rezeption
##ows
30h
portra
generations
##fuhren
released
straight
gewahrleisten
kritik
digitale
wurdest
cand
holle
##ques
##ieben
tours
mechan
uberw
auszu
offering
arbeite
##fordert
funktional
activate
student
doubt
vorheriger
gedacht
fertigstellung
engineering
fliegen
##marchaprilmayjune
cro
kuhl
##rich
##val
##tierung
former
ermoglich
##ador
abschnitt
136
131
regulations
clar
brought
whoever
##spiel
359
gruße
entered
spieler
errors
##februarmarz
grosse
tanz
##aa
2022
toilet
leav
112
vorwarts
platze
beruck
##273
obtain
surround
regionen
##7119
storage
introduce
kontinu
jpg
dess
rely
##ergebnis
##isation
toler
##etten
##erei
spende
phase
klasse
entries
wahrscheinlich
talent
##flache
objectives
enthus
refle
vorbereitet
anspruch
ingred
appropriate
##julyaugustseptemberoctobernovemberdecember
kos
ler
##fon
##fun
##inal
beob
gefragt
schiff
exze
offnet
##aktion
##240
##2004
daugh
luxury
incon
mobility
##februarymarchaprilmayjune
concerns
##fahig
##ded
##ata
##roy
##1979
hold
infl
innovations
processed
verbesserung
precision
bottle
ansprechpartner
##junijuliaugustseptember
batter
labor
wc
##bra
##██
refr
erden
neigh
##iment
doctor
##stelle
kompl
datenbank
reports
sym
advis
restric
buchungen
closer
##proje
browsing
university
turkisch
billion
quelle
exklusive
großartig
jeweils
##20304050607080910
335
james
mieten
##gien
##bi
dealer
146
##215
407
repar
messages
score
##prob
gleichzeitig
cash
graph
##sichtlich
keyword
realisierung
fantast
neighb
340
pc
sad
wol
##techn
##indern
georg
1945
##340
##kenn
zugriff
winner
russische
##gerufen
packaging
largest
##soft
statistics
comprehensive
##aprilmaijunijuliaugustseptember
hit
##ots
##aled
##gegen
##annte
warner
##commer
wordpress
horiz
sauber
intelligent
immobilien
exclusively
cell
##ches
##ural
cancel
##1974
begonnen
langjahr
kindly
verbunden
solltest
##genda
augenblick
##ancen
sterben
represen
fantastic
melde
bekomme
erkennen
##3233343536373839404142434445464748495051525
erwartungen
##februarymarchaprilmayjunejulyaugustseptemberoctobernovemberdecember
##lasse
##enn
##igend
152
gran
co2
durchschnittlich
licens
panel
preferred
prasentation
##ски
ermoglicht
##ban
##fel
ausrustung
upgra
##active
versionen
played
metal
devices
hervorragen
wifi
##lam
uner
##ierter
geweckt
1987
director
players
limits
##ießt
laugh
unabhangig
bade
gave
purs
rout
##ked
##1929
beliebt
renew
temperatur
magazine
delicious
nu
yell
##mail
##kter
##esend
##iso
erhalte
##1982
placed
nochmals
070
kontaktdaten
##808
specialist
##tty
greater
burger
specifications
voice
produziert
geschehen
kau
sende
maint
##tement
164
disapp
choos
showroom
##384
carefully
bewegung
spezialisten
respective
##aprilmaijunijuliaugustseptemberoktobernovemberdezember
wife
##rane
##list
##cam
##hood
##atic
moving
##1978
##1975
warme
162
##tigkeit
sonnen
joh
##programm
agenda
pfl
##150
##enty
##vey
ermoglichen
arzt
alph
1980
##1969
##reiber
praise
inspired
kommission
larger
weißt
relaxation
rental
sonderangebote
sponsoren
kampf
romanian
committed
ungarisch
ingredients
vort
##rant
##vas
##bus
##hungen
##wissen
##aucht
mary
212
messe
kennenlernen
attractions
measure
screen
pflichtfelder
ocean
sir
##aff
unbed
reve
0049
furchte
mitbringen
spaces
ordn
freie
personliches
pein
worlds
amerikan
wertvoll
traumen
displayed
sammeln
##pielt
510
gd
rauchen
##ubs
##inary
##ichern
sehe
erzahl
##istic
126
##artner
pretty
##alty
logged
##achtung
payments
erwachsenen
##ieter
rechten
neg
sche
##1973
148
lohn
ground
benotig
veget
depends
aware
##qualitat
unbek
siehst
##ederlands
436
bahn
gam
sail
##orfen
whose
orange
newest
traffic
flor
gelb
geliefert
webmaster
stellt
##nachste
langengrad
sorgfaltig
medicine
wahre
##nachst
##itik
##orge
##202
##zeugen
##1981
245
tried
##loss
afford
downlo
individuellen
scien
science
enterpr
begrussen
actual
##resp
paint
utc
##helfen
331
fo
kb
##aper
##aud
deg
##iesen
##zeg
##ards
##ained
##114
song
elast
betrachten
prague
thoughts
investieren
##riften
emergency
399
ml
vip
##alte
174
##chein
##issions
##afrika
effects
installs
##besch
punishment
inspirieren
depending
describe
measures
##hafte
jahrhundert
dedicated
koordinaten
fortschritt
##februarmarzaprilmaijunijuliaugustseptemberoktobernovemberdezember
871
mio
nic
##zin
##icates
alltag
interests
##1977
143
knowing
role
##chnung
sicherzustellen
wollt
dring
bewerben
aktivitat
estim
organisiert
##geschichte
lebensmittel
feiertage
britain
950
tast
wander
yog
zen
##kr
##kraft
##itar
##ingu
ersatz
teuer
monaco
wohnen
claim
compatible
demnachst
##115
specialists
vollem
bigger
organisationen
graf
journal
begeg
square
numerous
##ohl
noti
shape
##cling
newsletters
developments
recommendations
dorf
appetit
inconven
waste
##nel
##dienst
##can
##arus
##bericht
feature
232
bestmogliche
repair
controll
strom
##linie
bedeuten
returned
harmon
##uhrt
##uhrung
connected
unglaubigen
massage
awards
kalt
##ус
##stre
##stage
##andt
2020mai
173
demon
##tigung
trees
gesundes
creating
sowohl
cris
administration
corporation
jenseits
golden
410
hut
##put
stable
deaktiv
chosen
abhang
agb
geschieht
499
iran
destroy
offiziellen
historical
diskussion
precise
ziemlich
characters
diverse
niveau
tested
##ae
##pass
seats
welten
##see
gesicht
138
226
##gebr
270
501
grad
schonste
standorte
internal
offenen
heiße
##kunfte
introduction
channels
hochwertige
mediterrane
vin
°c
##richtig
##lan
##wahr
spot
2020may
lifest
php
##nissen
preisliste
blind
##eldorf
selben
winners
##zeichnungen
bedeutung
convenient
yellow
ign
wise
##ptions
##eland
worter
entgegen
underst
vergro
estate
bevorzug
tatigkeit
kopie
gif
sr
##uk
##yer
##stra
##igungen
verh
modu
2020februar
178
herab
##212
solar
passieren
generationen
retten
twice
translated
kochen
respekt
jeweiligen
divided
##35455
655
ban
bay
lese
##machen
proceed
184
##197119
contacting
133
forms
publications
carried
vertrag
##attle
considered
renovated
studenten
tipps
cup
pause
##350
##ych
##kap
##hrt
1984
besides
minim
234
projekts
visible
territ
jeglich
nahere
incred
methode
haufigsten
angenehme
economy
leading
circ
extremely
empfehlungen
cancell
merciful
om
©2019
##illa
181
157
##pricht
saw
royal
klicke
aktualisieren
346
##1968
komplette
analyse
##onenten
exklusiv
council
branchen
prayer
repeat
driver
png
tons
##obe
##vi
##iessen
##anlage
##ulieren
alike
ausdruck
2020juni
lift
interessen
verfugbaren
selber
kommenden
fahrer
variety
volun
slowak
happening
hrs
belongs
##56575
##скии
lifestyle
understood
886
thail
gekenn
ausstellungen
215
flu
urs
elemente
filipp
wertung
moskau
camera
lady
effort
einlad
dispute
greetings
entertainment
upgrade
440
wis
##wa
##jan
##uropa
##iga
##send
pric
concl
hiermit
schnee
earlier
wunderbar
krieg
writing
government
downloaden
obst
##erfahrung
depos
1983
leug
warte
141
tag12345678910111213141516171819202122232425262728293031
cheap
anderer
brosch
besitzen
spezifikationen
ausgewahlt
schreibt
lehrer
transformation
cater
duss
hop
ker
##kur
##erie
einheiten
chile
chair
heirat
##1959
plot
kundenservice
##wohl
hauser
sku
##schlag
president
escape
industries
aktueller
creativ
##1964
##nehmlich
presented
langfristige
personenbezogener
geschatzt
nachmittag
##усскии
911
hort
##oe
##set
##mine
##iture
anzus
##emp
seat
00am
ord
absch
1982
2020february
##1940
##wegs
helping
syn
verlass
dienstleistung
fehlt
suggestion
principle
logistics
##ziehen
unbedingt
##56575859
cer
dry
fail
fanden
tree
##rom
##ih
##metho
##750
##kaufen
##anien
fran
willing
orien
desp
herren
steckt
bestand
boden
zweiten
luxus
improvement
texte
accompany
coordinates
okt
rose
##vious
mitteilen
##schau
gespielt
condu
herzeg
julia
##barung
verwand
finish
quad
angels
translations
zuganglich
maßnahmen
##20152016
santa
citiz
##tenegro
thailand
339
bm
hann
##aries
unan
zut
miteinander
steel
passed
##270
zeich
skin
kontroll
gemeinsame
concert
sagten
bearbeitung
horse
reduce
bemuhen
beziehung
fokus
reagieren
##car
##ym
##rote
bef
verified
aufer
1920
##otog
gerate
calling
weekly
flasche
##1993
##version
entwicklungen
##1965
unterschiedliche
##weisungen
tests
exklus
serbia
irgendeine
kontinuier
430
oly
##ypt
##ema
fried
2019januar
spread
154
mehreren
2500
##216
benutzern
stimm
untenstehende
propheten
legisl
seriously
trotzdem
dusche
crisis
##nehmlichkeiten
eis
equal
sachen
##yn
inten
##umin
deeds
mitt
ubersetzt
pregn
herstellung
224
drau
##masch
##20192020
kreditkarte
viol
crazy
exzellen
dusseldorf
lis
##atib
##ague
2019january
##thek
##bei
brill
cooking
meines
symb
gebuhren
zusammenzu
strict
##744
buchungs
bildung
prize
attend
##ießend
relaxing
##iveness
beinhalten
alexander
unvergesslichen
lay
paten
theater
usage
167
##tschafts
##ikes
klim
##fuhrung
wirklichkeit
prevent
##1963
pixels
renoviert
spannende
aktiver
knew
witness
ging
vit
##iebs
##irm
montenegro
##idet
##aken
##eldungen
##ological
richten
serbien
##fficient
koln
bedrooms
confidential
appartement
filippo
fel
kriterien
vogel
©2018
##otive
##bby
##iner
##aria
unit
##uls
##atell
mond
137
222
decisions
260
sauna
##102
großere
gewin
booked
##12345
bezahl
programming
parkplatze
messengers
kreditkarten
##windigkeit
bouti
roboter
511
migr
sage
stern
€0
##rary
##von
##isieren
##igungs
proof
spl
1979
2020juli
benach
weiteres
morgens
rennen
extraordin
struct
ermah
hospitality
mahl
##wagen
neun
schn
chancen
153
132
255
nochmal
januaryfebruarymarchaprilmayjunejulyaugustseptemberoctobernovemberdecember
##560
kinds
handy
349
386
buchst
beschwer
spielt
##mitteln
gewunschten
schwierig
choosing
inconvenience
##3545556575859
922
drop
gone
giving
kuchen
islam
stri
##aug
worship
gesp
jahrlich
0800
impact
##ologne
mexiko
sichtbar
entscheidungen
bol
cv
i0
osten
vere
##ani
##amo
erled
arg
122
2020june
hierzu
percent
225
rub
innovationen
studios
664
##zeichnete
allows
geschaftspartner
tablet
difficulty
functionality
declaration
demonstr
ku
##bn
##konta
##kategor
##teen
versen
stone
deserve
weiterlesen
italienische
##schlage
depth
fortfahren
verdient
niedr
replied
shared
großartige
kundend
barmherzigkeit
accurate
draußen
extraordinary
699
€5
##vid
##post
anlass
##tiger
sundays
wiedersehen
verlang
verbinden
authent
##preise
sponsor
unverbindliches
width
settings
599
ride
reicht
usual
combination
cha
333
transportation
werkzeug
heiß
einzelheiten
silver
counts
311
cologne
satell
€49
##ßern
furs
##ado
diesel
liked
moglichst
katalognummer
remove
##333
deadline
prazision
##commerce
880
pier
intu
##irts
##rochen
username
##oggen
warrant
##iker
##ryl
##afte
beschreiben
mitarbeitern
##1962
##mitgl
flyer
vertrauens
robust
elektron
olymp
##bart
##bahn
##123
##kw
##wart
##indust
whe
erd
exal
liability
kept
brun
diener
sonn
##gesehen
vielfalt
352
quot
bezahlt
perfectly
regionale
milliar
##fuhrer
salv
subscription
documentation
brussels
850
##erc
206
203
schloss
1234
markte
apparte
bergen
bedien
floren
applic
gehor
offene
testing
##1958
compliance
##20162015
analytics
##bereiche
##iwan
brochure
##sl
##kraf
##878
bear
doors
konstru
heat
ausprob
reservierungs
qualified
saving
##107
durchs
handelt
entworfen
behold
closing
careful
optimale
irgendw
loading
imagine
implemented
##wirtschaft
griechisch
keywords
dach
label
ot
si
##ato
youth
antrag
ankund
einander
forest
##geleitet
freien
fehlen
##iza
stef
diensten
weekends
advanced
wollten
erwah
gelangen
filme
mainly
##schnit
satisfy
trusted
##portug
##punkte
discussion
roof
##32333435363738394041424344454647484950515253545556575859
2018august
movement
1981
303
wines
luge
certificates
gestellten
glaubigen
surface
angegebenen
achten
jur
rhe
##bc
##akt
##hi
##ziel
##oul
frisch
stam
enem
abfahrt
kong
249
realization
damage
##azione
vertriebs
communicate
exists
bevorzu
continued
hostel
texts
sitzung
cleaning
estimated
creativity
symbol
appartements
gather
##hil
##zer
##esa
##iser
##aland
notes
##uchten
177
##uelle
regul
surv
besseres
taxes
uberpruft
attraktionen
##20172018
rumanisch
driving
anonymous
dvd
mehrwertsteuer
tiefe
##19941993
dangerous
johann
warranty
hangt
nine
tall
##vest
##fers
##reis
ham
haftung
##essor
mitteilung
1974
ubersetzungen
umsatz
2020july
academ
##118
decor
##iana
##spartner
rutsch
perfection
magst
dennoch
verpflicht
##stehenden
bestatige
zuverlassiger
stronger
honor
covered
dunkel
snacks
gekennzeichnet
hus
nad
##tung
##gas
##11990
##cast
##zwe
thu
##ario
ankommen
003
1919
127
##sein
##1955
229
helped
outdo
##305
danisch
390
perfekten
organized
entspricht
corresp
zusatzlichen
##iament
colours
announced
transparency
distributor
##199519941993
##199219911990
currency
ordnung
tief
wolf
##sweise
##899
unmoglich
##edig
##bers
anton
refu
abwe
ubersetz
belarus
##155
zwecke
consist
realize
erklarung
favorites
definition
ruhig
critic
prozent
exceptional
wi
zer
##x1
##ros
##amin
erleich
deals
1978
12345678
welcom
minimal
##104
##105
##itting
plants
##6676
trying
bereitstellung
kompatib
typical
eingeben
offentliche
egypt
sharing
ereignis
fahigkeiten
erfolge
parliament
furniture
bundes
##casino
##telefon
##industrie
lind
pink
##ring
##hard
##pack
##rets
told
allerg
10000
##verkauft
subst
195
exact
##akter
visualis
##francais
##gren
490
letters
remarks
##brauch
wirkung
signific
collections
automob
halb
wald
hosting
false
architecture
vergangenen
kreativitat
##19971996
unannehmlichkeiten
418
dj
pi
pin
zerst
##log
##kan
##iction
haven
##achtet
nego
leichter
conce
brings
verfugbare
beruh
entre
ansicht
393
##285
##covery
stays
perfektion
##7778
costa
metall
explor
properties
alternativ
##komp
vorschlag
architektur
ziehen
homes
linie
yoga
zusammenzuarbeiten
##199519941993199219911990
mik
math
vene
xx
zun
##rict
##bach
##passt
##atoren
202
##lege
behalten
zubereit
##ammer
dix
schmerz
123456
agric
decided
genutzt
versucht
berater
verwirk
flache
guys
verschickt
jean
zahlungen
translate
excurs
sudafrika
venice
diversity
arrangements
erganz
ahnliche
zustimmung
terrace
exalted
gh
##oft
##gb
##bauen
forth
gezeigt
##ivil
verfol
##106
taiwan
samt
coast
##603
bereiten
wirksam
couldn
komponenten
hunger
complain
offentlichen
robot
abstimmen
9000m1
pursu
kundendienst
375
nik
tab
viv
##mers
eintrage
alp
1916
30pm
##otte
##109
gewahlt
##236
directive
stands
sonntags
gemut
farb
##zepte
latitude
mobilitat
jemanden
urlau
vertraulich
weihnachtsfest
heimat
apologize
funktionalitat
influen
480
finger
script
taten
##aged
halle
2019october
183
interior
workers
genieße
kommerz
310
boy
joint
urgent
excellen
01010
tennis
extensive
bezuglich
observ
determin
refuge
##konto
##unf
bell
verstand
armen
182
##sequen
2020oktober
compare
obwohl
speaking
erfolgreichen
factors
##jahrig
erscheint
kranken
classes
immediate
surprised
premiere
glaubt
dealers
judg
polyam
##199819971996
pizza
wochentlich
brid
hun
jac
##eg
##m2
##ining
weiss
##tierte
formen
zufall
verse
aufzu
feind
disable
##1626
activating
risks
certification
##1954
behandeln
manufacturing
prozesse
psych
seeking
ehrlich
gunstig
continuously
represented
356
840
jungen
##ole
##conta
##ooth
hereafter
acryl
opt
kombination
##151
reprodu
invitation
gehol
studies
oliver
automotive
##111213141516171819202122232425262728293031
erklart
hundred
easter
wunderbare
vorbereitung
##201420152016
logistik
badezimmer
970
b2b
mank
vic
##oin
##iy
##ele
##how
##zł
##zte
##orial
##omen
zukommen
004
meal
##usse
exerc
##ishes
##web
hobby
216
manif
##zufrieden
somit
sms
371
nearby
annivers
refund
lokal
ferienwohn
roots
normally
composition
##19881987
deposit
##198819871986
329
cord
rac
##ernt
##itors
##atung
##oles
2018september
##user
chal
192
12345
nachbar
##tiges
spect
klare
verwalten
flag
handle
privaten
555
##uba
##bestell
verbesserungen
straßen
manufactured
eingeschaltet
abhangig
jon
n7
##m²
##inien
##oria
init
uni
##igur
proven
sucht
##antwor
##302
monatlich
lebend
wiederholen
poor
zimmern
angeforder
zahlreiche
fahrrad
##20212022
erfordert
manufacturers
fitness
mindestalter
prazise
calculate
lutheran
evangelical
aspects
eingeladen
travelling
einladung
zutaten
versendet
negoti
##1988198719861985
gg
sets
##lio
##stunden
toten
tollen
spare
extended
##steigend
demands
##501
##175
gewinn
problemen
darunter
weiterhelfen
selten
breiten
fastest
##teilungen
grundlage
believers
fruhstucks
erstaun
01020304050607080910
integrated
veranderungen
erinnerung
appreciated
clothing
evangelisch
tatsachlich
bevorzugen
##19881987198619851984
336
866
dritten
##ially
##best
##hre
##kurs
##irs
einkaufen
pros
erb
##205
ausverkauft
finding
unterwegs
##103
chocol
##12345678910
invited
brown
planeten
redazione
vegan
##zeichnung
##1952
meaning
zentral
multiple
immobilie
lutherische
konzentrieren
permanent
portrait
##gebracht
aar
cow
gi
gard
hans
ray
tanzen
##bye
##ito
##emarks
prove
prohib
187
heav
gericht
##place
providing
bewerten
##treten
exceed
strategic
ebene
einzigartigen
##uhle
bewusst
funded
angenehm
produkts
sessions
venedig
rosa
prasentiert
arrangement
##produkte
personenbezogenen
microsoft
dadurch
mediterranean
aktiveren
##schnitts
outdoor
##199819971996199519941993199219911990
bung
dise
sme
##uung
##ender
##enlarge
##reit
diagn
suß
1976
marc
besichtigen
##prene
##ktieren
251
begren
##heben
blood
michel
treated
##eller
aktiviert
faqs
1968
purchased
verkaufs
pixenlarge
bestimmte
contribute
ewig
terrasse
praktisch
welcomed
417
414
€59
##900
andert
haut
enlarge
mak
komprom
apple
goodbye
einfuhrung
startet
familiar
##398
logos
totally
basel
recommendation
mitgliedschaft
improvements
sexy
arbeitszeit
lokalen
disku
champion
urlaubs
##gart
##pel
205
##etreten
##ami
2018november
schatz
sole
305
interactive
versuch
beds
laßt
clicking
##790
incor
inspe
womit
films
##1953
treatments
finnish
transparenz
uberraschung
fuhlt
334
6000
mine
€14
##verein
##uled
##anke
anschl
beendet
hafen
dez
12345678910111213141516171819
auskunft
##113
geschickt
##spar
positiv
durchschnitts
background
gebet
brothers
entweder
district
abends
kapital
niederlanden
superior
konkret
separate
solidar
savings
einrichtungen
geholfen
mankind
321
338
eco
nimmt
##down
##last
##inar
##aust
2019oktober
spuren
##russ
schaut
##adress
##kete
fell
geschafte
apps
447
himm
bildern
administrative
konzert
impressionen
bestimmungen
polnische
anzub
stabil
entreprene
dixie
566
breat
gain
hors
nederlands
wrote
##bat
anweisungen
einlass
beeind
noon
islands
0031
allmach
artw
canvas
##bec
##prachen
ausbildung
##112
##117
zeitplan
songs
##780
overall
##235
##605
guard
##265
schließlich
stiftung
##4656
ausgezeichnete
##aneous
stored
kamen
kamera
universitat
verbraucher
institute
measur
establish
fleisch
announc
sarah
##6061626
zertifikat
proposals
daughter
666
ic
€3
##my
##hort
##iegel
##alan
unw
wirtschafts
ability
wars
day12345678910111213141516171819202122232425262728293031
supports
ended
loschen
rede
vertrieb
retail
effec
gegenseit
hinterlasse
bulgarian
wohlbe
attack
eroffnet
##kyo
screens
##ergebnisse
lerne
significant
verfolgen
##198819871986198519841983
755
fif
kra
szen
twe
xxx
##material
##warn
##tec
weine
##aga
einschrank
##verfahren
1977
ausser
minister
agyp
##gesellschaft
ansatz
990
importance
444
sorge
blogs
gestattet
traveling
doub
political
fotografie
ehem
monitoring
eingesetzt
bemerkungen
mt
tan
##tage
unable
##emble
moved
comprom
shoot
conner
##uell
unternehmer
##acement
##gesandt
290
calls
austrian
concrete
kilometers
gentlemen
verpflichtet
deaktiviert
milliarden
lachen
##folg
ingen
##206
##genden
sufficient
adjust
##191
warnung
aged
##stellungs
##losungen
guided
hochgeladen
believed
organisations
stuff
komfortabel
##201720162015
realisieren
##eschon
fantas
uploaded
ausfuhrung
hauptseite
vergroßern
925
bound
cad
lines
rh
river
sources
€2
##vent
##iest
##si
209
##alo
verhand
##formen
##203
301
##behor
2020october
##blin
visual
don´t
##sport
295
blumen
##564
arbeitspl
bedienen
schwimmen
hochst
trademarks
##gruppen
hintergrund
clearly
panor
wearing
werktagen
einloggen
denkst
anniversary
9am
bak
kaum
lack
riv
tam
##ska
##t12
##itten
std
##imin
gefordert
198
shoo
242
trou
235
##213
dankeschon
##auschen
scale
professionellen
##zahlung
promised
programmierung
##abend
matth
##okrat
unterschiedlichen
manufacture
##ancies
gratulieren
memories
excellence
##606162636
530
kulture
##richten
##ua
##fo
##far
2024
tokyo
unex
##igo
mov
moge
leon
188
plug
##705
nett
generally
pakete
collected
operate
behandlungen
differences
hardware
kampfen
contributed
##20142013
recycling
rapid
rhein
hd
zauber
##ined
##ley
eric
stutt
##2079
orch
##ahrung
nowhere
geschaffen
gods
##275
formulars
einzigen
missed
datenschutzricht
salz
freiwill
verbrauch
gepruft
##hilfe
initial
##6061626364656
739
777
nation
##sprach
204
##timent
##iram
##eltsch
##aya
forts
onlin
defe
enh
gearbeitet
subt
produktiv
191
1969
##schriften
welcomes
##1949
##1972
jahrzehn
##aktionen
50€
##gesetz
funny
langsam
##arbeitung
##355
##7475
instant
austausch
hochster
angekommen
##traut
absent
irgendwo
methoden
turned
fuhrung
zertifikate
electricity
verkehrs
##19781977
anzubieten
##60616263646566676
628
639
bug
rum
zero
€16
##ais
##px
##nde
2048
##oma
##ista
maße
##bew
##etzung
famous
courage
freundlich
betrag
animation
kampagne
amazon
representative
episo
anschauen
##1999199819971996199519941993199219911990
catering
stuttgart
711
battle
setzt
vall
##lad
intended
##emen
einheit
verhalten
suffer
nichtr
##pression
umge
214
239
##225
weitergegeben
specials
zealand
staying
fruits
landes
internationaler
eigenschaften
##irkungen
trainings
laufe
automatic
boss
kilomet
verstehe
physical
fascin
01234567891011121314151617
beigetreten
trailer
##summe
combined
cotton
##19761975
##3233343536373839404142434445464748495051525354555657585960616263646566676
##1978197719761975
415
dal
huge
##gy
unbelie
002
0014
schopf
unterlagen
pred
lod
##show
exclud
objects
kurzer
entschieden
weshalb
selling
romantic
hygien
scheduled
empfehlung
nachfolgend
##buro
guidel
##warnung
328
540
512
cin
##ел
##rechte
denkt
exem
186
kondition
dublin
decades
aviram
##mehr
developing
fruhjahr
kostenlosen
einverstandnis
entfernen
realisiert
seminars
enquiries
ausgewahlte
bungal
##201420132012
##19781977197619751974
560
eb
tin
tank
##iation
##fit
##wun
##orter
unless
proto
sty
meals
##209
fees
##iertes
helm
manche
275
geschwindigkeit
muslim
loss
##books
broad
lessons
796
validity
credits
##saison
library
erscheinen
linkedin
incredible
chocolate
325
424
675
bow
dra
iphone
sight
ust
##cending
##orra
##isierte
meat
sup
anyway
parag
##279
##290
switch
lifetime
bread
herzliches
filling
scar
eingang
learned
court
89754
improved
vacancies
dahin
croatian
gebraucht
reasonable
##1989198819871986198519841983
##19821981
wisdom
##kontakt
begrenzt
agypten
##3233343536373839404142434445464748495051525354555657585960616263646566676869
##198919881987198619851984198319821981
##1989198819871986198519841983198219811980
5cm
660
mold
rail
##380
unav
##1948
servants
lovely
machst
##312
supporting
905
gemeind
##768
benotige
hochsten
grundsatz
smaller
pressure
drinking
referenznummer
##gelaufen
organizations
ukrainian
##70717
gewohn
chamber
pflanzen
enterprise
pricing
buchstaben
##197819771976197519741973
catch
hide
##lag
##zum
##english
##anw
##urlaub
##star
strive
schick
##adv
1950
lein
marie
##1945
##218
040
fugen
blut
berichte
feels
trainer
investor
volume
##ammelt
risiken
##figur
sudden
leads
photographs
unverbindliche
consumption
kenntnis
dokumentation
dialogue
eindrucke
guidance
severe
ubrigen
framework
528
gues
lou
nations
oops
pic
wagen
zo
##zone
##iles
anne
einstellungen
beat
009
aufre
##2023
alth
absenden
1917
1975
##otyp
shirts
142
sunden
353
kurse
gelaufen
nearly
vorheriges
spezialisiert
kanal
quellen
##zwischen
##ctivity
baumw
zukunftige
koreanisch
flowers
##entwicklung
electronic
despite
676
6pm
##oben
##otel
##utigen
##bas
##cal
##welt
##iedern
##iro
bee
stahl
##key
notfall
adm
228
284
mondays
solange
##zufugen
qualitativ
delay
charakter
discounts
faxen
gesandt
heiligen
consumers
instruments
mobiltelefon
globale
dringend
module
##19891988198719861985198419831982198119801979
525
poll
tap
##fam
##он
##ati
prot
##utation
spar
##rucken
orient
##usten
legend
1100
##actions
wurz
finance
alters
entdecke
creates
##mittelt
beziehungen
##icherheit
##20122013
norwegian
pharaoh
licensed
affordable
durchsuchen
kompatibel
##ointed
bv
ios
##rum
##han
##esome
##iebt
##orien
##retion
teen
##schafts
personlicher
##ikum
interessiere
##ritts
somewhere
wishing
##386
neuheiten
gelost
continues
professionalism
besonderer
wunderv
listening
institut
ubernachten
muß
interpret
streitbe
reparatur
##19711970
criticism
zunachst
angeforderte
##liothek
horses
##1978197719761975197419731972
ack
fotog
jump
vr
€15
##ris
##sm
##eps
##wed
##beratung
schafft
adop
hof
pls
##ackt
289
##303
##bleiben
##229
weitergeleitet
zweimal
eva
treas
insert
ganzjahrig
programms
verantwortungs
calm
situations
streng
schuler
perspective
fixed
beigetragen
slowakisch
manifest
##70717273
guesth
kas
mood
ped
##laufen
##fallen
##was
##erken
##itze
bele
forb
reje
vertraut
0034
##oli
##essa
yourselves
alive
1965
##1944
##1946
147
faces
pharm
bright
hath
##502
solved
##ferien
samstags
##ava
##357
drag
naturliche
stick
obvious
scen
##athers
372
barbar
managed
burn
forgiveness
hollandisch
vergleichen
reduziert
parameter
bewerbungs
revealed
8712079
doubts
##323334353637383940414243444546474849505152535455565758596061626364656667686970717273
although
bun
hem
kath
€39
##link
##wood
##wasser
##urre
input
##2025
maz
19april
##bek
congress
minist
unterhaltung
democ
verses
##249
smooth
gelernt
addresses
professionalitat
bewegt
smartphone
heilige
extreme
beschaftigt
stefan
219
980
fing
##team
##aling
becoming
whis
gele
gehalten
sicheren
eurer
213
##214
genaus
##349
##304
##quire
flucht
crew
##359
stadten
gotter
assess
remind
erforderlichen
buildings
resultate
fertiggestellt
silber
bewahr
jenem
genehmigung
nomin
broschure
prohibited
nichtraucher
leinwand
genauso
jag
mama
pear
##passen
##еф
##any
##ils
##forts
schenken
1972
##1947
##ciden
##oney
fuer
bene
495
##317
veroffentlichen
vielzahl
direkte
standing
standorten
entwurf
bewertet
survey
metres
operational
gegenwart
staat
entwicklungs
allerdings
motivated
eingegeben
teacher
hoffentlich
bevorzugte
heavy
baumwolle
streitbeile
640
716
ces
kie
mah
rim
vouch
##lange
0012
1960
vorname
##ailable
##steht
speichern
##apest
0001
themes
##999
##kennt
secrets
##abelle
kostenloses
inspiriert
offiziell
budapest
sonstige
unglaubig
fishing
memory
singapore
restrictions
volunte
wohlbefinden
##197119701969
515
ech
jak
mou
mund
rank
##gage
##hst
##eral
proposal
schuld
18h
resurre
uberein
voruber
##1930
218
bestmoglichen
geschle
fuhle
##222
gastfreund
covid
publikationen
##601
##german
vollkommen
christop
hinzuzufugen
freundlichen
erschienen
objective
digitalen
notwendigen
bedurfnissen
schwierigkeit
aufgefuhrt
##person
plotz
erleichtern
##adresse
##3233343536373839404142434445464748495051525354555657585960616263646566676869707172737475
jer
ty
тел
##ronom
##uß
##fc
##tex
außen
meister
alumin
##anka
2020marz
##1943
##1942
herum
serving
steig
##barkeit
##226
##179
##266
##145
evolution
##viele
installieren
investors
forgive
occup
stufe
##ancing
sleeping
##personen
werktage
figures
furchtet
quadrat
konditionen
##wunsche
##198919881987198619851984198319821981198019791978197719761975197419731972
burg
fat
fangen
mc
mang
pad
raus
##rage
##home
##pet
##estet
##orm
20april
unus
vergebung
aufhoren
extr
##bell
gesunde
gesuchte
##1941
##wechsel
244
##aker
verfolg
##306
bull
dancing
boats
guess
cheaper
##394
sortiert
hauses
gelos
corona
##mode
romant
clever
unterschiede
freundliche
returns
soweit
runs
zugangs
palma
highlight
##beginn
tracking
ehre
destinations
schopfung
##ефон
телефон
721
iii
€4
##swert
##ea
weap
beit
sectors
1971
freely
##ibly
tran
loy
tagliche
##quis
entt
454
boys
##284
gebucht
menus
provision
##767778
meets
wake
##holt
installed
beitragen
##folge
vollstandigen
##bai
western
fundament
surprises
remaining
##information
pensionen
zukunftigen
blessed
##politik
encour
mistakes
##gewicht
quotation
disabled
smell
fonds
lern
pill
tail
##oires
##een
##erten
##orgung
beides
prospe
2019july
##204
##207
schok
##ussen
suit
##oster
14001
precious
offnung
januarfebruarmarzaprilmaijunijuliaugustseptemberoktobernovemberdezember
##343
##789
##706
##389
##8899
salon
setting
werkzeuge
kommunizieren
einzigartiges
unvergessliche
humor
faszin
kennst
causes
lisbon
judgment
799
fand
##satze
##espanol
wealth
dipl
0039
erinn
storn
sofor
worten
getestet
##567
##313
entstehen
saturdays
accounts
laut
##141
wahrung
bali
kostenfrei
angepasst
rucken
erlaubnis
reduction
potenzial
peters
gebracht
##stoffe
eigentumer
##buffet
abwesend
wechseln
verpackung
promptly
gdpr
ausprobieren
samtliche
artwork
acknow
##1971197019691968
bb
sv
sier
vital
##hes
##erba
##isement
inhaber
reject
istanb
schme
wills
1944
1966
besche
18november
##oting
##1939
monte
011
plastic
231
233
##ival
lief
betten
ordering
347
balc
businesses
chris
webcam
patent
stucke
zuverlassige
##namen
beweisen
regards
increased
unglaublich
##sprozess
therap
argentina
begeistert
evaluation
pregnant
##contact
einschrankungen
##2014201320122011
unavailable
geloscht
erinnere
374
dk
geden
mike
n6
##gere
##mont
##you
##kriterien
20h
intr
##uns
##tist
unt
auge
marco
besichtig
18august
liber
hierfur
217
helfer
clin
coin
##1828
mirac
##fuhlen
privile
listing
surfen
verlangen
##garten
magie
##196719
conferences
wachsende
investitionen
##technik
##19651964
##76777879
##19671966
6e
720
aid
tip
##ror
##year
##face
##wing
##tech
##ales
##elen
anlage
recip
0015
ermaß
30am
wieviele
resist
##193
offline
015
servieren
faktoren
myster
##309
##ielt
zuruckkehren
succeed
601
benutzers
schlimm
differently
gluckliche
politics
agents
sitzen
##zusetzen
tolles
##straße
istanbul
hug
jub
juser
€99
##rier
##care
##aly
weish
verruckt
0013
##esse
2019dezember
auftrage
227
followed
##werte
285
grill
gastronom
##189
gewalt
guts
341
laura
registrierungs
stimmt
hauf
subje
pressem
java
birds
concerts
positionen
anbieter
realisation
##rankt
vertreter
fleet
encoun
delete
berucksichtig
bmw
hannover
##antwortet
##202120222023
barbara
##197119701969196819671966
##19711970196919681967196619651964
hind
##gi
##lebnis
unkom
frames
##ento
##lichkeiten
2019march
enlar
wass
1973
##anna
ausreich
##1934
##izierte
demokrat
donations
##losen
simult
landwirtschaft
webpage
tournam
skype
corner
eigener
##wendet
##rufung
einzelne
properly
netzwerke
awesome
pflege
federal
andreas
##stattung
zertifizierung
leaving
##methoden
ermahnung
##323334353637383940414243444546474849505152535455565758596061626364656667686970717273747576777879
5x
bot
eating
##756
##thy
abteilung
konzeption
konfigur
ausgeb
adam
adobe
##1936
##gebiet
geschafft
grau
##ansicht
gewonnen
startup
##796
sortiment
ears
##ounge
gestaltung
suggest
##while
rechtzeitig
grace
milan
hundert
raised
castles
erinnerungen
historische
gesetzes
replace
##umenten
erweitern
klimaanlage
ultimate
gifts
breitengrad
lasse
rio
wach
##oz
##cu
##fach
##erin
##itage
207
##berger
ford
##ossen
gegangen
19august
lecture
##zeugt
ages
decree
seines
##itions
traur
brot
applied
studie
genaue
hungry
wohnzimmer
prasident
kopieren
falsche
erzielen
textil
candid
academy
01020304050607080910111213141516171819202122232425262728293031
##197119701969196819671966196519641963
5pm
crow
hang
hub
mp
ries
sara
tasse
vary
##t11
##lern
##lement
##tile
youn
2019juli
##208
##abet
309
vorgang
##1938
regierung
##509
gastgeber
musical
##181
handling
webdesign
magical
talks
mobel
##196119
gesundheits
silence
inseln
##201120122013
football
cocktails
unexpected
460
jane
kim
pes
sac
##ech
##bit
##mun
##ieur
thai
##elde
vergeben
##verkauf
193
##pper
preferen
wozu
regret
256
252
loyal
technischer
##237
lade
realized
zwar
remo
##garantie
vereinigten
##ietung
revision
fahigkeit
erfolgen
externe
zustimmen
aspekte
ibiza
applicable
##kompeten
unkompl
8000
928
cest
d8
gt
iva
nationale
sister
##bing
anst
eint
zusch
stich
##ulated
aufzunehmen
moq
19september
18september
##bey
auszug
preview
genuss
suppl
klassen
##176
##coin
345
##390
malays
geladen
organic
einger
angeze
altere
automation
junger
bauern
described
institutions
accompanied
##20082009
eingelog
konkurrenzfah
enthusi
##1962196119
prosper
##1971197019691968196719661965196419631962196119
##197119701969196819671966196519641963196219611960
435
dingen
eternal
ga
gmail
meldung
ric
ts
##ket
##onien
##orters
haare
0016
erwer
aren
##andra
2019june
mega
chic
untert
##ktiver
315
betroffen
##228
accident
##366
linken
prakti
confl
stehende
agreeing
traditionelle
approved
printed
##liefer
explan
##mitting
##cepts
increasing
strengthen
spezifische
seminare
erweitert
affili
infrastruktur
erlauben
virus
joseph
kuhlschrank
srl
husband
complaints
movies
580
dwell
galer
icel
##nes
##bd
##meldung
##ktions
##inst
##oni
##isk
beweis
dient
##oop
mitmachen
##thin
schop
abschluss
##005
##ibr
heiz
##cient
peru
emir
donate
261
betreiber
parte
4915
##785
entstanden
##185
##standing
tuned
##703
387
kurzen
##linien
landsc
transfers
verbessert
optimieren
##finanz
stattfinden
accompl
ebenso
umweltsch
##going
borders
painting
##erschaft
##useeland
##20001999199819971996199519941993199219911990
gerecht
deleted
unterscheidet
chaos
plotzlich
balcony
weisheit
##1971197019691968196719661965196419631962196119601959
iceland
bam
koch
nico
vs
yacht
€10
##stande
revel
##ulpt
deny
resource
eurem
##izing
glor
##cles
##223
klaren
##405
recru
strange
balkon
kleider
cms
truck
accessoires
factor
watching
complicated
voted
eastern
audience
statistiken
wandel
terror
recognize
argentinien
awaits
exportiert
weiblich
negative
migration
correspond
exempl
suddenly
##323334353637383940414243444546474849505152535455565758596061626364656667686970717273747576777879808
7000
ehe
katzen
nerv
wik
##gg
##fir
noble
erhe
gewer
##istics
##003
existen
reset
uberleben
shad
gesetzt
##1937
desires
erfind
##herr
##hnung
395
query
guides
netto
381
downloaded
serien
projektes
grundlegen
behav
configur
okolog
studien
burgen
punkten
krist
##betrieb
finanziert
feiertagen
relationships
pilot
praktische
uberraschungen
disbelievers
pferd
langjahrige
territory
gekennzeichneten
schokol
326
570
549
630
gur
€7
##dd
##856
##win
##sters
##stud
##oup
weak
andorra
zulass
##indest
0017
ergeben
productivity
##rip
hero
trag
lasts
##from
geniessen
zumindest
solchen
directions
##274
sicherer
furthermore
remark
angefangen
charter
talen
suchbegri
erklare
subscribers
stores
rechnen
nationalen
anwendungs
universe
trocken
jesolo
agencies
rechtsanw
agreed
matches
emotions
##auscht
magazin
irgendein
##limited
parameters
wettbewerbsfah
cocktail
scientif
polyamid
kilometres
##19711970196919681967196619651964196319621961196019591958
bicy
rie
zahn
##sg
##mi
##2c
##zes
##online
##itan
##organ
##stal
##reisen
##omo
unlimited
##etter
befehl
seb
frische
##aments
isa
stoff
gek
schen
ubersetzen
heating
##stehung
hereby
ups
247
permitted
223
claud
##lock
312
ruft
roh
##561955
##165
publikum
angeben
communications
karl
kommst
olaf
optimize
##195719
revison
gesamts
##kunfts
forschungs
anspruchs
erhohen
laser
##20062007
guidelines
##3233343536373839404142434445464748495051525354555657585960616263646566676869707172737475767778798081828
##195719561955
544
setz
##t10
##gin
##cere
##zh
##inav
##anforderungen
inven
unrecht
anlagen
chain
##under
vormitt
##1935
##1932
offic
sons
begleitet
outlet
police
verwaltung
##244
irrt
investments
editor
##2018201720162015
wohlfuhlen
testim
notwendigkeit
zentrale
architect
modernen
torment
humans
##20102009
##ography
employment
infrastructure
brilliant
##20142015201620172018
trouble
eingeloggt
744
aer
n°
ohren
sz
soph
yho
##vision
##cj
##ports
##onna
##stat
neut
##auern
2019may
##usa
impl
comb
leip
konst
woran
##194
##activ
fuße
##gestell
experiment
##315
klin
##232
contest
einmalig
alternativen
universal
erneuer
border
ubernachtung
bottles
elektr
bekommt
smoke
gefahrlich
hauptsachlich
reihen
drivers
obligator
hurry
jugendliche
maintain
gespannt
shooting
##19711970196919681967196619651964196319621961196019591958195719561955
yhoko
789
gaben
hore
ky
rural
##ni
##ns
##dis
##itzt
##legung
##agner
angenommen
zubehor
##tert
franc
##andinav
1024
194
19november
##002
ami
lived
298
##255
naturally
##lines
millions
##ograf
improving
freundlicher
concentr
passengers
##kommt
sicherheitsfrage
##winden
einkaufs
wartung
wesentliche
benutzernamen
warsaw
gemeinde
411
honey
sides
zoll
##typ
##uc
##bike
##urm
ancient
##used
abonnen
##riffe
197
leuten
306
ausgang
gesprache
nachfrage
##1933
17h
##217
rule
##aufent
##401
##353
485
invent
urban
broken
turen
##555
deutschlands
##8586
##embly
authorize
aufenthalts
beratungs
finnisch
camps
angemessen
ferienhaus
bibliothek
identity
varianten
chalet
produktivitat
fotogalerie
forbidden
gastfreundschaft
christophe
##3233343536373839404142434445464748495051525354555657585960616263646566676869707172737475767778798081828384
##201020092008
423
574
585
814
jungs
kul
katze
mull
nap
rasch
##die
##bad
##brechen
##ao
##case
##fox
##chtigkeit
tham
##bern
##ilie
nepal
2019juni
william
maur
##schirm
informative
resol
##1931
248
dubai
erfahre
spekt
brenn
031
##108
##569
fluss
##609
schnellste
specialized
chron
paare
elev
##133
distingu
##mogen
##fuhrten
studieren
vereinf
##geschlagen
genauer
existieren
nearest
inspiring
walking
discussions
mutual
roads
pfleg
andrea
deutlich
prinzipien
exklusiven
strictly
bedienfeld
##8788899
johannes
mikro
abonnenten
##85868788899
ax
cache
tang
txt
xl
##uers
##uht
##netz
##aming
006
mitten
2018april
##2024
##ckung
##iente
##schung
ubersch
shorten
warst
241
lasting
265
##meer
##347
interessanten
##ausanne
bedenken
451
##aves
begrußt
strategies
revised
tutorial
rechtsch
yeah
kommunikations
schools
headqu
peaceful
kroatisch
henry
forderung
krankheit
provinz
surroundings
refriger
##323334353637383940414243444546474849505152535455565758596061626364656667686970717273747576777879808182838485868788899
327
dos
pas
pir
rang
rise
woo
zip
##vide
##uel
##mst
##wm
##lly
ine
##bergen
##emon
einwill
segen
neuseeland
dekor
geantwortet
##riage
##rifft
1921
##009
##ota
umgesetzt
##zeige
concepts
##wegen
fridays
##224
verwo
teilweise
354
cheese
porto
mitgliedern
4474
##767
schwester
##aza
beschrieben
offenbarung
gegenwar
zuverlassigen
vorherigen
lucky
flugzeug
flying
presents
berufs
partnerships
harmony
province
cancellation
##197119701969196819671966196519641963196219611960195919581957195619551954
379
470
520
680
kw
kno
nick
zah
##ji
threat
##ede
reven
dive
##oland
nehme
##ultieren
albert
schein
werbe
worum
tricks
sins
taglichen
##227
daraus
##406
##402
carol
assembly
kenne
grundung
submitting
adressen
gehst
manual
##nehm
sekunde
authority
##zuglich
##kehrt
uberras
halfte
kreative
effiziente
contributions
##register
coaching
darkness
execu
pferde
routes
anzusehen
boutique
subtit
##200820092010
umweltschutz
627
774
972
astr
ille
kand
kab
nut
tired
##kow
##wich
##anie
##nden
2025
##agent
einst
eintragen
rez
frist
stages
##cket
##angha
steph
##fried
moglichen
##3949
##765
##886
##achtungen
redire
caps
objekte
kurzlich
kurzfrist
milk
efficiently
teilnehmern
bored
kompetenzen
gewunscht
queen
tracks
ausgewahlten
##sproje
konferenzen
emotional
grafik
exercise
020
ale
cats
lausanne
zitat
##sichtigen
##gul
##melden
##ziele
##ores
##uring
tob
einsch
0018
##mented
schatten
teuf
##astian
consequen
sincere
betru
278
blond
##245
##1234
stayed
##490
verschw
suchergebnisse
investoren
mannlich
krise
excited
baujahr
multil
funds
verarbeitet
weddings
financed
schreck
kollektionen
berechnen
singapur
genuine
oriented
##zufriedenheit
ubereinst
loyalty
scientific
irrtum
521
575
dh
echten
gig
pv
##look
##pcs
##kb
##kunden
##onde
verify
##auben
##istische
producer
league
vorzu
1600
deserv
014
237
041
##788
direkter
generous
exported
operations
voraussetzungen
einzelzimmer
spezialist
##freie
definitiv
konzerte
psal
kreuz
konntest
##breiten
01234567891011121314
liebsten
##20042005
unbekannt
zubereitungszeit
fruhstucksbuffet
kompromisse
thamud
899
965
bonn
civil
mose
pot
ri
rk
sas
##kammer
uncom
beenden
hack
##ums
ours
aufgerufen
##open
imper
##abilities
##006
##neider
marino
kongress
##ardo
getroffen
benutze
##anzahl
##247
gutem
603
##made
dran
breit
italienischen
590
offenbart
impressive
setup
##zeichnis
##falle
edit
passend
passenden
raume
hauptstadt
raw
respektieren
umfassende
execution
unterscheiden
##19531952
aluminium
malaysia
rechtschaffen
860
859
hyp
ox
vel
voc
©2020
##upp
##cur
##pn
##reiten
sieg
##ingual
##icip
reform
007
ersetzt
##gelegt
##rible
236
##frien
266
parken
282
publikation
##281
touristen
distanz
participating
entdeckt
breakfasts
##ovo
kunstwerk
erleb
situationen
midnight
brain
trop
versprochen
ungewohn
vermissen
analysieren
##film
erhoht
temporarily
bosnien
defence
ignor
mittler
explorer
verwirklichen
berucksichtigt
ausreichend
leipzig
669
817
956
liss
misch
##uert
##elux
sees
2019mai
schicke
##veroffentlich
##abon
abschl
marine
context
heritage
##cio
plast
##izierung
269
279
##sprodu
machte
##568
##endence
##164
##251
sommers
unterstutze
einzeln
eingere
##verse
internets
verkau
guarantees
endete
bestatigungs
typen
templ
edel
voraussichtlich
##195119
braun
municip
##metall
mastercard
baume
deutschenglish
wesentlichen
exportieren
ursprunglich
cosme
affected
bosnia
circum
split
beschwerden
aaron
rejected
encounter
##19531952195119
##1953195219511950
0200
atel
dare
han
jas
lounge
rare
singen
##gor
##lare
##kar
##rog
beein
##aux
##veranst
##ffiz
freiz
##itteil
##zei
herstell
herkunft
238
speisen
##offer
declare
050
272
butter
postal
italia
solo
coins
flaschen
quiz
normen
##itzen
705
richard
touren
wanna
##treffen
gemeinsamen
biete
##vollstand
complaint
geschenke
focused
quantitat
versteck
perspektiven
reduzieren
norwegisch
notify
##projekt
erzahlt
##kategorien
verpflichtung
rimini
unusual
pressemitteil
##32333435363738394041424344454647484950515253545556575859606162636465666768697071727374757677787980818283848586878889909
uberrascht
##2004200520062007
475
610
760
966
ay
bang
f0
lisa
ug
##atre
2023
haft
ersetzen
styl
2019february
aufs
aufrichtig
alarm
1930
1955
featur
##utzung
gering
geraten
desk
268
indian
##zeitraum
##344
glory
experi
355
zuruckzu
388
benutzung
ganzes
stir
distill
sofa
trial
1967
alternatives
southern
billig
loaded
effizienter
couples
perspektive
jahrhunderts
kalte
default
charming
horizont
citizens
##1971197019691968196719661965196419631962196119601959195819571956195519541953195219511950
556
6f
ae
kiss
maus
nen
runde
wiki
##dien
##sta
2030
##lles
##rees
##tials
##icity
seht
0010
stability
##ulse
schrieb
##rix
##schule
1800
nachts
interviews
254
257
price€
##161
##241
overnight
348
swim
markiert
checked
432
effekt
zahlreichen
##5969
opera
operator
korrig
trifft
consultants
##yester
economical
festivals
nordamerika
congratulate
motorrad
##sprache
ukrainisch
fulfilled
automobil
krankenhaus
##323334353637383940414243444546474849505152535455565758596061626364656667686970717273747576777879808182838485868788899091929
425
514
janner
rid
##t14
##dies
##las
##pak
##wear
##jet
income
##tete
##ometer
##eme
furwahr
##estra
marcel
besitzt
umfrage
mineral
243
englische
liebst
mailing
begrenz
##anzig
polyester
entsteht
profitable
overcome
verborgen
companions
##selben
398
norden
##764
548
friendship
suchkriterien
mighty
##ammlung
globalen
##jenige
spezialitaten
konkrete
spannend
fußball
nachfolgenden
ostern
adapted
##visor
hurt
prufung
dessert
ursachen
einwilligung
municipal
ai
bat
bose
cs
cen
null
tust
##cd
##x2
##pon
zuge
verle
derer
maced
1900
extend
##racy
##ibet
##sequ
newsp
warschau
herein
artikels
servant
speicherung
271
blonde
musste
bob
602
##worter
##358
statements
sortieren
enjoyed
irre
internationales
erfolgreicher
##geschickt
##geschneider
performances
bisherige
initiatives
schlechte
dorthin
spiritual
##32333435363738394041424344454647484950
wunderschonen
residenz
lobby
await
erhaben
##20022003
destroyed
##20192020202120222023
datenschutzrichtlinie
steigern
petersburg
##3233343536373839404142434445464748495051525354555657585960616263646566676869707172737475767778798081828384858687888990919293949
930
##geld
##lander
##most
##pc
##ped
##aro
##real
##oms
##ierst
##aha
abo
frequen
mario
shutt
ausflug
ads
bye
246
helden
reserviert
verwende
358
quarter
##263
zusammenhang
##385
pod
##888
##ella
personalized
continents
llc
##uzz
kontinen
##ovina
specify
relaxed
midday
attach
museums
sensitive
zukunfts
affair
benotigst
verhindern
ubrigens
##200820092010201120122013
lissabon
319
429
fare
mn
trib
##koll
##ietet
##ares
##omig
unsch
rechnung
0011
##denken
george
##advisor
##abteilung
vorstellungen
woruber
adri
##ido
tritt
plenty
##gebuhr
##bles
lock
formul
fulle
##timmt
veroffentlichungsdatum
##auswahl
besuchern
##286
founder
invo
469
bilden
signiert
sunny
gradu
unterschiedlich
musiker
menschheit
##ully
depend
palm
palette
routen
reinigung
oberste
abstimmung
immomig
appetite
warnings
washing
victory
##zurufen
enthusias
graphic
enemy
##2014201320122011201020092008
##19711970196919681967196619651964196319621961196019591958195719561955195419531952195119501949
##596979
##3233343536373839404142434445464748495051525354555657585960616263646566676869707172737475767778798081828384858687888990919293949596979
536
bg
kast
kick
miete
##sdatum
##ued
##x200
##pher
##★★
##iegen
##irr
einladen
ongoing
##utter
deleg
##ulen
marok
vorsichtig
##feb
prevention
283
großzug
versicherung
arbeitgeber
arbeitstage
##268
recon
90€
internation
answering
schwang
basket
angelegen
technological
originally
##geschaft
annually
wunderbaren
saudi
liebling
##laufzeit
geneva
abstra
erkennt
baq
adapt
gnade
murten
luggage
berucksichtigen
##████
##maschine
bridge
inspection
ministry
unkompliziert
3314
834
bach
matt
oze
pig
ron
sri
##iffe
##gleich
##light
##cat
##estic
##lli
beur
haar
vermogen
gebl
##schw
302
##bezie
keys
##ived
##aka
##offnung
264
taged
grab
grant
passag
##604
##276
guy
##296
antworte
zeug
443
schlagen
eingehen
trademark
##hots
##occo
freundschaft
##folgen
tatigkeiten
versandt
tripadvisor
finanzielle
juan
printing
campingplatz
occured
booth
characteristics
cabin
beobachten
##kapazitat
nadine
cordially
##aufenthalt
377
bav
baden
ding
fathers
kid
obey
riding
##oy
##t13
##mass
##point
##kore
##field
20august
##tiz
##irus
##etr
annehmen
diana
2019februar
##tha
##theit
spont
gegend
geteilt
10h
ess
##istet
##isters
amate
denied
shangha
hein
##kely
##fell
1389
agrit
##tschaften
appe
supporters
401
403
professor
##169
verbreit
##396
383
enjoyable
chrome
authors
sofern
662
namens
optimiert
periode
bulgarisch
profiles
milch
turns
babies
mm²
sonderpreis
wallet
betreff
betreuung
unkategor
partnerschaften
außergewohnliche
kaufe
diskutieren
himmeln
salzburg
##19481947
shanghai
##194819471946
535
715
banner
ft
idn
kabel
##iat
##nia
##cr
##onial
inse
##alia
##eto
noise
##osition
spaz
100000
schad
it0
##istisch
exit
##ibe
vornehmen
mehrsprach
looked
##ikal
##spun
mailand
506
##ansk
##188
teilzunehmen
modules
flick
laß
laws
389
##388
carl
461
oldest
hochzeiten
reminder
skill
colomb
magn
charges
promote
grey
##beste
erwachsener
wertvolle
kostenloser
performed
fourth
1963
babys
discussed
specifically
funding
painful
schulen
ausfuhrliche
emotionen
ahnlich
efforts
container
professioneller
externer
##weiter
gesprochene
##messungen
jegliche
erledigen
erwahnt
announcements
revelation
522
cable
eher
nay
wire
€9
##t17
##gement
##lə
##publ
##eration
##tiven
bella
fruchte
##acher
deck
arc
1088
abgelaufen
mars
vorgehen
ausgenommen
trin
speech
318
045
##346
einfaches
##174
##187
##fuhl
##klar
##world
wahren
##cribe
##449
muster
acceptable
herauszu
installations
inspire
keeping
safely
01014
##leiter
##vollen
fertigung
jahreszeit
accommodate
raise
renovation
versteht
geheimnisse
critical
nachfolgende
stabilitat
mistake
erkunden
leaves
disappear
degree
legislative
incorre
##19451944
wundervoll
tournament
##19481947194619451944
2d
8pm
9h
933
hass
jord
ligh
sick
€19
##del
##ließen
##hem
##wesen
##stab
##asa
##eta
##ilaum
bewohner
reci
zuges
##umm
dete
##ando
geg
orten
##rade
voran
vorstellung
heissen
##utzen
clip
314
281
1001
kundenzufriedenheit
technique
453
direkten
busy
jedermann
herzlichst
checksum
##769
asset
stille
nummern
##865
effektive
lieferant
offenkund
olive
twenty
stoppen
definiert
heruntergeladen
semester
audi
schwierigkeiten
teachers
representatives
czk
mahlzeiten
rheinmetall
bescheid
unkategorisiert
533
629
ade
hir
kart
sne
zoo
##t15
##boo
##cers
##zel
##aters
20september
##iche
##united
##eline
spur
unterbreiten
##peratur
personnel
myth
##span
491
##308
##samen
sample
##haltnis
zusammengestellt
##755
treue
europaischer
433
kompon
automated
specified
multim
entsprechende
replacement
prophets
##produktion
champagne
##200120022003
readers
neighbor
beliebtesten
07070
conclusion
franco
herzegow
mouth
eingerichtet
freizeit
##194819471946194519441943
021
621
615
973
aa
nationen
vent
##riel
##mag
##hu
##arters
##reds
anfahrt
##ontrolle
arts
aufzeichnungen
##theless
waschen
abstand
ubermittelt
ausstattung
##angaben
actively
erfre
##aking
phasen
##frau
089
betrieben
geschah
bloss
##plus
rufe
polize
##318
customized
##standards
reputation
weiterer
grußen
##269
366
441
trek
##381
##383
jazz
nevertheless
auswirkungen
beantwort
##fluge
accomod
strecke
hundreds
firefox
tasche
entirely
implementierung
fernsehen
beloved
determine
prufsumme
##20072006
advisor
benachrichtig
excursions
ehemal
resurrection
executive
616
844
cul
lav
raf
util
##don
##gge
##lu
##ismo
##isierten
##ali
##tially
einzu
seo
10am
##verkehr
suden
##rader
konfl
conver
contem
getrank
##spol
505
##club
##closed
poster
langweil
##316
berichten
covers
profis
##990
##186
starkes
flat
##277
##291
infin
##898
preserv
managing
bird
situated
modellnummer
duty
entsprechenden
mittelmeer
african
doppelbett
strengths
unvergessliches
aims
judge
grossen
british
##paper
fernse
erfolgsgeschichte
routine
ferienwohnungen
episode
valley
wurzeln
jagd
##19891988198719861985198419831982198119801979197819771976197519741973197219711970196919681967196619651964196319621961196019591958195719561955195419531952195119501949
younger
schokolade
verwohnen
subtitles
kandid
flickr
960
cn
dritt
dna
ek
hindern
mouse
pow
##vs
##van
##b0
##missions
##pension
##onummer
##elassen
isol
005
erbringen
auftreten
geograph
schicks
12h
lecker
marriage
ships
auskunfte
worst
##zeigen
14h
016
clim
clubs
##gebaut
080
fuel
weekdays
455
##254
flav
##805
asking
schlag
hochstem
sura
developer
500€
blogger
viewing
##prozess
merch
merkm
traditionell
volker
releases
anfanger
graz
menschlichen
zuhoren
##bildungen
frequent
sudamerika
palace
sternen
eingefuhrt
##points
wirtschaftlich
athle
awarded
leadership
distributors
define
erholung
wheel
florence
anstren
neutral
circumst
atelier
##1948194719461945194419431942
merkmale
378
517
571
kase
kaz
pp
pam
patch
sap
ue
voting
vully
##gunst
##apr
##orgt
##atik
##rot
0020
aufgeben
sper
chose
19h
tec
fein
gesell
2020december
minor
minib
##glas
unterliegen
keeps
opfer
296
##lett
versicher
##307
gefuhrt
##184
##issa
financing
meditation
##809
488
markus
384
464
damals
545
bereitgestellt
smallest
864
erlebt
bestimmen
1964
achievements
regelmaß
defined
umweltfreund
honour
012345678910111213141516171819202122232425262728293031
reviewed
spezifischen
perspectives
identification
geehrter
spezielles
rollen
horizon
auferstehung
pierre
hunting
schwierigkeits
zugangsdaten
beitreten
removed
teufel
internationally
775
877
ira
lud
rand
##tons
##brid
##aison
##yth
##eras
##order
##urb
##start
##arma
inquire
theor
##tices
unmogliche
ank
anleitung
wirkt
recovery
2018december
##pped
##idsch
clou
##izz
safer
##erto
samples
zugreifen
justice
##239
##253
sections
##391
markten
kleid
autoren
richtet
fallt
filtern
##athon
verlust
##ovic
hopefully
geschaftszeiten
tschechischen
finanzierung
##zusch
widersp
prasenz
independence
appears
appeared
anmerkung
explained
ledig
ubrig
##20022001
kompliziert
abschied
gewinnt
screenshots
fascinating
unbelievers
##19411940
simultaneous
illegal
##3233343536373839404142434445464748495051525354555657585960616263646566676869707172737475767778798081828384858687888990919293949596979899
beantwortung
##194819471946194519441943194219411940
646
727
gate
hinge
sard
##vere
##sitz
##lm
##erlebnis
##itary
##ston
we´
##leb
haag
0019
##menten
meg
alpen
withd
vorab
gesammelt
2020dezember
##idi
agile
formula
posit
appart
##566
allesnachste
copyrights
##atzung
monatzeige
##408
zwecken
insight
enjoying
autonom
546
##890
akzept
akadem
fruheren
kontonummer
watches
ungere
awaken
laufend
notwendige
directory
bewir
surprising
souls
elegance
procedures
recyc
intelligence
refresh
sympt
degrees
erbaut
eintritts
suchbegriff
ubereinstimmung
enthusiasm
murtensee
tagedie
649
633
833
848
ehren
felt
mude
nir
ohr
sed
ua
vita
##ete
##hd
##pted
##itious
##leun
prop
verab
isbn
ara
aufzug
2018january
motion
##merzen
leb
ash
308
heir
##1960
convention
unterteilt
perce
013
##apt
genere
beta
begun
grune
granted
outstanding
klienten
springen
##158
##242
##996
vielfaltig
flower
344
##264
zeig
##maßen
carbon
neujahr
serial
468
547
##cedes
##1991
##proble
presiden
sofia
661
bestatigte
streben
kanale
sandwich
burozeiten
dahinter
introduced
primary
echtzeit
bahnhof
##mitglieder
antonio
breath
styles
democracy
##kenntnisse
vorubergehend
liefert
enlargement
traurig
reihenfolge
erlebnisse
marokko
idnr
##1948194719461945194419431942194119401939
434
875
dont
jam
kino
nis
tong
va
##ght
##hagen
##fru
inzwischen
unno
behal
##achung
##ruch
suits
1940
freier
##schrift
307
ubertragen
worse
##feiert
emission
failed
##ikat
317
mailen
##341
##166
##177
schnellen
gastebuch
flights
394
##worben
binnen
geliebt
grunder
modellen
additionally
pride
optimized
rechtlichen
bitcoin
erforderliche
princess
purchasing
##eshop
maßgeschneider
großartigen
spots
leser
accuracy
launched
variants
urheberrechtlich
gewohnt
hervorragende
maintained
vortrag
herzegovina
survive
arbeitsplatz
shuttle
recipe
##2001200220032004200520062007
herzegowina
576
cute
dishes
hill
hate
kunf
nar
puzz
qr
tub
##ifor
##t09
##gungs
##360
unsubs
seelen
react
zudem
frucht
008
##ierbar
erkund
##ctual
neusten
aufgel
2018october
chart
##riffen
##00m1
leather
vorteilen
##endes
259
durable
species
steigen
parks
serviceleistungen
##504
##ifer
junior
arbeiter
dienstags
##altungs
##259
##258
losungs
angebots
357
gebuhr
recom
95€
holding
bars
origine
operates
##hold
##holm
creator
##what
harte
erklar
umfeld
employee
connections
rabatte
celebration
ambition
platforms
##produkt
unbegren
bekommst
##deutschland
##pielzeit
konsultieren
repeated
##tierten
killed
bewerbungen
gewinne
niedriger
effectively
enhance
hygiene
superv
gesamtspielzeit
incorrect
##200720062005
circumstances
5m
645
731
855
bid
cath
dental
etern
horn
lights
md
##life
##pool
##kamp
##f5
##inos
##onsten
##anian
##atore
anhang
beings
forec
00zł
##force
##verbind
18april
aussicht
##198
comply
##gebiete
englischen
0541
beten
zugelassen
##289
handmade
##272
604
608
363
##149
clicks
gelieb
transactions
vollen
filters
buches
speakers
cake
herausfinden
safari
##jahrige
summit
strategien
normaler
beispielsweise
guestbook
fortlaufen
schwarze
senses
walls
hyd
instrumente
rufnummer
1234567891011121314
promotional
anwesend
imagination
wusste
victoria
lesezeit
ausdrucklich
739744
lodge
##modell
jubilaum
angezeigte
forecast
835
889
koffer
mam
rated
sven
##rien
##mund
##haben
##pf
##fs
##русскии
##zia
##ori
##atar
theatre
2019marz
alice
##estand
abzu
##scher
prison
##1928
emma
313
277
benelux
503
##gesprach
##787
durchgesehen
##171
endless
##369
##702
##708
##146
scene
wochenenden
merken
signal
altitude
burning
operated
zufriedenen
souven
volks
ecu
familienunternehmen
attraktiv
sonderangebot
##richtung
##rankungen
##ghan
handelskammer
elektro
parlaments
dolom
##200320022001
fremds
compared
citizen
bewahrt
extras
erwerben
schopfer
landscape
##finanziert
claudia
schwierigkeitsgrad
439
513
611
769
bac
bruck
kraf
mult
vay
€50
##rate
##nor
##durch
##gio
##baum
##mu
##zif
##anfragen
throw
##alon
weisen
##iling
anstatt
eindeu
reis
furchten
spart
2018januar
##20100
sugar
1958
##004
3013
##ogan
auszeichnungen
minus
##fehlen
uhren
##aki
genf
287
##ektion
##ungslosung
496
experte
durchfuhren
ansonsten
3934
weiterfuhr
##avier
##261
448
##746
morocco
innovativen
christus
submission
expired
begruß
conditioning
verpasst
trips
betragen
erschwing
excer
eroffnen
##handel
jemandem
gabriel
wirtschaftliche
vanessa
extensions
observe
beteiligten
begeisterung
anschrift
caused
gbp
##affung
paintings
##maschinen
irgendwie
voucher
multilingual
eingereicht
##19481947194619451944194319421941194019391938
cigar
fon
mol
sisters
##db
##linge
##278
##cf
##zung
inj
##asis
rezept
verbleiben
##essel
spent
spates
##imo
1959
2017november
shot
gesichter
039
blu
kontaktinformationen
##173
mittwochs
mirror
symp
##271
##367
##444
trucks
595
eingabe
minder
charme
activated
benutzererfahrung
gultige
meantime
##strateg
tener
mittags
ambass
ambitious
dollars
lustig
identify
gerechtigkeit
pupp
komplexe
berechnet
disbelieve
genugend
violence
bezahlung
##posted
satellite
linda
kommerzielle
bungalow
macedonia
colombia
625
745
bmb
gun
hud
nutze
rs
v1
##ritte
##t16
##pie
##itas
##stu
auction
rebell
verif
moves
sohne
abuse
umsetzen
gesunden
intervention
unterr
unterkunfte
preced
hohere
1300
acts
##vents
machin
blank
gewahl
starte
terrible
afghan
903
##144
##143
russischen
realistic
##ternacht
loggen
valent
schließe
entwer
assign
##777
exped
talents
promises
beschleun
reaching
roma
patr
532
##flachen
795
863
sheet
vod
heads
modernis
##bucher
widerrufen
123456789101112
prime
bestimmtes
parlament
nachmittags
identitat
alphabet
gaming
otto
disease
recipes
corresponding
redirected
beeinfl
1x
531
740
gy
pau
pia
ya
©2017
##rs
##west
##estern
##anter
##ird
##rock
##emo
bever
verification
##menge
mitnehmen
scha
##ads
1942
##ateau
##007
##uster
uberarbeitet
##print
hobb
timet
253
##izierten
##aks
lovers
286
##ansion
##994
##288
343
##701
##worthy
552
schließt
landschaft
##italiano
bildschirm
gestartet
gestaltet
oliven
entwickler
periods
aufenthalte
possess
domestic
jungsten
attitude
api
textile
historic
angestell
briefly
medizinische
simplicity
athlet
furnished
aussieht
entrepreneur
sofortige
haftungs
lediglich
##194819471946194519441943194219411940193919381937
8am
821
856
bah
bik
eisen
kh
kuste
lkw
lanka
ry
rust
##iess
##ikt
##dorf
##kas
##iehen
##itution
##ortieren
##stone
##omat
befried
##ammen
0033
##ulties
19may
##anta
shap
nachname
stehe
bren
##frank
genannt
genießt
technisches
##3684
relativ
99€
gemuse
wahrhaf
wiederver
##12345678
afterwards
465
##666
personality
owned
retro
talente
pattern
villas
etabl
##raume
##weisung
kleinere
definieren
1907
stockholm
appearance
hochwertigen
boote
##36855
##funktion
journalist
begegnen
influence
panorama
jahrzehnten
prototyp
mazed
demokratie
##2007200620052004
534
724
echter
jess
sq
sig
tent
yen
##iques
##ften
##onav
##stern
##arti
##unk
##tia
anzurufen
vert
allnext
mitternacht
2018july
suites
##ischem
lei
aspect
##raph
worries
interface
trage
folgendem
273
indicate
##506
gefuhle
monthshow
daysnext
##rene
flotte
##602
weiteremp
medik
selts
simon
wiederholt
poet
malaga
latin
kunststoff
staats
consultant
faircommerce
automatische
gepack
bottom
empfohlene
kolumb
chemical
beschaftigen
holybooks
aussage
virtuelle
providers
exzellenz
vertrauenswurd
pursuant
spectac
##19361935
shadow
shortener
geblieben
agritur
##19481947194619451944194319421941194019391938193719361935
419
518
529
940
aur
bible
db
dm
fals
mig
ports
€69
##ramm
##dh
##eing
##eper
##lab
##haften
##kh
##zut
##uries
##rein
##aser
anerk
##iera
erworben
##andel
aufsteigend
##abeth
##iene
cher
1956
1948
legende
asp
ausnahme
##1970
##gler
gender
044
027
509
##159
##152
enden
monatjanuar
produktes
erwarte
drin
##747
cargo
telefonische
803
enjoyment
467
remote
scope
christina
373
bildver
veranstaltungs
695
operators
empfehle
authorized
menschliche
meeres
fairs
komfortable
preparing
crim
crist
banking
attrib
frohliche
vorschlagen
engagieren
##bilder
analyze
€129
counter
widerruf
grenze
##20002001200220032004200520062007
##clear
eleganz
announce
separately
angela
aktien
wartest
kennwort
bleibe
virtuellen
demonstration
florenz
vertriebspartner
tweet
rezension
excerpt
376
428
710
fischer
gour
sitting
tauch
##swurd
##gange
##kin
##isi
ink
##teid
unne
unend
unmittel
derjenige
erzeug
erzeugt
dek
arme
aufnahme
mitteilungen
##thur
wasn
maison
compr
1936
feuers
lee
3014
##ucher
ward
heroes
genugt
##503
391
aktualisierungs
sollst
##363
369
evol
dres
inser
zwolf
verschoben
##132
bereitet
retreat
participant
erstellung
573
globe
lebenslauf
tauchen
humanity
fairen
uberprufung
fortzu
electr
fachle
illusion
arranged
##sprogramm
unabhangigkeit
grunen
contracts
##19941995
##19971998
righteousness
institutionen
indonesia
wolken
kontinuierlich
structures
schnitt
nachbarn
##aloge
jakob
obligatorisch
schicksal
weiterfuhrende
##194819471946194519441943194219411940193919381937193619351934
cem
dict
lamp
oste
piano
##sw
##map
##fte
20november
##alk
##berichte
reaktion
verurs
erzeugen
##menu
##geht
aufw
##opp
##opol
abmessungen
2017september
vorsicht
##beisp
trick
phases
##heil
##154
##dsm
television
##ipedia
endgul
##ferenz
cream
##stermin
382
466
iron
waffen
mercedes
472
##hoben
##hohe
##geschrieben
specially
erfordern
specification
modells
translator
01016
##portal
turnier
ensures
motiviert
sexual
vorhaben
proudly
bewahren
ratschlage
photographer
engagiert
##großer
reinigen
facility
papa
mindestaufenthalt
motorcy
anzuzeigen
simpler
bibel
bestehenden
dolmet
intensive
ankundigungen
determined
##russland
##bewusst
##19321931
##193319321931
headquarters
consequences
korrigieren
farewell
##korea
blossom
polizei
bmbf
machinery
afghanistan
##194819471946194519441943194219411940193919381937193619351934193319321931
431
478
426
cds
icon
ras
rivers
syr
€6
##effiz
##likes
##aq
##kil
##krie
weile
##etwas
##ionen
##umes
stations
armb
aufwand
2018oktober
##usd
it´s
##iens
besetzt
vorstand
ausgeschlossen
1400
helfe
pln
servers
compu
dated
emissions
grows
079
begriff
##quer
entkommen
codes
profi
##167
choices
459
keines
successes
361
verwendeten
easiest
managers
##ocation
trained
summar
##erstatt
resultat
authorities
personlichkeit
universum
albania
##useum
gesandte
pragmat
pflichtfeld
pixelated
pixelige
inneren
##19901991
##zipl
kaufer
conduct
legislation
authentisch
lebendig
gegenseitig
##familie
heizung
grundlegende
sebastian
featured
francois
##3233343536373839404142434445464748495051525354555657585960616263646566676869707172737475767778798081828384858687888990919293949596979899100
brucke
bildvergroßer
bildvergroßerungslosung
678
722
830
926
aster
bom
hire
jim
lied
pt
vint
yu
zag
##sinn
##ju
tower
ankl
anerken
einblick
0043
allwissen
era
2019ente
##verbrauch
##ablen
absteigend
1914
1949
attem
healing
hierbei
##weilt
steve
bron
loving
508
gray
rote
arbeitstag
copies
##157
herzliche
##607
605
449
##vorschlage
gelungen
##bogen
541
jew
signature
##695
programmes
cooperating
##595
stake
dreaming
halte
brace
hosts
ensemble
lawyer
abonnement
glaubst
##fahigkeit
northern
klicks
niedrigster
variieren
geduldig
schriftliche
investig
tube
beteiligt
wunderschone
temporary
begegnung
123456789
victim
fingers
sierre
haufige
wikipedia
herauszufinden
entwerfen
##onavirus
##1948194719461945194419431942194119401939193819371936193519341933193219311930
686
a2
caf
dd
fangt
gang
leder
##eim
##bor
##3d
##camp
##har
##het
##info
##ieu
infe
schuh
##ustellen
uberzeug
vorbestell
heisst
##temperatur
##chef
262
indicated
diss
entlang
gewiss
modul
syl
quart
902
##751
##123456
schwanger
##881
schließ
perfekter
km²
coronavirus
ablehnen
##immers
halbe
architekt
increases
popularity
unvergesslich
oberflache
senten
catalan
##aktivitaten
fulfil
puerto
hochzeits
wunderschon
##199619971998
kombiniert
renewable
##dienstleistungen
failure
anschließend
nicole
testimonial
refrigerator
deserves
##friend
spazier
##2007200620052004200320022001
427
5€
624
644
820
810
936
944
977
dame
elen
gor
mum
mental
n5
ou
runter
tir
##vy
##cte
##wie
##enz
##anche
##stil
##isco
inher
incom
##irland
##elbe
belle
befolgen
zucker
verona
erspar
furcht
##thotel
schatze
##usch
1935
1939
1938
##asten
##news
geseg
nachten
##bruch
##feier
023
benj
##348
wouldn
##508
roi
polic
polski
409
##781
##257
3500
##283
syner
606
##397
treff
##749
##745
##795
##797
valen
##italien
behorden
##azitaten
skip
retrie
569
ferr
verkund
accesses
absprache
ecological
bekannten
gultigkeit
beginnend
nachhaltigen
strug
kanalen
albanien
matching
punktlich
mask
femdom
dining
##struktur
langfristigen
erfullung
gewahrleistet
genehmigt
schmuck
salvatore
visualisierung
conception
mathem
geschlecht
gutschein
bauernhof
conflict
clouds
unsubscribe
fortlaufend
unnecess
885
916
cuba
foo
hine
m3
til
русскии
##rans
##warte
##esp
##oring
##uro
##urer
thor
##arium
##till
toys
todes
##ettet
reichen
diet
fragt
sprech
algar
##verb
##dus
willen
diesmal
productive
abbildungen
1941
19juni
19june
1953
denjenigen
##sens
aussch
ausger
ausstellungs
017
julie
##aked
grown
292
297
##anders
##fertig
bedro
handt
monatlichen
##klasse
##403
smok
##minister
##759
markierten
scr
50000
##zahlt
verlink
##napp
presentations
competitors
geschaftsfuhrer
titles
campus
irgendetwas
1961
stufen
ipad
audit
documentary
erinnert
possibly
recorded
ambiente
interessantes
ressource
dimensionen
kernkompeten
drawing
einrichtung
harmonie
##vereinbarung
fifth
compromise
muller
kontinenten
##spunkt
accomodation
dresden
416
516
626
670
878
apar
dachte
fassung
nas
pand
€100
##richtigen
##born
##lers
##cre
##center
##kong
##fi
##wirk
##►►
##urfen
20gb
unf
##irn
##irrt
recover
##osh
##osis
mez
##erse
2018juli
esp
abmelden
1933
1946
3011
hierher
keller
wovon
267
formats
parall
##spreis
begriffe
visiten
klaus
gewusst
customs
technisch
techniques
##phones
tuning
weitergehen
##kunst
wiederher
##tify
erfahrenen
scot
slogan
luxur
stellenangebote
698
##posium
powerbar
exceptions
inklud
environmentally
768
stream
1962
fabric
munzen
##market
##bewertung
passionate
mittelpunkt
offentlichkeit
adventures
ausfuhrlich
betriebszeit
eingestellt
navigate
diskussionen
umsatzsteuer
solidarity
treasure
verfolgt
encourage
coinciden
untertitel
internetseiten
multimedia
438
526
cel
cau
cass
dt
eden
fits
nº
ner
pip
pione
roland
vog
##uite
##yers
##fes
##esign
##esco
##itu
##itations
##atum
20marz
##asent
ana
befre
rek
probe
##amar
isst
erbe
mitge
alps
##ruhe
##ichtbar
wasch
chi
18december
resc
uberlassen
nachst
##steam
upgrad
gerettet
hole
servic
weiters
hattest
0003
verwaltungs
hinsicht
joom
gruß
smith
367
wissens
559
carlos
naturlichen
transaction
hochladen
speaker
bestellnummer
healthcare
##373
drehen
##media
networking
musicians
968
schutzt
brave
amongst
##reserv
consideration
pools
statistik
handelsregister
spateren
beziehen
conversion
##systeme
zahlungsmethoden
favourites
beschaftigung
simplified
echtes
occasions
wettbewerbsfahig
lyon
lugano
affect
comparison
##zuruck
desserts
##projekte
elastane
##portugal
beruhm
alternatively
assessment
streitbeilegung
kiev
acknowledge
preferences
existence
vormittags
##veroffentlicht
##201920202021202220232024
01234567891011121314151617181920212223242526272829303132333435363738394041424344454647484950
##199019911992199
vintage
##1996199719981999
benjamin
algarve
677
816
cult
mk
miet
ny
zanger
zinal
##initi
##attended
##ilien
reper
nok
verlet
eras
auftritt
alber
doctors
motive
##ighten
freel
welpen
ausnahmen
##obern
monster
gerichts
##france
025
##507
##50100
##563
##783
schneiden
##ioii
##238
fließend
##282
##409
##3686
##351
conscious
##743
zwanzig
eventuell
zwischenzeit
captain
challenging
bekann
typische
meanwhile
hardly
reisende
##gede
regardless
historischen
maßstab
schwerpunkte
papers
competitions
dynamisch
kreis
teaching
ubernachtungen
plattformen
tatsache
sorgfalt
##messer
abgestimmt
unerwarte
##beschreibung
obstac
##kategorie
ankundigung
affiliate
galerien
##sequent
ecuador
mazedonien
aktualisierungsdatum
fortzufahren
479
539
876
988
bann
bags
dust
fuss
lle
pcs
riga
##ija
##t18
##bab
##bourg
##aire
##480
##319941995
##enhagen
##anet
anc
einstellung
##tent
##icon
verbergen
##ctures
aufgestellt
1010
moto
##about
1915
1925
19march
##008
vorne
vorschriften
adren
intera
##197
##stechn
descending
stetig
058
##space
discovery
##plane
##altungen
zurucksetzen
countdown
zeugen
445
invis
##382
bret
kostengunst
##494
pair
modifications
christoph
plays
nahen
traditions
##zeichnen
individualitat
musikal
stuhl
appointments
renovierung
schwerpunkt
aufgefuhrten
advertisement
vorbereiten
approximate
##build
jacket
boots
beliebige
belohnung
globally
crucial
navigieren
mixed
##ikationsnummer
tolerance
wandern
synch
intuitive
excursion
grundsatzlich
supplied
explanation
verleug
kolumbien
adrenal
638
770
829
aper
sd
sach
treiben
wast
zigar
##ville
##tat
##uit
##craft
##kultur
##jb
##arest
##arzt
##teten
sept
friede
verr
verteid
stated
alger
3016
18october
ubertrag
vorgestellt
heutigen
ausgaben
umgang
likely
##idel
erfr
##acion
##loy
##manager
indic
502
versorgung
##note
##246
##252
directed
qualitatsk
332
808
organise
##gery
##551
feelings
regionalen
entering
##465
confident
verbindungen
##aßt
discretion
ferrag
890
discovered
665
grav
devil
horst
thirty
agenten
finanziell
engaged
kompetente
precis
kooperationen
hallow
tonight
umfangreich
penalty
expenses
sinnvoll
beliebig
##burger
eingetragene
vegetables
leugnen
mittl
beschwerde
enemies
fortsetzen
broadcast
zoom
guesthouse
pearl
volunteers
clinic
wassers
stylish
distillery
bavaria
##198919881987198619851984198319821981198019791978197719761975197419731972197119701969196819671966196519641963196219611960195919581957195619551954195319521951195019491948194719461945194419431942194119401939193819371936193519341933193219311930
zangerle
412
617
689
681
815
929
bh
kft
nina
uit
uru
wesen
##ipt
##bul
##lor
##lings
##x19
20€
toy
##berge
##elter
##robat
rezepte
##uma
0022
neck
arise
##gehalt
schießen
##verzeichnis
motel
soviel
konzepte
##weile
##ively
zeitung
##aca
formel
276
288
##meister
großter
406
402
einfachste
##248
technic
sooner
companion
##ondition
cheer
##364
##361
952
winning
##387
benutzername
fruhen
schwestern
generate
gelang
##559
kommende
413
erstelle
slight
activation
patri
##ounted
anmeldungen
anmelde
865
##geschritten
anrede
kurzem
oppos
excuse
expecting
silent
concerned
sitzungen
facil
collaborate
associated
distributed
champions
##guay
aktiven
cycle
recognized
diamond
##19881989
obtained
symposium
entrepreneurs
unwetter
interpretation
whisky
fundamental
unnecessary
685
728
737
870
910
915
ki
lse
ment
ooo
pyr
uben
vul
##otic
##bour
##museum
##weite
##erungs
##tien
tok
unfall
##unge
stere
stones
arb
orth
ablauf
19juli
19july
teeth
3015
3017
vorwarnung
ausgel
liqu
##1927
brennen
visions
274
071
##geschen
294
machten
roten
englishdeutsch
bereuen
458
tunis
sehenswurd
994
evidence
557
luz
806
europaisches
grundsatze
##italian
franzosische
dauerhaft
closely
expansion
addressed
690
##20192018201720162015
##liegt
normalen
commentattended
integriert
bewertungwar
kompetenter
difficulties
premises
albums
fotografen
champagner
pencil
committee
fokuss
publisher
##19861987
daughters
##kurse
conducted
mahlzeit
##mitglied
ubersetzer
kulturelle
verbrauchersch
excluded
##quisite
enttauscht
ermaßigung
subjects
bicycle
amateur
##tiveness
##spolitik
electrical
armband
visitenkarte
##199019911992199319941995
577
635
734
818
914
949
913
bj
bands
kret
nahr
pull
sized
€89
##ras
##run
##oon
##ißen
##host
inbox
##ignete
seating
fron
neur
arena
##erseits
spark
2018june
10€
##aht
##abt
1957
304
3069
duo
099
##werke
faz
##blog
betrifft
postcard
beruhren
408
idealer
botsch
609
specialties
mostly
wiederkommen
##757
schwim
surgery
scan
continent
vegas
##ipper
beschrankt
fertigen
individuality
prizes
airports
forgiving
slowly
bitter
gracious
8800
ruckerstatt
priorities
feste
fortgeschritten
bemuh
kompletten
kreieren
engineer
senior
##uxemb
##regeln
schriftlich
calculated
begeistern
erscheinungsdatum
philippines
verstar
##kleidung
elastan
ersatzteile
agriculture
jacob
fortsetzung
onlineshop
umgezogen
cinema
chicago
##20142013201220112010200920082007200620052004200320022001
sympath
athletes
422
785
713
825
932
bdsm
ci
elo
mangel
nag
oo
pent
qpoints
qlikes
sib
tus
tid
€20
€12
##rast
##oen
##var
##mes
##pot
##kk
##jn
##jin
##chem
##arts
inno
##asy
##elve
##ilm
##ilcj
##achel
##osystem
aufrufe
##kture
2018march
##ruption
chief
19mai
##scht
vorgenommen
##bean
worin
##isha
artikelgruppe
258
appointed
dasselbe
einfluss
gefangen
##ielten
monatliche
342
wins
486
lists
##758
lugen
insights
stadtzentrum
463
703
bucharest
signup
charged
verbindet
shortest
incen
663
render
anzahlung
twin
##gefunden
harry
seasons
elsewhere
taught
empfingen
stops
responsive
artistic
teilnehmerzahl
telefonnummern
kauften
relevanten
lizenziert
andrew
daniela
faithful
monatsansicht
bestehende
##entwickel
verzog
graphics
disappointed
sailica
655350
##sendung
ordinary
##portugues
##farbe
mp3
wooden
gegenwartig
behalf
##artikel
##kilometer
reperto
ferragamo
019
619
780
828
a1
bog
ease
gip
garn
ie
mie
nit
rit
wahn
€17
€200
€79
##iour
##nberg
##dc
##cend
##hs
##your
##pens
##wig
##altigen
##ingung
reopen
verlei
##gelegen
##gegangen
aufgebaut
spiegel
##vertrag
##verordnung
moz
motif
19february
lehren
expression
3012
atlan
1189
umso
newly
unterricht
fake
zeitnah
2014on
getren
055
formal
022
disci
##plicated
versichern
rod
registriere
##neten
##esenheit
##407
schnellsten
afrik
gebieten
nette
luc
##766
vergiss
wave
glucklicher
jeans
belief
##tically
expo
##453
charles
energien
896
lieferungen
karls
##bedarf
warenzeichen
sheets
twelve
freundin
##moglichst
geeignete
ceo
walter
constructed
banks
##betrag
gratitude
##mittlung
castell
billiger
gesetzlichen
alexa
spezifikation
biolog
agenturen
serbian
spannenden
##ariat
variations
hochwertig
glasses
professionelles
wilkommen
kooperationspartner
intelligente
verstark
##lichtungs
toleranz
sailing
cancelled
erledigt
agricultural
ferienwohnung
garda
allmachtige
excluding
aufgelistet
##verbindung
spectacular
anklicken
valencia
coincidence
rescue
precisely
uruguay
unwetterwarnung
##1986198719881989
836
920
989
dage
gin
io
lac
loren
niger
pon
rost
tile
tibet
veter
wick
##iya
##sie
##bis
##pi
##fred
##urt
thumb
20februar
theory
weh
##leitz
toward
analog
reh
novel
##olas
schiffe
##vertre
##ienz
19januar
##ischt
freight
fewer
mare
ascending
##bella
##1966
warmen
1635
regnet
##ernummer
jahrige
emph
091
phant
genial
willkommens
betreten
049
0471
##oused
funktions
langere
##78910
##klass
sicheres
##297
364
receipt
shouldn
wiederer
##leistung
##gericht
transaktionen
behau
christen
##469
distin
veranstalter
stehenden
##ssie
beschad
triple
hungrig
certifications
vorauszahlung
visionen
beaches
intelle
##itius
##presse
##details
kompetenten
architekten
gesandter
vermietung
associations
3306
towns
linux
normale
philippinen
fremden
portraits
renewed
hutte
kontrollieren
kontinuierliche
wheels
racing
solidaritat
weapons
tailored
##erbaij
candidates
nutr
##agentur
cosmetics
##paket
langweilig
withdraw
##20002001200220032004200520062007200820092010201120122013
erasmus
gelangweilt
schwimmb
1m
2e
589
688
849
937
948
mia
pom
root
tay
vio
zak
zielen
€24
##oor
##gaste
##cz
##categor
##inia
##sty
##atische
inhalts
weigh
einiges
##tszeit
diving
0021
mithilfe
##ims
##imp
gegl
##verw
producing
1954
##astrop
marry
##ibett
18oktober
shipment
ausfluge
acrobat
numbered
##werfen
genossen
075
indire
##woche
396
bots
##avan
##klang
smarter
restor
998
951
dram
drum
delight
urteil
assured
##bod
##773
##athan
gluckwunsche
wirkungs
tells
aktuellsten
anreisen
##1967
travelers
werkstatt
reporting
hostal
festtage
bewund
##handler
schwierigen
ubernommen
niedrigsten
##zuladen
extension
figure
employer
recognition
crossing
##19841985
refugees
diseases
fantasy
boundaries
##orientiert
schmecken
configuration
invented
elevator
kurzfristig
template
##frankreich
invisible
halloween
7pm
924
a4
bikes
ss
sain
satz
tieren
tough
treiber
vpn
zit
##rest
##otet
##vable
##sets
##date
##bf
##meter
##cos
##yar
##fab
##wald
20adv
##omi
##lem
##unes
unsicher
beheben
##ici
reib
noted
sturm
##ausend
enorm
1943
lev
1819
vorgesehen
erfunden
##akers
emb
##iking
##block
##franca
getotet
034
033
begleitung
##ordination
großeren
##786
##183
gewid
techniken
##802
gemal
484
##741
assure
4260
benutzerfreund
lesson
##position
bringing
##843
entspannt
oliv
weltweite
nahezu
##sky
apfel
fuhrungs
bemuht
celebrated
celebrating
sonstiges
bosen
alexandra
facing
angebotenen
diskretion
kenntnisse
associate
protecting
linien
schauspiel
limitations
utmost
calculation
reichhal
tatsach
cyber
beteiligen
abgelegt
gnad
vernunf
erholsamen
vortrage
##methode
rubrik
satelliten
verpflichtungen
tranqu
combine
uncomplicated
versteckten
##bestellen
vayssie
spaziergang
botschafter
##leitzahl
477
523
714
976
aero
banken
cb
fet
leiten
mater
phr
pound
ran
vend
##ogen
##vian
##sage
##ups
##dessen
##cad
##cop
##x30
##yo
##jing
##رب
inex
inkraft
beck
verletzt
00uhr
##deck
##ulous
spitze
2018may
productions
leo
lex
uberwinden
##prin
moreover
kontakts
018
serves
pharma
##blicke
081
2014am
291
060
grass
robin
##fertigt
##998
gewissen
starb
somebody
tunes
keinem
advised
368
904
##aubt
systemen
carp
337
801
wichtiges
verschaffen
nahm
beschreib
##serfahrung
offenbar
##kai
travels
streets
assistant
tatigen
politische
kopfe
daheim
engineers
punktzahl
thermal
primarily
langfristig
##ographie
drives
strukturen
vietnamese
wochent
enterprises
foder
controlling
verlangert
##krafte
plugin
guesthouses
enthusiastic
parteien
recruit
ausgangspunkt
##video
pressemitteilung
kazak
spatestens
bracelet
tidings
##198419851986198719881989
1h
3e
883
brechen
gos
piw
rauch
tm
##t19
##aj
##mond
##cont
##yy
##yen
##chat
20mai
anpass
##icit
sech
prox
##terdam
stain
##ahim
##adel
imran
##esto
absatz
1932
1947
marathon
##prasen
admon
trump
compens
datens
speise
brut
nurnberg
026
indication
blome
##342
gramm
gefer
##chnitten
4500
repent
##287
finale
##801
##704
##works
901
holds
##447
462
##896
disturb
wintersaison
##versch
discre
college
benutzerkonto
offensichtlich
641
##grunden
kapsel
vorhergehend
galleries
hilfs
##ullt
##leitungen
licence
regelmass
branded
lawyers
truthful
responsib
##betten
hilfreiche
fuhrer
fuhrenden
kilog
initiativen
##handlung
unglaubliche
gewahrt
agreements
division
anwenden
contained
blessing
innere
leaders
kontinent
earned
intensiv
expanded
virgin
##1983198419851986198719881989
auszufullen
georgia
##19821983198419851986198719881989
claims
intense
benachrichtigen
visualisation
beeindruck
ranking
##germany
quadratkilometer
##osterreich
campsite
passagiere
osteuropa
ersparnis
facilitate
sehenswurdigkeiten
##1990199119921993199419951996199719981999
588
723
726
9pm
i´
naked
pfe
push
sic
€199
##rin
##oted
##t21
##lau
##mor
##hmer
##yon
##ying
##power
##kret
##food
##ßig
##onian
auktion
anschluss
zusenden
usb
aufruf
spin
2018juni
1934
prere
2020januar
beijing
partys
workplace
wurf
##manden
##sparung
saves
savo
gluten
solch
offerte
einfachheit
durchgehend
sendet
##standig
darstellung
niemanden
fluge
crete
childhood
zusammengef
446
##12345678910111213141516171819
kindergarten
558
carib
neuheit
##0001
transgress
elite
bestens
593
vertrags
franzosischen
retribution
charity
gehirn
accepting
gesunder
##flow
ausgefuhrt
americ
verbesserungs
errichtet
weltweiten
fraud
soziales
military
lighting
integrity
santi
##maßnahmen
##ysteme
perfektes
israels
kreativen
ergibt
##etta
kooperieren
educational
conversations
literatur
gunstiger
fordert
fighting
klassif
targets
ivan
azerbaij
zweites
kosovo
anzusch
gathered
dunkelheit
ingenie
moodle
stichworter
konkurrenzfahiger
behavior
pvc
newspaper
affairs
fernseher
theorie
erkundigen
##strategie
timetable
monatjanuarfebruarmarzaprilmaijunijuliaugustseptemberoktobernovemberdezember
2200
725
917
dsg
lon
pel
skl
tables
waters
€29
##t08
##nik
##drucken
##gard
##base
##ming
##cch
##hot
##x20
##kn
##erkt
##stens
2050
anrufe
ankommt
rehab
prostr
veron
verder
verwe
vermitteln
sto
##oso
deactiv
aroused
scher
chances
19dezember
##ustet
amus
fred
marit
15€
##uellen
##webs
plaza
stella
##barer
035
061
gras
großem
##ungslos
solches
wednesdays
##997
vielfal
35€
finest
creations
##3685
portable
##147
995
554
schwach
moral
702
irr
irish
##brand
thrill
magische
gehabt
telling
genauigkeit
joining
previously
bekannte
consultancy
lebensqualitat
destru
originalgroße
kapitan
voraussetzung
garantierte
ruckblick
seasonal
richtungen
verarbeiten
boring
honig
ernahrung
replaced
seni
weihnachtszeit
werktags
fotografien
obligatory
##999999
publishing
notified
indonesien
##19801981
uberwachung
##197919801981
battery
authentische
stammt
matthias
orchestra
instantly
paragraph
bewerbungsfrist
miracle
klinik
vereinfacht
simultaneously
weiterempfehlen
computers
scratch
##1989198819871986198519841983198219811980197919781977197619751974197319721971197019691968196719661965196419631962196119601959195819571956195519541953195219511950194919481947194619451944194319421941194019391938193719361935193419331932193119301929
dagegen
gewidmet
dsgvo
735
813
aes
ez
jum
lion
nest
nisa
pitch
sop
vil
##sse
##tungen
##bags
##cb
##x40
##pra
##fug
##chf
antr
anzum
ankunfts
##enth
0086
##oline
erwe
##forschung
##vertr
##usions
comman
comics
chast
1924
1918
19oktober
aso
3010
3018
shock
ausges
umgeben
##1950
##week
##cif
compass
complet
##ainted
##bling
folgend
263
belts
belast
504
blicken
postleitzahl
klug
arbeitss
durchfuhrung
##243
##2319
reported
##294
gebot
gebiete
antwer
malen
autors
elegan
sculpt
##858
angewendet
aktions
##337
dienstleister
merk
##451
capable
spielzeug
868
renn
comfortably
kapazitaten
necessarily
passendes
sudkorea
7800m1
premier
historie
##zusehen
entscheidend
gelegenheiten
establishment
contribut
##ettes
rotterdam
memor
unabhangige
colleague
majority
0123456789101112
blaue
figur
dresses
composed
cottage
brochures
##iegelt
fantastische
notices
noticed
ursache
klimaw
reichtum
1234567891011121314151617181920
rhyth
revenue
begrenzte
contempor
heiraten
fremdsprachen
policies
opposite
repertoire
foderation
discreet
578
766
fate
gonna
huber
hunter
ibr
lest
oe
oz
qm
rig
wisst
zimmers
€30
##dan
##e5
##fle
##with
##station
##arina
##isme
inhalten
##iler
##ilia
anpassen
##emi
sehn
reaction
verhaltnis
##olt
stun
##osa
aufbauen
ener
schmerzen
1927
wertsch
1280
marbella
18h00
##otten
shoe
##price
##sep
##twicklung
conv
kehren
kelly
##blatt
##apol
##apart
##frag
nowa
##anzlei
##lette
outfit
klavier
405
tuesdays
##153
modular
##aufgaben
##phon
##getrank
397
##608
bodies
beginne
##295
##142
pocket
##889
registering
waffe
##1300
##attform
acceptance
alteste
vereins
communities
mitglieds
794
gegenteil
essentials
optimierung
betrachtet
lebensdauer
kurzester
temple
kleinste
explos
achieving
attraktive
refuse
##strasse
schlechten
slovenian
##ijk
24hours
ruhige
anspruche
##haust
segne
obliged
component
greeting
erkannt
odm
gebete
amend
crown
toilette
reflect
batteries
laboratory
langjahrigen
controlled
boliv
stammen
erstaunlich
##sparungen
durchschnittspreis
effectiveness
szene
riviera
aufregend
##hstan
weapon
rechtsanwalt
zahne
scheinen
patrick
cemet
##ibettzimmer
inkrafttre
piwigo
##prasenz
##19791980198119821983198419851986198719881989
622
631
aj
bim
d9
fang
kv
pav
ted
tyr
tabelle
uv
vid
##vogel
##nutz
##c1
##priv
##ku
20march
inch
sieb
##agnen
##berater
##etra
andy
zufl
vervollstand
##amic
erbar
##dex
spor
##verarbeitung
1923
1515
sher
vorgeschlagen
umstanden
intermedi
deswegen
anya
##izer
decis
decade
visk
0004
##1020304050607080910
##ordnet
buhne
##562
veroffentlichungen
##hlt
laur
portals
designers
mengen
482
##448
schlimmer
schlacht
706
598
elementen
scroll
tourists
missbrauch
distances
##gendwo
closes
believes
entdeck
fahrzeugen
erstmals
erstklass
mannern
##901
gedruckt
943
animations
arriving
##rolog
occurs
stopped
arabische
##bereichen
museen
bisherigen
##ships
latex
pfund
rosen
##planung
ruhigen
katalan
separat
externen
stabile
demanding
keinerlei
fuhlst
bemerkung
acquaint
hongkong
mechanical
##business
volunt
fluent
leugner
abweichen
allmachtigen
compromises
##years
emirates
merchand
##idschan
nirgendwo
expedition
agriturismo
parallel
inkludiert
joomla
schwimmbad
##ربي
contemporary
cemetery
inkrafttretens
519
586
6d
730
788
969
fond
hou
hous
muhe
n2
row
salt
##ranken
##iose
##utige
##ficial
##uri
thread
toast
##edy
##ingly
einreichen
##olic
derselben
arzte
arrog
arthur
abfragen
1911
1928
1951
bests
18juli
18july
uberlegen
11am
15days
##1925
conform
mehrmals
##anged
wende
person2
perm
julian
036
0421
##group
dawn
##cloud
497
gefang
interessierte
coven
durchmesser
gewartet
nutzern
spanische
392
##804
##709
zusammensetzung
##gangene
954
balanced
pover
assurance
assemble
transmitted
707
##boy
592
baldmoglichst
##branche
564
metern
buyers
effekte
gleicher
estimate
dreh
##ubersicht
792
rented
larm
reliably
optimum
califor
grade
kofinanziert
strategische
erneuert
statusgeschlossen
statusclosed
sandten
festgelegt
gratulation
panama
mitteln
gesetze
remained
##rechts
paths
bequeme
multipl
##sproble
mutig
detailliert
divine
literature
portion
untersuchungen
wartungs
residential
driven
außergewohnlich
diameter
victor
kosme
alphabe
ubersetzungs
venezia
streitbeilegungs
besichtigungen
accomplish
spektak
psalm
asterisk
wicked
2pm
3m
620
636
717
918
979
bien
bri
ecke
f00
jard
nahrung
phen
rush
yun
##ipe
##uti
##east
##macht
##c0
##x10
##jana
##estim
##ietern
##analy
##attern
2026
20february
##reibt
##outs
sieger
##elte
##etag
##ethe
##embr
sektor
propose
stall
stamm
##geiz
auflage
2018mai
2018dezember
10h00
chateau
19februar
19marz
werken
2017august
lehre
shorter
vorlauf
auszeichnung
umbau
interne
##steigen
herstellen
demol
visc
qualities
updating
glanz
##182
somehow
sunde
handge
privates
medi
906
##iders
neuem
##794
805
##446
turning
webinar
modify
verschluss
professionally
##azing
bargeld
retur
697
spiels
investing
essence
##gemaß
erschien
prinzess
##raumt
gemeinsames
962
ruckruf
autobahn
horario
terminal
##betre
tarife
petition
lizenzen
arrangieren
lithuanian
##horigen
identifikationsnummer
jenny
variable
ehrgeiz
circa
konsum
organizers
meistens
navigations
zweiter
fantastisch
florida
herabgesandt
felix
sponsoring
decoration
bungalows
helmut
ambassador
slightly
kazakhstan
santiago
poverty
839
879
cure
eve
font
kalten
lor
rho
ssl
wlan
€25
##oke
##uv
##dal
##morgen
##free
##jack
##esisch
##anen
##stagen
##statte
##reb
auß
einiger
einklang
reiten
frances
verzei
##owski
stobern
##ulator
meant
enrich
1060
scheit
##adar
##estag
##allery
19december
19october
artificial
lean
18dezember
reseller
1150
konten
##sex
nachkommen
finds
conquer
kehrt
gerichte
folg
aven
085
0002
peking
4916
##561
kindheit
besuchs
sollt
60€
recre
991
bremen
##667
richter
grundstuck
##893
glucks
sket
submissions
##program
gehzeit
capp
##fahrer
##590
collecte
696
##besitz
manuel
singles
prince
digitalisierung
humanit
nova
fortgesetzt
awaren
hunderte
apo
erzahle
celebrations
taschen
raff
latein
##iii
pfad
vermieten
fuhrende
widerstand
handelsgesellschaft
ultra
kolleg
prayers
ewige
korrektur
rainer
beliebte
rarely
army
galax
belohnt
evaluate
liebhaber
variante
combinations
alkoholgehalt
illustration
illustrations
amenu
##19761977
##19741975
##197819791980198119821983198419851986198719881989
##197319741975
florian
intention
vitam
vereint
1234567
incorpor
ingenieur
gastronomie
jordan
123456789101112131415
anerkennung
elena
inherit
nigeria
behaup
nutrition
gefertigt
caribbean
azerbaijan
anzumelden
viscose
##19731974197519761977
2m
3c
776
923
935
985
gil
hond
kun
kay
nin
pag
pub
rica
zivil
##rim
##oct
##git
##gos
##e6
##bia
##lant
##cons
##pu
##wall
##erver
20juni
intim
##asi
##alid
weinen
##union
##agna
you´
##rollen
einreich
vernis
##gekommen
auflosung
masters
1922
1952
besetzen
umzug
interven
##uchs
##1926
wohnt
claude
compuls
##ierende
visum
ließ
impulse
##peg
##784
zugleich
ending
##trans
551
lucy
urg
greatly
assets
scandinav
continental
jewel
##versicherung
besucherzahl
##454
##458
searched
757
preserve
verschiedener
##487
organised
frost
approval
lauten
sunset
##jahrigen
haltet
accordingly
militar
##appen
pasta
arabia
##rankung
tarif
recording
convincing
zieht
biography
sicherheitscode
umfassend
competencies
lustige
sprichst
ewigkeit
techniker
hauptsitz
blessings
uberraschend
debit
campaigns
electronics
acquainted
##musik
abgesagt
clarify
vitamin
xxl
##erbaidschan
crowd
ricc
erfinden
tobias
akademie
tongue
haftungsaus
hinein
brethren
tunisia
bemuhungen
wahnsinn
zusammengefasst
538
537
673
733
811
822
812
carn
drit
ei
gym
iz
irene
kent
ral
rico
ti
##ube
##gut
##gold
##fonds
##cho
##anlagen
##urger
20may
##lling
##rel
##ombo
##elten
##icals
reist
verde
stro
dece
##2027
suße
abgerufen
1250
shame
shoul
##glisch
clara
ifr
juliet
phot
brat
##apers
0009
##heiz
machtig
disadv
supple
supposed
494
curios
zuruckgebracht
gebau
##806
empfind
wahrungen
dringen
drinnen
invalid
broker
neupreis
809
80€
europaweit
basically
##558
542
vollzeit
remembr
minds
skandinav
##bracht
##467
##ergie
kommentaren
beantragen
582
franken
473
beantworte
anfangsdatum
erschuf
harder
harburg
##7219731974197519761977
winds
strongly
##tagon
storm
litter
practices
finanziellen
credo
worthy
glaubig
boxes
petra
pakistan
saubere
gottesfur
surfing
erhoben
labels
exterior
athens
wachstums
convenience
schmid
confidentially
neighbour
##19691970
##1971197219731974197519761977
##196819691970
##francaisdeutsch
gemutlich
dealerscasino
feinde
reproduction
announcement
suffering
protocol
protokoll
905394
pflegten
astray
##upport
##staaten
centers
antwortete
puzzle
beverages
obstacles
verbraucherschlichtungs
##2014201320122011201020092008200720062005200420032002200120001999199819971996199519941993199219911990
verstarkung
##19661967
rehabil
nowadays
streitbeilegungsverfahren
awareness
disadvant
remembrance
##1971197219731974197519761977197819791980198119821983198419851986198719881989
##19661967196819691970
612
783
743
981
bass
cf
fed
fass
haltung
jet
lem
native
roles
writer
##iop
##gium
##eb
##cement
##kreis
##zza
##waren
##ativer
##arr
##arah
##arnt
20juli
unesco
##eler
anteil
##emer
einkommen
forces
##amente
##entren
allweise
ers
##deaux
arms
##erson
2018r
geleg
chill
1929
##neu
12h00
##annter
konver
lif
0100
timely
compact
##aktions
embed
genius
##ildet
getraumt
liebes
032
kindes
teilt
privater
##262
##267
##362
antwor
treu
##793
elimin
barr
transports
thinks
buyer
654
niederlass
reachable
gegenstand
##schnitte
villages
##1961
weißrussland
prints
geschaftsbezie
963
favorit
einzelpersonen
recher
palast
energieeffiz
herunterzuladen
administrativen
bisheriger
bordeaux
##rankter
kampagnen
betreuen
investiert
obligations
barmherzig
blockade
writes
zertifizierungen
notification
commanded
expanding
hitze
licenses
bestandteil
pregnancy
salvation
erganzt
wirksamkeit
scripture
dalmat
##cidents
miracles
hobbies
##beispiele
struggle
cultures
arbitr
kreta
ibrahim
returning
urgently
riccione
verbraucherschlichtungsstelle
2a
5g
872
bleist
cub
etik
hay
hook
hangen
lv
lun
liga
rus
rog
tsch
€40
##vous
##tur
##aal
##pes
##pas
##pense
##wachsen
##onic
weich
##iration
##hrs
anat
anth
##icts
hav
##amed
0030
##owed
storen
2018february
alben
doers
abbrechen
amounts
##ervices
lebst
lego
##schuhe
exhaust
besinn
18january
##twagen
1700
16h
kontakten
gerichtet
woe
manip
steine
phones
##spielen
0005
507
preisangaben
##pla
498
solide
100€
hinab
##phy
guitar
beginners
607
##807
qualitatsprodu
##352
draht
delux
##markte
carmen
anfrageformular
transmission
597
surname
##137
haup
##versammlung
fruhere
metro
energies
2021april
2021februar
inspektion
einmalige
##desk
851
limbo
mannschaft
warmth
geeign
##1957
##data
classical
beachte
litau
fairness
navi
centro
##dawm
constructive
responsibly
rentals
tablets
voices
panic
kulturen
##ofessor
kummert
dealing
€150
drugs
spending
dokumentarf
linz
competences
copying
##guioii
erfolges
porofessor
harmful
bathrooms
zertifizierte
apologies
destinationen
tasty
##196519661967196819691970
##aught
geschaftspartnern
##zwecken
himmels
tanja
orientation
20hv
resistance
stephan
verkaufe
##dienste
magnific
recycled
anerkannt
gesegnet
taylor
20adv5
klimawandel
decisive
covenant
##1965196619671968196919701971197219731974197519761977197819791980198119821983198419851986198719881989
2h
474
748
869
843
931
bc
bert
dual
eil
eignet
gabe
gitar
hills
masse
rip
rachel
ses
sights
wings
wuß
€300
##lust
##hause
##yage
##fotogra
##zahlen
##zens
##wen
##iteln
##oute
##tek
##asia
##omon
##lein
unjust
anf
anziehen
einsam
verteil
wholes
20192020
aufnahmen
ali
##uses
##ighter
producers
chicken
absen
19january
resorts
resume
konsequen
vorder
praha
liest
##1956
monument
deskt
trent
anybody
##gebuhren
maya
##apel
loan
##front
##french
073
indisp
solving
registert
entgehen
backup
kundennummer
##olgt
dargestellt
weiterentwickel
quer
zusammenge
##tives
weltkrie
restru
stras
consume
48h
##763
pays
paying
##557
damaged
##497
##669
##iums
nummeriert
tourisme
buche
akk
franzosischer
magnet
careers
alta
dreht
endeav
varied
engines
außerst
osterreichischen
volumen
ida
optimalen
testament
lebensstil
equally
ruckfragen
foods
ungul
##achstan
integritat
##hauser
exakt
konzip
tariff
chinesische
##xxxx
hydr
holly
quantities
einsetzen
anzufordern
femin
##hausen
grosser
boost
ernsthafte
##kaufer
valued
##wirken
employed
adapter
entscheidet
cruise
travellers
sahen
##fehler
verpflichten
surrounded
fantastischen
represents
sorgfaltiger
modus
##kapital
incredibly
aufzubauen
acrylic
##bestat
moldova
gelebt
acknowled
##gestellten
resolve
rechtschaffenen
##veranstaltungen
invoice
infinite
kandidaten
puppies
falschen
chastisement
viskose
gefangnis
gelegentlich
786
781
921
927
a3
bart
baut
craft
iot
loud
oasis
pion
pul
q1
rats
tiger
tina
##sy
##side
##t20
##meldungen
##1m1
##fly
##jj
##ᅡᆫ
inland
##etti
bekehr
forex
protagon
hahn
verring
alliance
##ierer
depression
aless
##ahe
##emberg
abre
abide
1926
##antes
legs
aserbaidschan
atom
informativ
18juni
kontext
ausschl
ausblick
##192
##192319
##steine
geruch
hels
25€
jahrgang
##therap
faktor
stead
visite
038
029
rud
meinst
offerings
cod
##162
##163
452
aktualisierte
joe
syria
##298
gebeten
selb
##884
##887
generator
##gerate
##498
vertrage
glucklichen
jeff
##462
breaks
signing
okonom
##wendung
offenes
300x
impressed
ville
dreamed
##etermin
bekamp
laund
stattdessen
harvest
kaiser
zusatzliches
milano
##presso
9725
##wertung
angenehmer
quebec
bloß
johnson
erganzen
zukunftig
cups
untersagt
##rafts
tonne
snowboard
canceled
currencies
cellar
hervorragend
nuclear
oceaniniti
benotigte
benotigten
zenchef
##19641965196619671968196919701971197219731974197519761977197819791980198119821983198419851986198719881989
cerem
layout
##196319641965196619671968196919701971197219731974197519761977197819791980198119821983198419851986198719881989
structured
##1962196319641965196619671968196919701971197219731974197519761977197819791980198119821983198419851986198719881989
elektronische
erwahnen
venezu
ebay
hindi
prosperous
appeal
positiven
generell
recompense
qualitatskontrolle
ruckerstattung
responsibilities
gottesfurch
strasbourg
oceaninitiatives
613
684
756
986
bost
fox
griff
hague
iq
kub
mg
meldungen
n0
nau
osc
odr
pum
paste
ud
vak
vista
##t00
##e4
##x21
##pay
##pend
##kop
##felt
##wiesen
##ortiert
##stahl
##arc
##aris
20june
##iska
##eding
unseen
reale
verteilt
##cto
stan
enables
schott
comic
##riken
lektionen
leuchten
1899
18may
##sec
geste
alsace
hohes
##cheine
clips
##iva
folder
agr
##werten
##aturen
051
078
293
donnerstags
erfahrungs
##168
zuruckkommen
handbuch
beginner
creatures
relatives
qualitatss
442
telefonieren
##885
downloading
##895
christine
latvian
##468
##ansport
565
759
beschlossen
collective
mochtet
797
852
anregung
etage
madness
singing
sekret
gedanke
763
##rooms
wondering
domains
deliveries
attraktiven
##ementsystem
modernes
purchases
junges
branding
##burgh
analysen
gesetzgebung
sensation
branches
therm
erweiterung
identifizieren
labs
uncertain
##admin2018
wilhel
gunstigen
susanne
employers
qualifizierte
krankheiten
ultimative
vegetarian
confidentiality
niedrige
bruno
konstruktion
hammer
zerstoren
krakau
delayed
therapy
sommersaison
municipality
reconstru
##publik
maßgeschneiderte
attempt
testimonials
synchron
karlsruhe
vernissage
antwortet
deluxe
614
772
884
934
983
fb
fische
gon
hs
hip
hiking
juz
ks
lingu
og
oc
rains
##dl
##gol
##bg
##bot
##bio
##cul
##hh
##hoch
##x210
##kit
##kalender
##kinder
##zd
##isc
##lev
ungen
unzahl
seal
##ourcing
##umme
staub
gear
1080
##istent
##aba
fears
##anto
leis
##schwe
18june
internen
liv
17h00
##angs
16°
regisse
##acing
thankful
helpers
geschutz
fuge
063
langleb
berechnung
cozy
##172
##standard
hinweisen
tunnel
schnelles
unterstutzer
##393
##395
simulation
##igerung
##798
malerei
schwere
##554
704
##bringt
567
##ereinander
891
898
burden
##galerie
packed
verpasse
secured
edge
kai
brugge
prasiden
##appe
secondary
crime
preferably
##groß
komplettes
€119
schulungen
kraftstoff
heilung
versteckt
senken
anticip
teilnahmebedingungen
spacious
progressive
verheiß
circle
anwender
##spezif
oscommerce
organizing
immigr
regeneration
honesty
konzentriert
außergewohnlichen
deeply
ramona
batterien
restricted
temperaturen
vegetar
cheapest
##19591960
verwandte
intuitiv
consistent
rootsfor
giul
diagnose
ehemann
scarpe
treasures
diplom
mystery
ausgebucht
konflik
umweltfreundlich
tenerife
criminal
gourmet
liquid
##geschenk
regelmassig
katalanisch
##betreuung
rehabilitation
##19611962196319641965196619671968196919701971197219731974197519761977197819791980198119821983198419851986198719881989
##ᅡᆫᄀ
ceremony
779
b1
buen
ik
kry
mes
rug
tac
tony
€11
##oa
##iq
##dated
##boot
##cap
##passung
##f3
##wahlen
##wenden
##wirkungen
##onden
##itif
##oman
##unken
untill
beweise
frischen
##umber
00eur
##olu
##utage
nex
aufsch
##erschein
spitzen
2018februar
alert
gezogen
gelegt
schade
##optionen
sod
##new
lectures
marg
extent
3019
18mai
vorzug
##halter
interaktiv
2020january
hierauf
##weif
056
betreiben
geschw
sake
adding
hassen
##gesell
supplement
robots
klang
entnehmen
mussten
##152025
vielseit
aktualisierungen
zuruckgeben
joke
produktfamilie
quotes
##3657
unterstutzte
erwachen
strande
##753
realise
checking
##zenten
transition
selecting
kommentieren
surve
developers
complement
##771
skala
explo
##452
##yss
schweigen
dreimal
##596
##481
##483
mobilen
benutzercode
browsers
791
853
named
##previous
unverz
equip
classification
centuries
jungle
entschlossen
rundgang
certainty
schulung
kunstlerische
counsel
vermisst
serbisch
illness
teaches
ergreifen
verstecken
ow200
jeweilige
ahnlichen
umfangreiche
chemie
christians
ausgestatte
immun
armut
geburtsjahr
settlement
amerikanischen
broschuren
franch
stimmst
dieselbe
olympic
gunstigsten
scenes
volunteer
gedenken
gewerb
officially
tango
dekoration
mittlerweile
baqara
regelmaßige
befriedigen
wahrhaftig
rezensionen
retrieved
tunesien
recruitment
##19891988198719861985198419831982198119801979197819771976197519741973197219711970196919681967196619651964196319621961196019591958195719561955195419531952195119501949194819471946194519441943194219411940193919381937193619351934193319321931193019291928
california
yunus
magnificent
desktop
4x
6c
674
637
846
bs
bast
bian
bolog
catt
dp
dow
gom
gog
gio
hm
hood
hals
hmm
ig
jinn
lgs
mud
sul
sought
vlad
wend
yves
##rise
##tn
##uan
##e9
##mn
##3505
##cour
##hangen
##x15
##yz
##yst
##kir
##zing
##ᅮᆨ
##chnet
##iehlt
##itute
##arin
##arios
20july
instand
##omer
andrig
audition
anhalten
einstein
beige
seana
neum
gefeiert
socks
chir
1910
##atec
canary
freige
uberle
15h
shalt
heutz
interim
##angers
##wei
wobei
##tedly
##asso
partly
nuremberg
##bares
parent
tagged
roc
493
beruhrt
bedauern
##993
##995
zuruckrufen
##loser
syd
##2727
sicherstellen
362
laid
90m
908
restore
##job
##791
schlaft
##495
708
weiße
protects
pax
modifiziert
elections
skulpt
playa
verlag
563
kompatible
758
effektiver
capabilities
altes
##fahrts
traditionen
trustworthy
offnungszeit
prioritaten
fabr
##bildungs
sustainably
##appt
aufenthaltes
semi
appreciation
diskret
studying
reichweite
friedens
zusammenfassen
urheberrechte
schlechtes
daddy
dankbarkeit
erscheinung
##macher
meistern
gentleman
konkurrenzfahig
großartiges
reparieren
scientist
jeglicher
irgendwann
€149
arbeitsplatze
muslims
railway
offizieller
konfiguration
zuschauer
praktik
##firma
gurtel
schwangerschaft
neighborhood
##probleme
unterrichtet
bronze
aperitif
inexpens
bleistift
##1959196019611962196319641965196619671968196919701971197219731974197519761977197819791980198119821983198419851986198719881989
##ᅡᆫ국
andrigamo
heutzutage
476
656
683
718
787
832
cave
gay
huf
kin
lande
mort
ske
wusst
yah
€8
##oh
##nan
##dha
##bos
##a8
##mic
##611
##kette
##fb
##wl
##´an
##orti
20000
##rey
##omm
weber
wellen
##etto
undert
##emann
einleitung
betet
propor
##amas
diag
##ols
##ulum
##illy
ark
auft
aufhalten
auflist
aufhort
mete
##2028
dash
alic
dot
##adi
##opro
##esta
maker
suited
supre
canyon
freu
##anni
ubertreffen
vorr
vorrat
##welle
preorder
helper
098
##fron
lieder
##inken
tagungen
davor
492
telephon
3579
##803
erwunsch
erwahn
baltic
provisions
##441
kurt
weißen
437
543
redet
vollversion
falling
sitze
missions
##463
throne
slides
dreißig
##459
753
583
892
##untergang
668
693
packing
verpf
olga
flexibler
cala
##fined
sagst
actor
receives
richtigkeit
##freunde
probiere
bedurfnis
weste
##kommun
capacities
whitepaper
qur´an
sitzplatze
legit
industrielle
slowenisch
ausfuhren
berufliche
berufserfahrung
ahnliches
angeles
ernsthaft
complexity
firmly
rewarded
klassische
drogen
permanently
controller
jonathan
diagnost
guardian
measurements
fantasie
tiny
##bekistan
beneath
sacrif
emirate
##organisation
isaac
distinguish
##sprojekt
betrug
verkaufer
angelegenheit
verabsch
presidente
hydro
syrien
uberzeugung
schließung
aparthotel
caution
upgrades
bekanntschaften
##idelberg
gipfel
afrikan
##verwaltung
scheitern
dokumentarfilm
inexpensive
1juz
2x
2juz
3juz
4juz
5juz
648
6juz
712
7juz
765
8h
8juz
919
938
9juz
dign
fm
gates
hp
lda
mate
raten
rita
sə
sfr
ves
witz
xs
zorn
##rp
##vr
##nisch
##nieder
##gast
##e7
##borg
##listen
##mage
##c4
##x60
##katalog
##f9
##wander
##chi
thick
##atisch
20juz
anpassung
reverse
zuvers
progn
allian
##olica
##utlich
decken
sped
##imir
10juz
schol
##add
##estro
chau
abger
##riz
19juz
12juz
2017december
3020
##ibia
1825
18juz
11juz
11999999
bislang
15juz
shelter
##beck
17juz
16juz
14juz
##pert
13juz
24juz
21juz
22juz
23juz
25juz
##gebaude
datiert
095
decre
##franz
26juz
27juz
074
28juz
024
indik
indoor
29juz
daumen
bla
versamm
versammelt
##samm
michelle
gefahren
entstand
##171819
457
verbreiten
flammen
guil
955
swift
simone
483
487
##marken
logic
maler
##442
schwore
elis
bewerber
##boden
eleven
sitzt
eventuelle
verlangt
barbec
winters
561
accounting
651
vereinbart
communic
gemeinschafts
traditionellen
##unterlagen
benutzerverzeichnis
##732
##gemacht
rechtlicher
lebensnummer
2000m1
harter
##1951
967
dokumenten
reflex
##obase
##ifty
politischen
westen
behinderte
tagespresse
mittelstand
000€1
juden
einzigartiger
gesetzliche
##monat
advertise
biom
aimed
majest
geplante
ehrlichkeit
disclosed
approaches
grosses
##kaufe
ermach
sushi
beschaftig
dedication
koordinierte
aussagen
residents
13485
cutting
bemerkens
skiing
intelligenz
alcoholic
proposed
josef
disappoint
zeichnung
intuition
erdbe
anschließen
123456789101112131415161718192021222324252627282930
2024x
leonardo
kasachstan
candidate
##lieferung
##gestellte
erneuerbare
mischung
angelegenheiten
preceding
gewahlten
jessica
comprises
aufwachen
kernkompetenzen
##festiv
##gedeckt
interaktive
getrennt
ingenieure
aesthe
arrogant
haftungsausschluss
##19571958
indispens
##bestatigung
venezuela
sydney
##ᅡᆫ국ᄋ
zuversicht
1199999998
671
687
887
draft
ee
fifty
gs
gior
gained
lago
pd
sb
upper
zau
##oß
##imen
##gia
##bie
##lia
##mand
##horn
##fd
##japan
##anes
##atable
20oktober
##republik
wears
##ilo
rewards
##termin
frid
verruck
##olen
erholen
neuste
mitz
gekl
##rupt
schro
abc
2017january
##schauen
##schreiben
30€
##ibi
1870
shin
heidelberg
ausdrucken
##zehnt
mehrheit
##wein
gerhard
##idem
##check
aggress
090
faire
brno
donald
aviation
##inki
076
##mein
blieb
posten
arbeitest
45€
spanischen
lets
programmen
481
701
wax
angriff
believing
transportieren
charl
entdeckung
studium
herausforder
vereinigung
895
gestalte
790
##847
trusting
freundliches
##1001
krone
halben
princip
musician
mrd
milest
##bewerb
almight
directors
probiert
finanzen
buddha
tausenden
panik
allgemeines
seller
accommodations
ernte
pflegen
sensor
drug
mandanten
statistical
matched
schaue
augmented
wirtschaftlichen
religious
erhoh
touristische
containers
segment
forderungen
barmherzigen
html5
fortschritte
erholsame
minimale
stimmten
exzellente
strike
zerstort
flagge
erstaunliche
fellow
predict
pharmace
romantisch
seriennummer
concentrate
frequency
baqarah
betreffend
erfreut
minibar
akzeptabel
##reinigung
quartal
scotland
garni
thumbn
##prinzip
stainless
curiosity
arbitration
##fotograf
##gesellschaften
747
831
824
atem
lions
mmm
nb
nan
ngu
pian
sang
tight
waves
##dar
##eben
##lon
##like
##afe
##away
##mutter
##kd
##kolle
##fix
##water
##witzerland
##ар
##erper
##enk
##chain
##iegt
##store
2027
##asien
##alb
##unen
##ayment
##igem
einsparungen
ofter
seed
frages
diess
0066
##dez
stur
stood
##iller
aufeinander
2018marz
##istik
1912
##pping
amy
leck
leaf
lekture
asiat
1875
umzusetzen
admit
mining
##ureau
2316
brunch
##blau
genauen
fußen
saff
blizz
versace
##uded
starter
technically
393657
zuruckgegeben
finstern
mediation
countless
weltzeit
breites
carr
ganzer
shoppen
kostenvor
innovatives
iris
projektmanagement
##854
##versprechen
##versorgung
581
beschreibt
cape
##fahrzeuge
##696
897
karib
salary
667
installationen
verpackt
titan
gallerie
kleinsten
warehouse
##onnes
runtime
komfortablen
worthwhile
beware
glaubwurd
gewahren
##kundigt
capture
medizinischen
reiche
##sonst
aspekt
komplexitat
fruhlings
fragte
indonesian
wunderbares
verlasslich
patents
ausprobiert
kommerziellen
significantly
louis
pharmacy
brighton
tailor
sierra
##install
partei
exemplare
zahnarzt
anspruchsvoll
mauritius
##sprojekte
mittlerer
##fellow
verbreitet
hindernisse
eindeutig
angestellte
fachleute
nachstgelegen
nahrungs
intellectual
restoration
kontaktseite
beeindruckend
##199019911992199319941995199619971998199920002001200220032004200520062007200820092010201120122013
verbesserungsvorschlage
compassion
sketch
kolleginnen
konzipiert
bologna
##195719581959196019611962196319641965196619671968196919701971197219731974197519761977197819791980198119821983198419851986198719881989
fragestell
773
874
845
881
841
912
cav
couch
dg
ean
eph
huh
kuh
nich
oost
py
rib
tt
tld
tied
uwe
xing
yo
zed
€34
€500
##bag
##bow
##cor
##hmt
##fy
##child
##reen
intend
##asha
##alem
weighted
##irion
##ician
vertical
##umfang
##ontin
##dete
##osisch
arn
##gehoben
alba
geziel
chip
abfall
werten
amber
##neys
marse
exe
1880
shut
vorliegen
vorsitz
header
hebre
nachdenken
##twe
unterliegt
desert
hermann
compiled
##uteilen
##acken
jahrigen
datierung
##izers
##akte
##wered
phan
photog
zeitalter
3164
072
saith
mailbox
##ahlung
069
##ignano
gron
##answered
vieler
gewachsen
losing
##phase
quint
smiles
let´s
restored
959
conserv
realised
##0005
##0008
sorgt
serge
landing
##851
breaking
##prof
apartman
komposition
eigenem
prestige
reaches
karin
organisator
kunstlers
anmeld
rene
ausgehen
typisch
rising
behandlungs
umwand
achievement
extract
##bereiten
vacancy
festnetz
smartphones
gepf
potenz
moderation
€139
venue
mindestbestell
krebs
hybrid
##produkten
distribute
##konstru
erweiterte
critirion
klassiker
leitet
disbelieved
##brochen
diamonds
antal
georgien
tasting
verwandeln
proofs
sonnabend
uniform
beeindruckt
tweets
ausserhalb
zauberer
verkehrsmittel
##basis
obviously
tyrol
bullet
prospects
stornieren
ermaßigt
hubsch
francisco
##ografie
naples
einstieg
1000000000
##ziplin
ancest
fazit
geglaubt
##astrophe
prinzessin
dringende
litauisch
helsinki
auflistung
indispensable
almighty
pharmaceu
4m
975
aad
buck
cia
ds
fault
gle
gap
hers
puls
ubung
vine
★★★
##oad
##vag
##c3
##x190
##x768
##yan
##py
##kers
##anmar
##reu
##alus
anto
einnahmen
rechn
##tera
frisches
frustr
versehen
##amery
ermaßig
nehmt
aufstehen
##verlauf
suisse
abund
abgedeckt
frev
marion
18°c
ubert
##otype
warmer
##wege
that´s
geraden
wohne
##ktik
monty
montage
##beitrag
jahrzehnt
##izations
brig
bringe
##apes
wurdet
043
065
output
versichert
meint
trader
trace
verwaltet
sendung
standige
weiterentwicklung
produktinformationen
sword
##plete
dirty
##752
##8888
serios
4644
einziges
elf
fasten
verschwinden
##8649
barbad
bildungs
magyar
internetverbindung
charts
aktivierung
gehts
584
herausgeber
incamery
packen
erhaltst
##909
beitrags
rechtleitung
sporting
sekund
stret
hellofellow
bruges
confirming
vollstandigkeit
sankt
multif
issued
colorful
##angeboten
ansprechen
bemerkt
doppelt
1908
##oflex
schwarzen
implementing
heilig
doris
##awien
advertis
melanie
hommage
vertraulichkeit
##ropol
sweat
sweets
ahnung
kataloge
instruction
jenen
nebenwirkungen
expressly
korrekte
##sphase
##admin2019
paulmann
beliebtheit
murder
geschatzte
destiny
natal
lagerung
erhielt
31649
advisory
reveal
amerikanische
dringenden
repairs
verhind
6553505
equals
##19551956
automobile
kompromiss
verhandlungen
rapidly
echobase
untereinander
##studio
sophie
capsules
stirbt
zeugnis
gegner
we´re
emissionen
motorcycle
kapseln
sehns
demolished
regisseur
verheißung
cattolica
abgerissen
barbados
736
732
coo
eck
hing
jones
kot
kok
mant
n3
pour
pace
rt
rd
tum
tauschen
vast
zł
##sburg
##td
##dre
##dge
##gp
##bah
##city
##hy
##kunde
##fotos
##faden
##zugt
##jk
##ono
##anon
##orking
##arien
wehe
unikat
unanswered
einhaltung
fracht
##iertem
##ausen
##illo
##illon
meyer
##forward
##2026
##imi
wille
##istischen
##abul
abu
amt
1865
##bekleidung
pram
gesichert
lips
convert
##osted
dupl
timeless
jahrliche
agro
##werden
brie
avatar
genie
##acies
bestre
helpdesk
benz
064
glast
outlook
solcher
peoples
kindness
contrast
succes
finca
##minute
qualitaten
drauf
553
delta
caravan
##viewer
##496
protector
##665
continually
##894
angabe
562
apartament
fahrrader
gegenstande
##holder
examination
korpers
572
##905
##moglichkeit
strongest
bevorzugt
inspires
wunschte
beachtet
liters
bravo
passenger
automatisierung
australian
privatpersonen
feststellen
konigin
displays
erzielt
tagesdatum
mittels
bestimmung
soldiers
entfernungen
financially
konkreten
##ratic
replies
heilen
temperatures
branch
dynamische
ross
nutzererfahrung
representation
widget
hervorgehoben
qualitatsmanagement
gnu
##interest
warned
crystal
kombinieren
kombinationen
saba
clarification
batterie
notizen
verlangern
falsehood
alpine
krakow
freiwillige
##gesetzte
€169
adopted
verantwortungsvoll
eingegebenen
schmeckt
hugo
gastronomy
##eldete
accomplished
talented
ungewohnliche
souvenirs
medikamente
jewish
ubertragung
savoy
destruction
antrieb
zuflucht
compulsory
trentino
boston
leisure
##15202530
erwunscht
verpflegung
chauffe
mitzuteilen
blizzard
40000
579
5km
618
632
778
826
bour
dil
ey
este
gir
gonnen
hiday
js
kass
lig
luna
n9
pries
rings
scri
tad
tort
wendet
yachts
€22
€13
##vier
##brech
##lc
##a1
##9001
##1000
##core
##pat
##jahre
##⭐⭐
##char
##ieve
##anfang
##itled
##atisf
2099
##alts
tosk
uncon
##agas
##eda
anno
einschl
sektion
rejo
hacker
verweil
vergangene
##umi
ish
isab
0023
##uta
##andet
##themen
spins
alc
10pm
schar
schuss
schickt
espresso
mothers
suiten
##ablo
orph
abgeschickt
amp
cant
##ollt
leib
##schwer
excess
##rap
uberarbeitung
pron
nachteile
##anges
unterhalten
##utzer
prelim
tren
tram
permal
22h
montreal
seitdem
embar
##office
2700
046
sao
safr
addieren
goethe
062
outcome
##claim
4917
49176
postpon
##5678910
arbeitsk
erfahrt
vielmehr
4514
##pson
selections
evident
##max
wahrer
wahres
asks
fragebogen
gelingen
menschenrechte
oldid
filip
##332
##attoo
zwischensumme
754
##quellen
##691
694
2021march
30000
##holung
italienischer
erlebe
beneficial
tempt
tempel
menschlich
koerper
strategischen
subscribed
empfehlenswert
##lieb
excel
differenti
##auftritt
wahlt
nationality
festen
dortmund
silke
mutters
angemeldete
controls
glaubige
kaufte
schlech
schlechter
gebrau
photographers
spirits
snap
##region
cube
knopf
theresa
auslandischen
verheißen
angegebene
konsult
cycling
##faktor
beteiligung
wettbewerbsvor
connecting
210000003
lernt
##krise
ignore
kontrolliert
regulated
beruhmt
0101010
observations
##195419551956
##19521953
fifteen
verhandeln
##englishdeutsch
gedenke
enthusiast
formulare
spontaneous
cnc
pamper
versicherungs
beschleunigen
zagreb
##bulgar
tuscan
phrase
verderben
memorable
supplements
geeigneten
barbecue
##195119521953
marseille
hidayet
permalink
##195419551956195719581959196019611962196319641965196619671968196919701971197219731974197519761977197819791980198119821983198419851986198719881989
##195119521953195419551956195719581959196019611962196319641965196619671968196919701971197219731974197519761977197819791980198119821983198419851986198719881989
7200
741
945
982
bt
bold
bomb
caught
deit
ego
ile
lj
lan
niz
nano
ruth
stem
vierte
vila
vibr
##sbe
##tour
##greifen
##b01
##lav
##luxemb
##cams
##fire
##zg
##jetzt
##ankt
##arkt
##regel
unheil
##hrte
anast
retire
notigen
hak
0048
dermat
neapel
dealt
della
alan
willkom
1931
1937
leere
18januar
heutige
umgehen
hierin
##perrt
##iac
permit
##ucken
reservationen
steigt
avi
##lohn
037
parf
aktual
blauen
verso
polnischen
registry
langes
interessanter
##rennen
##991
##altar
fließen
##148
996
953
busse
string
##392
kleink
instance
zweifell
##762
3375
807
valais
generieren
verschicken
scott
geoffneten
pravention
jews
wirkliche
dauerte
besserer
slave
##profil
promising
altstadt
dreibettzimmer
incident
discovering
engage
691
sommerferien
trainieren
zogere
trium
limous
subsid
tempo
##uchtung
motoren
ruckgabe
heartfelt
empfiehlt
maximaler
funfzehn
sudost
platzen
fortzusetzen
##berei
crimin
renting
apost
##richtungen
mittelalter
begeister
arbeitsstunden
honored
##oftware
neuerungen
reinfor
architects
etwaige
entscheidende
enthaltenen
sicherheitsgrunden
oberflachen
vertraue
toni
widely
magazines
schriftsteller
inns
evaluated
wissenschaftliche
##splan
ursprungliche
lamps
pizzer
folgendermaßen
##liest
verpackungen
erlauter
crypt
verzichten
fruitful
vietnamesisch
##messe
weibliche
vinyl
verlasslicher
zeichnet
reservierungsanfrage
abwechs
pursuit
observed
polyamide
jonas
diagnosis
diskutiert
datenschutzrichtlinien
freiwilligen
sacred
bicycles
zuruckzukehren
automobilindustrie
abode
unschuld
washington
athleten
supervision
eternity
miguel
verursacht
verraten
mittlere
pyram
luzern
##fabrik
tranquility
kilogramm
housing
spektakular
phenomen
supreme
westeuropa
frevler
preliminary
zweifellos
0m
5kg
682
70000
aq
achte
bite
bienen
brian
fot
filed
greifen
jos
jers
lap
lichten
nip
ome
pinterest
r3
sene
tonnes
vib
vain
viz
vamp
zelt
##nic
##dire
##gie
##girl
##ev
##b7
##bol
##a9
##maker
##xl
##x2000
##yard
##stor
##nder
ungef
andalus
procur
fres
diary
0032
erp
##gehause
mitzu
ench
1050
##ichtung
moe
comitat
abzusch
tears
##nex
##unding
2017april
2017oktober
##schm
marra
1886
1881
18marz
vorzustellen
auseinander
gespart
uptime
preven
hoflich
2400
trennen
durften
##area
myanmar
loch
##2119
begleiter
066
blend
outdated
imported
importe
forwarded
profits
dana
fluch
flags
##6015
##stellt
erfolgte
##klus
guiding
messestand
##292
recog
portrat
reload
specialities
swing
realistisch
importantly
lands
##gerichte
transaktion
eliz
trytn
##teilnehmer
develops
##897
##shine
einget
verliebt
column
courtes
dauerhafte
dienstleistungs
magd
658
##parts
##1516380
##holders
861
namibia
competit
competently
sheep
reiseziel
consultations
feedbacks
mitarbeiterinnen
douglas
risik
viertel
761
authorization
revoke
brudern
##otta
piety
devi
vollstandiger
erotic
arabien
bauer
describes
remembered
arbeitszeiten
eingegangen
nachhaltiger
ventil
sauce
trackback
wachsenden
##hundert
##stoffen
viktor
variant
##filter
anwesenheit
qualitatsstandards
16949
piloten
gunstige
blockchain
ausgezeichneten
sevilla
deutlichen
clarity
auferweckt
bezahlte
hunt
beeindrucken
measurement
admire
dragon
geschlechter
pillars
besichtigung
konkurrenzfahigen
conflicts
increasingly
weakness
elektrische
caroline
859564
abschließen
uganda
ridic
mnb
immomig®
beurteilungen
vorgehensweise
zugeschnitten
erklarungen
anhanger
svenska
patterns
dolmetscher
cafes
incorporated
embedded
dalmatia
akkredit
reconstruction
##198919881987198619851984198319821981198019791978197719761975197419731972197119701969196819671966196519641963196219611960195919581957195619551954195319521951195019491948194719461945194419431942194119401939193819371936193519341933193219311930192919281927
wusstest
elisabeth
##ᅡᆫ국어
fridge
kostenvoran
glastyp
koerpertyp
comitato
3233
634
974
a7
cerv
fahre
gri
hb
hed
huld
karen
kuba
pump
rick
ties
tries
wage
##uous
##ugend
##niveau
##nifer
##halle
##kgs
##kuche
##zar
##wf
##ən
##eng
##chung
##changed
##iee
##ieties
##iton
##stark
##reffen
incoming
##leid
einkaufe
segel
verviel
erfor
stationen
##osure
arrow
aromen
aroma
##geted
voneinander
meiste
suchten
freib
lea
resident
vorzunehmen
heben
heated
hebra
ada
interdis
convey
mins
hohem
2100
lover
##acco
ließen
bench
versorgen
roy
polo
langzeit
interessierten
monthjanuary
##992
2011on
##wochen
##ferenzen
solltet
smiling
gebrochen
drama
drunk
carte
804
jazy
##443
##883
gelassen
wichtigstes
basics
709
madeira
vergib
redesign
grundlagen
##853
##italy
skal
cornel
belgrade
untenstehenden
471
659
herausragen
estonian
salutation
berliner
##stucke
##atherine
##geschwindigkeit
japanische
643
647
anfangs
764
##alena
##sichtliche
jahresbericht
functioning
voyage
wettbewerbe
economics
ungluck
sitzplatz
juice
##iaslo
legally
schwierige
schwieriger
##sprachen
limitiert
flee
bezieht
beruflichen
feiertag
humble
therape
erweiterungen
jennifer
grossbritannien
secretary
sichtbare
wilde
kundigen
farmers
prasentationen
3232
debate
vernichtet
occasionally
fremde
beobachtet
alpha
deaktivieren
proceedings
witnesses
percentage
determination
meaningful
gardase
verhaltens
gewohnlich
mysterious
explanations
##winkel
setze
konstant
spektrum
basketball
cultiv
ludwig
##mutig
##piece
brennt
etabliert
incomplete
handtaschen
##wirkung
adrenalin
gravity
ausgeliefert
disciples
##vertreter
reichhaltiges
##apartment
##privacy
besinnliche
zusammengearbeitet
laundry
wilhelm
criminals
courtesy
jazyky
873
dish
dham
ella
kant
kraw
lanz
lichts
loop
nancy
nackt
paler
raucher
seren
siz
tape
vick
vok
wande
wuste
xv
ال
##iu
##uage
##nar
##dok
##gate
##bw
##bud
##b29
##aine
##pap
##zten
##jy
##jour
##×1
##عربي
##iniert
##urfe
##isons
unity
unvollstand
unchanged
##rost
##rows
##ilder
##emed
##igi
seized
probes
onto
##umer
diy
allver
debt
arist
##gep
auftr
1070
schock
diesbe
soil
abb
cancer
2017januar
marian
asher
3021
beseit
1884
18march
shine
##bevolkerung
##bewahr
umsonst
##enda
##ugel
thats
geraum
21h
##cias
plain
erfasst
jahrestag
duroflex
lastminute
formate
048
0221
##anzt
gloss
##anderungen
copenhagen
##ausstellung
##arbeiter
sends
verband
handbags
##4014
teresa
##293
showed
957
wolltest
specialty
zeile
zeuge
##arna
swear
##party
marks
stadium
delays
lukas
poker
##0006
bezahle
ganzem
##vorschlag
einzig
##552
##553
##bole
596
##852
##868
angefordert
angry
playground
confused
merc
merlin
internetprasenz
751
89603
692
##fluss
waterland
genauere
triff
besonderem
##gemein
sunshine
##653
edi
flugel
integrate
##voller
8718
corrections
produktionen
slee
kilo
schlussfolg
sensors
produzent
##palette
egg
##volumen
editions
linke
123456789101112131415161718192021222324252627282930313233343536373839404142434445464748495051525354555657585960616263646566676869707172737475767778798081828384858687888990919293949596979899100
bequemer
haustier
betreut
##buy
segeln
chemicals
susan
firmy
gnaden
picked
tiefer
qualifiziert
sirius
chairman
verwandten
zeichnen
exklusives
patente
argument
rubber
abweich
##bestand
bewusstsein
makers
solely
breathe
matthew
aufregende
prototype
wundervolle
87120793
##20252026
cesko
vouchers
occupied
suitcase
glorious
recruiting
erheb
stoffe
einschatzen
verschwunden
schrecklich
herstellern
verborgenen
konflikt
##bridge
sentence
juliett
technicians
cheerful
stereotyp
i´m
deactivated
##vertrauen
##schweiz
##franzosisch
charlotte
hebrew
##864947
31649864947
sehnsucht
pizzeria
jersey
3pm
4pm
782
827
cind
eile
gian
jar
korn
rul
tattoo
xml
©2015
##rimin
##raltar
##oi
##iments
##ui
##uy
##divers
##bria
##lot
##a3
##cut
##kulture
##ched
##inum
##inity
##onne
##item
##statten
20october
##unt
unklar
##irable
##hrer
einsehen
##icted
noord
##amb
##enta
isch
erret
##auff
##ulare
##illes
gehalt
##istor
##abo
werner
feas
what´s
2017october
leverage
marti
1850
1885
1896
vorige
##being
##itted
##sey
nachstehende
##ktiert
timing
montana
25000
emily
##1111
059
para
##spiele
hasht
##3120
gefullt
traders
##quate
##ireland
arbeitstagen
einfachsten
bedanke
gewisse
idealen
handic
contrad
##einsparung
founding
relation
907
buses
zeilen
##markten
questionna
balk
schlagt
##andenburg
70€
elef
eleph
##zahlungen
technologische
slot
applikation
greens
##quelle
accessed
893
gemeint
2021february
feeds
867
osterreichs
touched
existed
##90100
##00000000
unverandert
##ascha
##hinweis
stattfind
kurzes
supermarket
midst
##auftrag
raumlichkeiten
regelung
kanar
trock
cameras
beginnings
beinahe
soldaten
prozesses
erreichbarkeit
vermutlich
klarer
exporting
chinesischen
dynamischen
relevante
torre
detaillierten
gibraltar
##guard
toller
roberto
simplify
betriebsstunden
eingeschrankter
steuerung
leiter
diamanten
acquis
astrid
lagos
defense
##funktionen
laughter
stimmung
symbols
verstandlich
negotiate
attacks
##farben
onlinetermin
##lagerung
pollution
quadratmeter
faszinierend
##month
gesetzesde
prosperity
vormittag
officer
pflegtet
tutorials
verbreitung
hingehen
appartment
symptoms
prophe
beeinflussen
piazza
olivenol
unerwartete
##building
verleugnen
erfrischen
commander
niederlassungen
konflikte
ausgestattete
dignity
procurement
dhamma
823
838
gust
grip
hano
jpeg
kits
lichter
lapt
ole
pere
pne
pics
rough
sos
sak
wuten
wagner
zunehmen
©2016
€35
##rist
##rab
##iffer
##nederlands
##gk
##lis
##long
##lif
##a2
##c7
##cze
##flo
##fax
##fassung
##wett
##ət
##oro
##std
##stop
##asie
wecken
unzufrieden
##elo
unsichtbar
anger
##teness
rebec
hamm
dia
diat
00p
##olid
erika
stamp
deed
spaten
##20x
##2029
enquire
geze
1040
schande
##verband
doth
##adian
img
socc
abde
1909
feast
marin
atmen
1830
1511
shell
ausgeben
prima
umzu
##etzug
##twear
warnen
unterrichten
##bruck
monica
##lene
euryou
eursie
hots
##idas
desig
perf
helmet
mans
april2020
durst
emm
speicher
##ikistan
##1101
loft
088
genre
##lov
077
##gression
##letzte
blatt
blanca
disco
##ifa
##glichen
langst
2011am
passing
weitergabe
holder
internetzug
##75756
5500
checks
checkout
##0004
catalogues
##ellers
redaktion
##661
##668
personalisierte
filmen
pract
columb
##461
rettet
ferne
accessibility
##690
##698
verbesserte
mannes
absicht
##904
zielgruppe
sportler
marktfuhrer
##folk
acting
strecken
ruckseite
simpel
anbet
##mitten
integrieren
palmen
router
compliment
panels
ratio
abonniere
mittelgehause
petit
ladt
kunstlerin
vertretung
klarheit
dorfer
dynamik
33075
oberstes
blocks
shares
toronto
wiener
coupon
sender
budgets
revolutionary
##konzept
geplanten
ewigen
variationen
middlecover
widmen
utter
jacke
zahlungsbedingungen
labour
fotografiert
athen
macos
##36876
gala
galile
betriebssystem
wunderschones
globaler
abwenden
leitfaden
schmutz
interpreter
pizz
emergencies
##theke
leistungsfahigkeit
##anbolu
lugner
straightforward
surrounding
laborator
pflanze
unbekannte
inspirierende
bevorzugten
tatigkeits
friedrich
gebuhrenfrei
splend
handynummer
kuwa
olympia
39328
viva
jahrzehnte
unbelievable
tapas
dkk
intrater
privileg
implant
uberschreiten
##nehmung
pressemitteilungen
anstrengung
souvenir
volkswagen
##iesslich
##ministerium
verlinkten
tokio
beschadigt
vpnhaus
##restaur
gemalde
compensation
vervollstandigen
dritter
disadvantages
verteiler
unzahlige
##ortium
karibik
ancestors
safranbolu
recognis
##عربية
##202520262027
rebecca
4k
527
729
749
771
939
987
ct
cp
cous
dc
ebook
gm
hipp
kum
lomb
nd
nude
pist
pous
rc
rief
shr
tore
vice
wessen
##rice
##i6
##imente
##t23
##t01
##burn
##mah
##miss
##f0
##fisch
##zed
##jon
##ələ
##itals
##aska
##omet
##lets
##elia
anget
##igert
einnehmen
beine
behalt
bezeichnet
prost
nose
haw
##ouro
divor
dilem
##olab
erik
erlernen
##lichung
##thouse
alk
schutze
scheme
##verm
wasche
ortszeit
abholen
abkur
freies
dentist
leise
mari
asc
asyl
30m
1878
1818
1889
1525
konsequent
vorfahren
##ishing
umt
lippen
##anuel
##two
##1924
17november
mehrfach
unterkategorien
persian
offne
trauen
accidents
beizut
september2020
thereby
folk
november2020
##ikon
##1100
august2020
054
052
2800
blow
##ilets
##plast
##2219
curse
beru
40€
wunschl
publiee
acceler
modes
hinweg
bookmark
##ondo
##klam
schnelligkeit
geboten
##worte
strasse
38a
insured
telefonischer
##792
stimul
802
##vorgang
turm
594
pacif
behoben
##863
angehorigen
##ypen
rettung
transporte
##457
healthier
verbindlich
millenn
587
grew
##fuhrte
653
altesten
salusa
##embre
2021marz
fehlgeschlagen
##geschoss
##841
zufriedener
858
improvis
punctual
volt
betracht
kron
##658
gultigen
explains
personlichkeiten
familienbetrieb
vaters
universities
southeast
hosted
hostels
##berech
crash
camper
responses
buddy
reprasen
wenigstens
responded
##eschluss
1904
1903
€120
nachhaltiges
nordirland
sammler
schwerer
offentlicher
wallis
umfassenden
niemandem
9999
knnen
markenzeichen
spannendes
auftraggeber
gefahrdet
abrahams
lehrt
prepayment
farming
dispatch
qualifications
kerngeschaft
konzentration
verpackungs
acquired
toiletten
granada
hervorragenden
screening
keram
accompanying
tabletten
erganzungen
angenehmes
adjusted
verkehrsmitteln
bugs
pedro
smoothly
tranen
stornierung
preference
vorzubereiten
hypoc
plastik
ugly
großzugig
schwangere
##████████
sedu
perception
geliebten
dolomites
armee
vorbestellung
mathemat
thorough
weitersurfen
beruhmten
##babwe
kostengunstig
mietwagen
reopening
bewundern
##website
completing
antwerp
##analyse
##rimination
visiteur
schottland
franchise
##festival
triumph
ungefahre
probespiel
questionnaire
internetzugang
kuwait
2f
4h
984
a5
fc
gingen
ia
kater
lacht
mounted
pant
rue
reth
ubel
v2
€32
##rina
##vater
##t07
##nie
##lk
##lasst
##cina
##x3
##pur
##kam
##kos
##f7
##fare
##zungen
##wal
##inth
##invest
##itis
##isim
##isationen
##oub
##alp
##omed
##tika
tow
##emester
eintreten
einrichten
zuzug
vera
verze
verteilung
dial
erarbeiten
##auert
##mend
##gens
##usalem
##opfen
abbre
##rio
tepp
feine
3022
besprochen
1858
ubermitteln
vors
vorbestellen
auser
ausbildungs
##ittel
kevin
wool
##cipl
perle
##ivo
thereof
##izen
embra
096
stecken
##teln
##osex
083
282012
tagungs
028
0008
begleit
pell
appren
ruhen
##class
4930
491516380
teamwork
michels
berichtet
gefil
##quet
thursdays
coat
coal
overlook
verbrechen
relative
909
statut
registrations
logik
3300
jaak
hausern
gelandet
landkarte
##491
protein
bewerte
5907
kenia
kenya
completeness
skipper
##urgie
##training
signals
7500
##hofe
direktor
romana
geht´s
mannheim
##902
optimization
madagas
gesamtlange
attentive
##gefallen
doujin
ceg
motors
kais
01015
ruckmeldung
explicit
grievous
brake
uberprufe
spezialitat
anwendbar
##freude
erneuern
##isespanol
reprasent
1905
targeted
moderner
##iiw
measured
recordings
sammlungen
gabrie
##buchung
##awa
##datenschutz
deadlines
niedrigste
lettisch
jener
gefahrten
##utta
betreibt
hence
##estelle
pilots
##polen
chapters
sorting
firmware
fulfilling
seventh
misgu
asthet
drawings
streitigkeiten
##hamed
defend
sonnenuntergang
wertvollen
bayern
hoppla
boutiques
gehorcht
irgendwas
wolfgang
ghost
ghana
exercises
kulturellen
freiwillig
drawn
871207939
hemd
cesky
therapie
gewerbe
okologisch
##8563
attached
wireless
drittanb
iraq
sardinia
unbegrenzt
cristina
##59575756
victims
banned
anmeldeformular
atlantic
violet
##francaisespanol
admonition
stunning
houston
bestseller
horariode
apotheke
##consult
weltkrieg
972559575756
sodass
proportion
herself
elizabeth
competitiveness
85956429
pousada
wunschliste
abbrevi
doujinsh
3h
738
847
aids
borrow
catherine
ell
fis
ix
jay
kate
lily
mauer
nou
plen
rass
upp
zam
€179
##ode
##oßen
##vet
##sicherheit
##uben
##low
##a5
##md
##mare
##x25
##pages
##fp
##fung
##wan
##iek
##orb
##orgene
##stall
##lehnt
token
##eli
anlegen
anita
antrage
anhoren
becker
wirf
rey
reine
zulassen
propr
haz
vermarkt
##amare
##olutions
deen
deeper
##andre
spannung
alfred
schalten
schuf
##adt
##opfe
movements
sovere
susten
##allo
produzenten
chor
ablagerung
leichte
leasing
margar
1871
1882
##otto
##ogether
shake
shift
aussteller
lido
hohle
##idad
2300
##checken
clay
manama
##ilda
tagung
dazwischen
buttons
blume
blattern
grams
##ungsjahr
versammlung
versorgt
happily
impul
kling
springs
##yright
1004
##nover
besuchte
schneider
verborgene
somewhat
gastehaus
handwerk
produktnummer
produktpalette
dichter
gebt
counting
empire
489
invas
wellbeing
turb
##857
buchern
costume
verliehen
568
slip
exporte
nahmen
discontin
suchergebnis
purple
##484
##unterst
patric
##actory
793
##holz
osterreichische
airlines
slots
constitution
gesamtes
642
##finn
882
referenzliste
mosa
arrives
cannes
possession
anbau
continuity
familienzimmer
##akete
kameras
hauptziel
palest
sterling
attain
vorhers
luxemburgisch
##gedacht
##ystems
bemerken
kilos
frohlich
##richtlinie
heading
arbeitsweise
painted
bosch
boses
martina
saulen
##1108
##qualif
stellung
logistic
auftrags
grossar
gewahrleistung
implementiert
oslo
##36846
composer
klassisch
qualifizierten
liebte
empfanger
neighbours
negativ
conclusions
structural
arguments
niedrigen
elektronik
erganzung
coworking
reparaturen
scenarios
jerusalem
textiles
##2014201520162017201820192020
templates
banglad
horizontal
abstract
ehemaligen
kandidat
versicherungen
sardinien
sandwiches
repeatedly
begrußung
##123456789
footwear
innocent
rehear
wiedereroffnung
senioren
zimmerservice
##19251924
##192619251924
shoulder
juliette
bratisl
hydraul
zauberei
toskana
postponed
##198919881987198619851984198319821981198019791978197719761975197419731972197119701969196819671966196519641963196219611960195919581957195619551954195319521951195019491948194719461945194419431942194119401939193819371936193519341933193219311930192919281927192619251924
kostenvoranschlag
gardasee
palermo
##198919881987198619851984198319821981198019791978197719761975197419731972197119701969196819671966196519641963196219611960195919581957195619551954195319521951195019491948194719461945194419431942194119401939193819371936193519341933193219311930192919281927192619251924192319
7100
biele
hl
hog
kings
kaf
kette
mx
mile
mature
rend
raven
sg
s6
sien
uab
€70
€600
€189
##oda
##nr
##nings
##nup
##dt
##gis
##lingen
##a4
##x8
##kat
##zsi
##wr
##inet
##anas
##stock
##atico
##ream
inmitten
weing
webst
##leite
##tian
toilets
##rov
##rown
undank
einchecken
beam
##ictions
rea
##tery
##inde
##aches
##aching
erre
##cting
stom
##andon
##inees
enge
enkel
##imme
geleist
gezahlt
##rup
1056
##opes
abgeb
werben
canaria
1224
exalt
informatik
##arta
1190
1516
ausgestellt
ausgesetzt
##ailcj
##isher
##sektor
ums
##ught
##oberflache
##gles
14h00
unterzeichnet
##wehr
personals
plak
regie
ople
emil
##blatter
##hersteller
getragen
0431
sax
##zeitige
##geszo
##ordentlich
blast
blazing
disobe
disabilities
rubel
buzz
langeren
bereitz
bernd
verwirrt
##782
##iale
bedient
passage
passions
famili
herzens
##getag
##getragen
zuruckge
handlungen
##3638
gebunden
partially
downloadbereich
##vorh
schlau
schliessen
turnover
##gerat
erfahrene
##664
591
volles
franzosich
verlieben
satze
closest
magento
##tica
searches
aktives
okread
earliest
seitenauf
discrimination
beschrankungen
ferry
gleichgewicht
6500
herausgegeben
##fahrzeug
##parks
##hofer
burk
##aumen
engeln
operative
originale
originals
798
erhaltung
namlich
aircraft
bedeckt
##903
eton
davide
bekam
verantwortlicher
##872
##654
oppon
fourteen
streiten
01013
superb
##liebe
necessity
luckland
nationalitat
nationalpark
richtiger
funfte
promotionen
iso9001
preparations
correction
sleeps
##mittag
initiativ
000€2
turkische
entschuldige
martz
mexican
geburtstags
relevance
anzufangen
stellte
produktionskapazitat
ehrliche
physio
##bongeszo
erlangen
gerechten
segments
paula
porsche
wilson
chemische
figuren
organizer
disputes
dressed
##matien
dvds
tiefen
leitung
awaiting
griechische
vernetzt
verpacken
##hotels
aquarium
dominion
amended
uberwachen
arbeitete
reflection
großartiger
pursue
nicolas
grafiken
fluke
##ymde
befohlen
boutiquen
heißes
elektronisch
bundesrepublik
wochentliche
##austral
measuring
bvu
bunt
gelehrt
gutscheine
crowdf
loyalitat
##kompetenz
supplies
existenz
wettbewerbsfahigkeit
##2cash
schengen
architectural
sophia
inev
ignorieren
newspapers
essent
wundervollen
##spanish
trekking
benachrichtigt
minibus
##hdguioii
reisenden
assigned
summarized
##►►►►
bogota
enormous
4260284
tatsachlichen
scratch2cash
##fleisch
wertschatzung
acquaintances
voluntary
kosmetik
hinabgesandt
fabrics
##kommunikation
sfr357
guilty
laptop
soccer
##2025202620272028
jaakcasino
cegbongeszo
##iiwiy
##zsi6
bereitzustellen
##hdguioiiymde
623
90000
asch
curs
dutz
dak
eager
eighte
fs
fett
ji
kru
kah
ligur
mh
n8
nase
nbs
overse
q2
rack
sanger
uirr
wink
zin
zomb
€26
##tungs
##nick
##eck
##b9
##bem
##bri
##bib
##brie
##lat
##mir
##01020304050607080910
##call
##hut
##xp
##kul
##f8
##fri
##zio
##wasche
##erne
invention
##leidung
##lehnen
tote
##agung
##iri
##ingend
##ional
anhand
seaf
reit
reactions
zuzu
nostal
verrichten
verzeichnis
0041
00800
##achter
##uto
aufbewahr
encom
##imar
##imity
alien
##ruhen
1020
1055
socken
canon
denis
2017juli
##schul
ext
extern
exkurs
exquisite
aside
1869
1510
vorn
hef
##behandlung
umher
nachher
finder
cond
minors
minsk
1650
kek
13h
24hrs
2349
clown
##erno
##gebieten
094
##ikas
##acon
0544
geschn
##meid
saal
##anza
preiswert
ruhr
roth
##3030
postprevious
bub
openings
kinders
gewarnt
gewollt
passport
besuchers
datenverarbeitung
nutzlichen
standby
weitergeben
monatliches
quo
personen4
terre
showcase
unterstutzten
##maße
dirk
##cribed
trefft
carlo
carrier
futtern
##761
gelingt
##493
erreichst
dienstes
##commun
eingaben
barrier
bildnummer
##iedert
beliefern
maggi
belgian
eigenschaft
##parte
##bedurf
##1516171819
understands
##besuch
matrix
##oked
grave
marktes
lebenszeit
glaubens
942
kohle
inspirierend
mrz
##ugeot
##belgien
deploy
beweg
wohlstand
wrongdo
##strom
anderswo
verkaufspreis
wettkamp
compliments
focuses
painter
boards
rechtsberatung
aufgeteilt
aufgehort
handelsunternehmen
ubernimmt
independ
filtering
romeo
unabhangigen
konsumenten
simplest
organizational
habit
ausgezeichnetes
jugendlichen
oceania
abwicklung
##99999999
##weiteren
bernard
##entwick
institutional
deutliche
verzweif
##ungszeitraum
exzellent
cashback
laughing
amerikaner
51015202530
schreibtisch
hoping
chairs
exklusiver
allergies
gemutlichen
refugee
exceeded
konkretes
icons
retailers
aussergewohn
orchester
scared
burned
democratic
privilege
remarkable
editorial
##nehmbar
spontan
heinz
trinkt
gegessen
ueber
erklarst
begrußungs
vertrauenswurdig
erzeugnisse
luxurious
rekord
freelance
##francegermany
zigaretten
incentive
nitro
anpassungen
prostrate
arbeitssprachen
sculpture
jardin
recreation
recherche
energieeffizienz
absence
aufschub
##sammlung
pharmaceutical
tuscany
retirement
stattfindet
pacific
##unterstutzung
837
946
bureau
cj
crafts
dsch
giant
hiding
iber
kanzlei
linen
nuts
ott
porn
races
tess
wag
xen
zadar
zomer
€47
€400
##rr
##ray
##r25
##nien
##nederland
##b5
##baden
##langen
##lager
##cience
##hbar
##ply
##pace
##kce
##kov
##zieren
##wiss
##¼r
##¼n
##arag
20dezember
##oust
une
unent
uncle
unlock
##ingang
anana
angeschlossen
anstelle
anlasse
bees
##icop
##tsche
reiter
reaktionen
##inda
vertik
00chf
##achs
##oler
##dev
##illen
##nennung
##ktrum
##former
##inea
##imental
alma
##abis
abschnitte
##itech
##format
canton
12pm
20172018
legt
martha
beside
1816
1890
18februar
18february
1895
11h
konform
shy
heed
heiden
gesperrt
nachstehenden
##1909
monika
descend
trat
claire
compat
workflow
steh
donna
getranken
formed
paras
mailadresse
bliss
grande
glam
glatt
##ungssystem
versa
firms
happier
michele
gastlichkeit
gefolgt
durchzu
##reift
vielversprechen
customize
hinsichtlich
flair
weiterzu
contrary
##owned
grupo
quar
cheers
meditations
gebuhrt
997
winston
winforce
##200px
luis
luca
futter
##0002
sorten
ganzheit
ganztag
schweren
landlichen
assum
einziger
projektlaufzeit
scoo
##892
angola
baron
herrschaft
corn
bloggers
##proof
752
aktivierungs
##uzzi
beschw
studied
suchfunktion
verkur
kontos
cooperations
##594
frozen
japanischen
volvo
villen
##908
unterschrift
optimise
gesamtbetrag
attended
##jahres
tomas
vierzehn
767
inhaltlicher
inspirationen
arrivals
anbiya
delivering
attraction
742
wales
extravag
raumen
descriptions
luxembourgish
silk
festge
leidenschaftlich
rai
platten
wetten
loads
photographed
angesprochen
sensib
aufgehalten
mexikan
gelegenen
##iffa
anzupassen
nutzererlebnis
##registr
cloth
spoil
mittele
##pots
maske
identified
utop
##bonus
raining
fancy
einsatzbereit
biodivers
immers
bibione
##zzi
klassischen
abgehalten
abgelehnt
saviour
sponsorship
collecting
reagiert
verstorben
indonesisch
##probieren
tastes
##strecke
interessenten
abschicken
erdgeschoss
satisfying
spectrum
championship
bowling
katharina
nominated
kiew
enttauschen
bamboo
talenten
##kunftsland
einkaufswagen
beratungsgesprach
ferienhauser
kulinar
xltd
tobacco
experiments
verwendete
ozean
schadlich
karton
rafael
preservation
powder
irak
we´ll
eternally
wiederverkaufer
aurora
widerrufs
aktienkurs
pandem
##ituation
algeria
phantasie
aso7
##1950195119521953195419551956195719581959196019611962196319641965196619671968196919701971197219731974197519761977197819791980198119821983198419851986198719881989
hubert
##dalmatien
honda
iframes
gitarre
restruct
oscar
prasidenten
giov
photogallery
sekundare
barbadoscasino
##abulary
chauffeur
willkomen
phenomenon
abzuschließen
freiburg
pneum
zuzugreifen
719
bent
bap
dschung
ellen
fiel
hag
jule
kc
lemon
nem
pit
pru
puts
stif
tack
uu
wound
wilt
zar
€60
€85
€45
##dia
##gur
##b3
##liness
##law
##a6
##male
##4u
##quest
##pic
##pum
##zertif
##inent
##inhaber
##aner
##anti
##url
##stieg
thum
##atra
##arias
weld
##elie
befe
bears
sequen
reim
rechen
zucht
zugesandt
prosec
vergehen
verweisen
erweckt
striv
spy
enor
alia
alif
geleitet
scho
schach
schaff
ims
##istes
##abler
abspielen
2017juni
2017mai
leban
##schiff
1860
1897
vorbild
##bein
##bewohner
##ieso
admitted
adams
nachlesen
nachnamen
##twitz
##twasche
##1900
newer
warnungen
##uga
##feed
geringer
##cile
perlen
perpet
2257
plate
quest
regina
opti
folded
reserves
agieren
093
brachte
loose
086
087
genannte
##acs
parc
042
##iane
begreifen
vorbehalt
ruby
##andern
bestehend
curric
##1600
kundenkonto
##losigkeit
sprachauswahl
personen3
recall
bush
kostbar
highway
realen
invites
inviting
caring
instin
##0009
##4444
vergisst
girlfriend
behave
##ipping
aktiviere
miller
verknup
##fahrten
##nahm
varies
mitgliedstaaten
tagliches
vergessene
862
fruhstucken
prix
tribe
singer
grain
weilen
krim
##657
nutzungbestimmungen
digitales
##raumen
bevorstehenden
supermarkt
subscribing
sowieso
wondered
dokumen
navy
##oba
suddalmatien
terminvereinbarung
erobern
##player
teste
motivates
energieverbrauch
##model
publicly
finanzieren
departing
behinderten
putting
kampfe
1901
##wartet
reinigungs
photographic
##gehende
cooling
##monaten
associates
hyper
centres
amazed
bequemlichkeit
humili
produktionszeit
erkenne
[...]
