[PAD]
[UNK]
[CLS]
[SEP]
[DOC]
[MASK]
!
"
#
$
%
&
'
(
)
*
+
,
-
.
/
0
1
2
3
4
5
6
7
8
9
:
;
<
=
>
?
@
[
\
]
^
_
`
a
b
c
d
e
f
g
h
i
j
k
l
m
n
o
p
q
r
s
t
u
v
w
x
y
z
{
|
}
~
¡
£
¦
§
¨
«
¬
®
°
±
²
³
´
µ
·
¹
º
»
¼
½
¾
¿
×
ß
æ
ð
÷
ø
þ
đ
ħ
ı
ł
ɐ
ɑ
ə
ɟ
ɦ
ɪ
ʊ
ʕ
ʰ
ʳ
ʼ
ʿ
ˆ
ˈ
ˋ
ː
˚
˝
α
β
γ
δ
ε
ζ
η
θ
ι
κ
λ
μ
ν
ξ
ο
π
ρ
ς
σ
τ
υ
φ
χ
ψ
ω
а
б
в
г
д
е
ж
з
и
к
л
м
н
о
п
р
с
т
у
ф
х
ц
ч
ш
щ
ъ
ы
ь
э
ю
я
є
і
҉
׃
א
ב
ג
ד
ה
ו
ז
ח
י
ך
כ
ל
ם
מ
ן
נ
ס
ע
ף
פ
ץ
צ
ק
ר
ש
ת
؟
ا
ب
ت
ح
د
ر
ز
س
ش
ض
ع
ك
ل
م
ن
ه
و
ي
پ
چ
ک
ی
அ
ஆ
இ
உ
எ
ஒ
க
ங
ச
ட
த
ந
ன
ப
ம
ய
ர
ள
ழ
வ
ா
ி
ு
ெ
ே
ை
ඞ
ด
ว
ส
ᄀ
ᄂ
ᄃ
ᄅ
ᄆ
ᄉ
ᄋ
ᄐ
ᄒ
ᅡ
ᅢ
ᅦ
ᅧ
ᅨ
ᅩ
ᅪ
ᅭ
ᅮ
ᅳ
ᅵ
ᆫ
ᆯ
ᆸ
ᆼ
ᇁ
ក
ជ
ត
ធ
ប
ព
ម
យ
រ
ា
េ
‐
‑
‒
–
—
―
‖
‘
’
‚
“
”
„
†
•
…
′
″
‵
›
⁄
⁴
⁵
⁶
ⁿ
₀
₁
₂
₃
ₖ
ₙ
ₛ
€
₹
ℂ
ℎ
ℏ
ℕ
ℚ
ℝ
ℤ
ℬ
⅓
⅔
⅛
→
⇔
∀
∂
∃
∅
∆
∈
∏
∑
−
∗
√
∞
∧
∨
∩
∪
∫
≃
≈
≤
≥
≦
⊂
⊆
⊕
⊗
⊢
⊤
⊥
⋅
⋯
⌈
⌉
⌊
⌋
⏰
─
━
│
└
├
┻
╓
╕
╖
╗
╘
╙
╜
╠
╢
╣
╨
╫
╬
╯
╰
▀
▄
█
▌
▐
░
▒
▓
□
☀
☉
☺
☿
♀
♂
♃
♄
♅
♆
♔
♕
♖
♗
♘
♙
♚
♛
♜
♝
♞
♟
♥
♪
♭
♯
♻
⚫
⛪
✅
✈
✉
✓
✦
✨
❤
❯
➶
⟨
⟩
、
。
々
〈
〉
《
》
「
」
あ
い
う
え
お
か
き
く
け
こ
さ
し
す
せ
そ
た
ち
っ
つ
て
と
な
に
ね
の
は
ひ
ふ
ほ
ま
み
む
め
も
や
ょ
よ
ら
り
る
れ
わ
を
ん
ア
イ
エ
ク
コ
サ
シ
タ
チ
ッ
ト
ハ
フ
ヘ
ホ
ミ
ム
メ
ャ
ラ
レ
ン
ー
㐅
一
丈
三
上
不
世
个
中
主
么
义
之
也
书
了
事
二
五
亡
交
京
人
什
仁
仙
以
仲
会
住
何
你
供
修
做
傘
元
先
光
兵
其
再
冒
写
冷
刀
分
初
别
前
勉
北
变
可
合
名
吗
吧
含
吹
味
命
四
国
國
地
声
変
多
夜
大
天
太
失
女
好
如
始
子
字
存
学
孫
安
宗
定
宮
宰
密
寒
察
封
將
尋
小
少
山
崎
帝
序
度
強
当
形
彼
很
律
循
徴
心
怎
思
性
恋
悪
情
意
愛
我
战
所
持
换
排
探
故
散
文
日
昔
星
是
晴
暑
曰
月
朝
本
来
東
某
校
样
根
格
楽
欲
歌
死
毎
比
気
沌
法
泡
消
深
混
漢
熱
父
特
狩
猎
猜
猫
环
理
生
用
田
男
登
白
百
的
皇
盘
相
眠
知
码
社
神
祭
私
秋
种
竹
符
第
篆
紅
素
索
經
緒
纪
统
置
美
羽
者
而
育
能
興
舞
良
花
英
荒
莽
葉
蕴
行
见
解
言
計
話
詳
語
読
誰
计
记
识
说
请
谁
谢
買
賑
踊
車
辰
这
遊
道
那
郎
释
重
问
雁
面
音
願
風
飼
駿
高
鬼
魔
鳥
鳴
龙
ꓘ
ꓛ
ꓭ
ꓶ
ꭿ
︵
！
（
）
，
：
？
𝐿
𝑎
𝑏
𝑑
𝑒
𝑓
𝑔
𝑘
𝑛
𝑟
𝑥
𝑦
𝑧
𝒶
𝓃
𝛽
𝛿
𝜂
𝜃
𝜋
🇰
🇵
🌃
🌅
🌈
🌊
🌋
🌍
🌎
🌏
🌐
🌙
🌞
🌟
🌠
🌧
🌱
🌳
🌴
🌸
🌹
🌺
🌼
🌿
🍅
🍌
🍎
🍓
🍯
🍰
🍲
🍻
🍽
🍿
🎁
🎄
🎉
🎎
🎥
🎬
🎮
🎶
🎾
🏃
🏄
🏆
🏊
🏋
🏖
🏝
🏞
🏫
🏰
🏻
🏼
🐍
🐝
👀
👂
👃
👉
👊
👋
👍
👏
👑
👥
👨
👴
👼
💀
💃
💋
💌
💍
💎
💔
💕
💖
💝
💡
💥
💩
💪
💫
💯
💰
💸
💻
💼
📈
📖
📝
📦
📨
🔁
🔍
🔥
🔭
🕍
🕯
🗡
🗣
🗺
🗽
😀
😁
😂
😃
😄
😅
😆
😈
😉
😊
😌
😎
😏
😔
😠
😩
😫
😬
😭
😱
😷
🙂
🙄
🙅
🙇
🙋
🙌
🙏
🚀
🚢
🛍
🡡
🡣
🡤
🡥
🡦
🡧
🤏
🤑
🤓
🤔
🤗
🤚
🤝
🤢
🤣
🤧
🤨
🤩
🤮
🤯
🤴
🤷
🥐
🥑
🥖
🥦
🦀
🦄
🦠
🧐
🧑
🧠
🧮
🪓
##h
##i
##s
##p
##e
##r
##n
##t
##l
##g
##m
##b
##a
##4
##8
##c
##d
##o
##y
##f
##0
##7
##k
##w
##q
##j
##1
##2
##z
##3
##9
##v
##5
##u
##x
##п
##а
##с
##и
##б
##о
##り
##か
##と
##う
##こ
##さ
##い
##ま
##し
##た
##°
##р
##г
##т
##в
##ь
##6
##е
##н
##ч
##ц
##─
##▀
##█
##▄
##л
##к
##я
##σ
##φ
##α
##λ
##ε
##ι
##ς
##נ
##ה
##ג
##ю
##→
##ы
##д
##♂
##🤷
##♀
##х
##ж
##√
##з
##▓
##ן
##ל
##י
##ם
##ß
##η
##ν
##な
##ш
##у
##м
##҉
##👉
##👃
##∪
##²
##∈
##ட
##க
##ο
##υ
##μ
##כ
##ו
##⁄
##¾
##ម
##ព
##ជ
##ា
##ប
##រ
##ធ
##ត
##េ
##យ
##👍
##🤓
##ん
##き
##מ
##ש
##ר
##₀
##ₛ
##ð
##ח
##κ
##╣
##▒
##░
##╫
##ζ
##τ
##ℤ
##ז
##♭
##🤮
##💩
##💀
##ச
##ர
##ி
##ய
##ப
##ு
##த
##ம
##╢
##∗
##˚
##ρ
##ω
##π
##θ
##æ
##て
##す
##は
##−
##₂
##╕
##😊
##🏆
##³
##🤢
##ˆ
##β
##𝛽
##χ
##ح
##د
##ي
##ا
##ت
##×
##の
##く
##る
##₁
##⁵
##ф
##γ
##み
##せ
##®
##ł
##¹
##☉
##🌴
##ら
##を
##º
##פ
##╬
##🌎
##ʳ
##🏰
##щ
##ள
##ை
##צ
##ת
##ק
##✦
##€
##ʊ
##ː
##🏻
##ˋ
##ヘ
##ッ
##ト
##に
##ょ
##⁴
##💼
##▌
##🍿
##𝑥
##´
##あ
##ね
##÷
##😏
##ʼ
##け
##れ
##や
##ᅵ
##ᇁ
##ᄉ
##ᅳ
##ᆸ
##ᄂ
##ᄃ
##ᅡ
##½
##📈
##ₙ
##ъ
##ב
##∃
##ك
##💪
##و
##ⁿ
##𝑓
##つ
##も
##ی
##ش
##ن
##ه
##ₖ
##ɪ
##🐝
##₃
##ə
##🌊
##🌟
##👥
##э
##🌅
##め
##ン
##コ
##ɐ
##ɦ
##ˈ
##ɟ
##⁶
##∩
##ד
##ᅧ
##ᆼ
##ᄋ
##ᄅ
##ᅩ
##🌹
##ち
##ɑ
##ʰ
##א
##💥
##𝑘
##¬
##🌳
##👀
##𝒶
##𝓃
##🍌
##ꓘ
##ꓛ
##ꓶ
##ꓭ
##🌋
##س
##ன
##வ
##ø
##🏝
##ᅦ
##ᄀ
##ᅨ
##ס
##ク
##□
##え
##𝑛
##∫
##♥
##♯
##ᅮ
##ᆫ
##ᄒ
##ᅪ
##ᆯ
##ע
##😱
##よ
##っ
##🔥
##⛪
##🏖
##🏊
##🏄
##ெ
##ா
##ழ
##🏫
##ங
##і
##😂
##タ
##シ
##イ
##レ
##δ
##¼
##ア
##━
##┻
##∨
##ı
##╖
##╓
##ر
##🌈
##🥑
##🏼
##😷
##╨
##😭
##є
##ム
##ー
##フ
##メ
##🎎
##م
##ץ
##ך
##¨
##ハ
##⋅
##µ
##🦠
##🤗
##🍰
##╜
##👨
##😩
##😫
##𝜃
##ᅢ
##ب
##ほ
##ᅭ
##ل
##ξ
##✈
##🌺
##🏞
##ض
##ع
##╗
##エ
##サ
##🇰
##🌧
##👏
##ே
##🌏
##💸
##ף
##╙
##👋
##🚢
##ز
##🏋
##🗽
##チ
##ャ
##ホ
##🥦
##ว
##ส
##ด
##𝑒
##þ
##ふ
th
##er
the
##in
##at
##on
##es
##nd
##or
##ou
##en
##an
##ing
to
and
##al
##ed
##it
in
##ar
of
##re
##ion
##ic
##le
##is
##om
you
##as
##el
##ent
##ct
##et
##ro
is
##il
##st
for
##ch
##ow
re
##ut
##ve
be
it
wh
st
that
##am
##ot
##ce
##ol
##ation
on
##se
##ur
as
##id
##ig
con
an
can
##ith
pro
##ay
##ly
##im
##od
##th
##ul
or
with
##ers
##ir
su
##ad
are
ex
al
com
##ess
##ag
##ld
de
##pe
##if
##ver
##ate
##ter
ch
your
##ere
##ain
##est
##ab
##um
##em
##ist
ha
##ak
us
this
ne
##ri
##ant
##ould
##igh
##un
##ck
##ity
##op
tr
im
en
sh
se
##pt
##pl
##os
fr
##ment
##ill
##ort
##ore
##ect
##ies
##iv
not
##us
by
##act
##ive
do
##ple
##qu
have
wor
me
ad
##ome
##ight
le
##ions
##iz
pl
if
##pp
##age
pr
we
##ine
##all
##ang
##ure
##and
##ial
he
ab
from
##per
##ical
res
##ell
##ud
so
at
##ame
how
li
int
##art
un
lo
imp
ar
##out
cont
##ich
##ust
##able
##ach
comp
##ake
##ap
te
inc
more
##orm
some
use
go
qu
##ack
##fer
##ther
##ide
sc
##our
but
##ence
##ile
##ard
cl
##ke
which
##ult
what
##so
was
##ind
##ations
they
all
cre
their
##og
dat
##form
##ue
there
str
will
spe
mo
##cess
hel
##av
##ction
##ie
mod
##gh
other
##ase
man
such
##ime
##ac
help
##ff
would
ac
##ans
fe
sy
##ance
##ound
##ib
##ough
has
my
##gr
##ous
any
##ep
##ated
##ge
##are
##ast
##her
may
dif
inter
like
also
##ely
add
out
##ite
gr
kn
##ific
##ace
##ory
##ass
##vel
##ks
data
##ces
one
ev
##ual
up
##ice
##ong
cons
comm
##ire
##ary
about
##ign
could
ap
am
dis
co
per
time
prov
##xt
##ition
need
sp
##nder
##ry
##ject
these
##lud
des
exam
##ip
##oun
here
##ail
##ens
know
includ
over
import
col
##ber
##int
make
its
##00
new
##one
##ode
using
them
##ok
fun
##stem
used
spec
ser
##ient
ke
pre
##du
##ors
gen
ph
system
mat
em
##etw
differ
set
get
ro
bu
than
##end
when
##ating
##low
##erm
##ari
into
##ose
##ning
work
##ount
pe
ind
val
##ics
ty
model
##lo
app
no
##ft
bas
num
br
id
##ish
op
under
inst
rec
pos
part
code
po
sim
##ful
##ize
##ord
ob
wr
way
gener
##ings
example
lang
##ally
who
##ular
his
langu
world
##put
##ild
should
rel
##eth
lear
##au
##ible
fo
##ree
create
hum
##ick
##velop
pers
##olog
develop
requ
##ents
progr
##ates
##ments
act
open
while
##les
eff
##ear
different
##lect
many
##ility
##elf
each
inv
ass
##ub
##con
##ures
sm
function
high
##ci
form
bec
def
##ower
##ange
play
bo
det
then
py
cr
##reat
##ever
##ia
##wn
expl
process
start
vari
tech
thr
where
important
##ities
fol
tw
most
##ider
##rib
cur
exper
##ert
##ons
acc
##pend
want
ai
##ark
list
pat
##ict
inform
##urn
language
reg
##oth
techn
##een
fir
##ise
##ople
sure
##pr
##aking
however
provide
program
##ys
find
people
through
att
sol
fl
##own
person
##enc
let
rem
20
##ages
dec
name
##ra
comple
trans
good
##als
file
##etween
just
underst
between
##ript
produ
text
first
well
##ink
char
##ps
##ience
##cial
consider
ag
##ting
adv
information
##plic
quest
follow
train
##ble
##uct
##ving
##get
understand
##eng
##gg
key
comput
lar
been
opt
ret
##ause
power
run
sub
##its
lif
resp
based
##ten
##ential
##ater
web
##ative
pol
##ays
sa
specific
el
game
av
par
dist
two
eng
##tern
##ices
##ware
jo
##row
red
build
back
end
##ality
main
##ms
try
che
##ds
##ax
ht
take
##ues
sk
##ss
min
step
##erg
##ade
human
##ery
10
number
##ves
##very
##ved
off
does
depend
pyth
##cept
##pect
cor
sign
her
allow
bl
fin
class
fact
##te
##lease
##pport
##oc
being
python
sour
were
including
##ized
inf
gu
poss
la
##der
art
hand
loc
light
object
##ences
don
our
only
car
##ution
ca
best
##ically
##ural
pop
##ify
own
##fore
perform
ear
##ature
##ced
see
##rol
19
meth
point
##iqu
down
med
af
aut
design
##ork
##uring
life
result
plan
include
##iew
long
input
impro
fil
##ety
value
dr
look
typ
pot
user
fi
cal
ins
##ph
##cus
##ious
had
##ines
type
great
const
stud
ext
please
appro
##gor
method
##ian
eas
ho
both
provid
##akes
addition
year
##read
##ness
she
##br
ide
charact
every
learning
even
call
##alth
mu
##cur
commun
term
bel
##ied
dire
mon
##ology
lead
curr
conf
serv
cho
proble
mult
read
##led
war
##ited
effect
applic
##aph
##ene
right
##ism
project
##ession
return
##sw
real
tas
small
complex
algor
day
large
##gan
give
algorith
learn
proper
##other
##ody
##ples
feel
sur
possible
ve
cent
##ward
count
vis
mem
##ily
top
write
water
support
assist
netw
might
bet
##line
answ
incre
##ather
som
energ
prom
##bo
##nect
soft
equ
env
keep
##ually
##ming
##ization
sw
##gin
tool
known
current
di
energy
##old
##ivid
oper
because
ele
control
##atures
cle
before
partic
redu
mean
##oy
often
prev
envir
health
after
making
access
##ency
conc
environ
prot
beh
##arch
level
##ts
better
hard
mark
##ern
##ability
##ty
around
writ
##hip
few
self
direct
ens
##ives
met
sever
source
same
print
tem
free
now
invol
elect
pur
hist
fri
much
test
connect
state
ll
##ron
without
lim
respon
##co
##cul
potential
rep
##ier
##ets
diff
check
very
exp
cert
##ational
mach
made
answer
##mm
pass
compan
popular
interest
##lic
##ric
desc
##omm
##ases
still
##iss
software
chang
mus
##ribut
##oid
contain
note
common
multi
development
sin
##ix
blo
##ames
##ength
prof
require
improve
pa
##io
contin
resour
ask
dev
another
ref
##ately
pract
air
##ner
cap
##up
##esent
install
environment
mess
able
individ
friend
##til
##lish
training
##tain
systems
why
again
htt
pri
##ead
command
think
food
wind
##ract
following
found
range
enc
fam
line
focus
size
##ention
computer
individual
phys
output
##tle
##ress
bre
er
pub
script
image
happ
several
##earch
during
est
belie
##ired
##conom
research
rev
earth
##ale
body
anal
math
product
##thing
econom
path
bat
##ows
exist
iss
move
##ger
##self
struct
impact
experience
fiel
lay
##plement
sch
##dit
##ense
certain
question
##icult
##ways
those
change
steps
skill
network
bi
determ
though
place
explain
someth
##ars
order
something
questions
character
arr
chall
es
sty
cult
implement
aw
##alk
webs
##ique
##ively
##day
yes
ent
wid
##vers
simple
##ling
##itive
##ream
intern
##erial
organ
##imes
signific
##bers
calcul
ensure
ge
avail
less
rest
vers
effic
libr
cost
##thers
log
##iness
things
##ument
social
cat
did
##ml
server
har
##cle
tell
##ull
sugg
programming
suggest
##ared
##yn
port
##ex
string
always
detail
lik
mag
recomm
dri
item
general
##ior
story
amount
recommend
called
must
years
##ted
##acy
material
##rect
once
difficult
others
##ustom
color
content
factors
grow
head
ident
machine
giv
custom
##oss
response
features
understanding
examples
ris
sl
assistant
##ton
engine
comb
resources
##ape
fut
##ruct
##ries
personal
grou
##ove
manag
fur
search
arg
##ined
problem
performance
dem
##ilar
##ists
vide
12
##ror
infl
behav
case
significant
care
him
concept
sun
##ables
doc
event
space
eu
repr
speed
##verse
bro
stand
https
since
too
means
##els
algorithm
similar
##usion
sit
models
aff
technology
##ator
ma
anim
else
various
trad
next
div
available
leg
jav
activ
mind
##ilities
users
show
##ond
works
##reen
ach
saf
##ser
202
future
del
lin
stor
##ross
##ination
quality
##ext
request
needs
##ath
##emat
##ellig
hy
lit
tasks
##inal
bus
until
js
squ
##ne
uses
fu
company
achie
challeng
plat
##77
inte
approach
##ood
protect
respons
##ified
##par
gl
nat
secon
sal
reas
intellig
quant
states
##ement
say
##ru
##ave
##curity
fre
sound
public
invest
overall
pattern
local
mathemat
pack
refer
ways
stat
##less
market
##ital
##aster
html
meas
##ateg
cell
lab
##not
history
building
types
multiple
due
old
auth
correct
##ux
scient
message
##ec
##ants
upd
begin
suc
optim
strong
sing
files
avoid
block
tools
website
allows
law
view
orig
cour
context
##itical
changes
##ik
##ether
weight
likely
##face
values
##asc
##oph
anything
become
##ug
##ium
##ased
idea
mar
low
given
##ember
team
##air
true
bene
hell
##ional
skills
chat
creating
unique
platform
##ven
##ision
field
style
##──
##imate
necess
##aces
##ledge
online
applications
cause
vir
theory
##play
instead
rele
interact
dig
##ins
##vern
temper
tre
##az
further
table
##cing
short
choose
##ches
summ
ability
tri
address
humans
max
##sc
trav
study
##ances
##ulation
hope
##ication
sn
##ost
init
yourself
##ule
meaning
mech
caus
cir
accur
exc
depending
additionally
security
knowledge
thank
##uck
within
11
regular
natural
influ
benef
considered
provides
particular
side
deep
oc
##eric
pain
##ret
vol
three
press
govern
service
##ral
prompt
reduce
reach
generate
minut
cy
far
react
toget
offer
together
numbers
relations
rad
##ires
success
##anced
prevent
clear
behavior
describ
love
phil
business
##po
##ume
god
mil
pres
non
sent
dep
compon
##red
soci
graph
maintain
cop
repl
turn
points
break
issues
second
##ee
application
mechan
quick
##ank
201
dog
##rodu
hello
land
word
strateg
intelligence
pred
words
easy
version
eth
looking
memory
aud
sym
tar
represent
subject
music
library
child
priv
mot
sort
##ash
terms
##amp
##ogn
cannot
prefer
##erc
super
sor
remember
profession
##ots
mic
sec
##ush
##raph
dra
ul
##ploy
appe
objects
options
et
last
fast
enough
##leep
##iques
designed
writing
relationship
special
purp
mor
against
bit
services
contribut
indust
increase
prop
disc
ess
##ctions
imm
task
area
15
left
base
expr
come
##amet
100
makes
philos
past
##por
experi
group
science
ur
##atch
goals
home
##word
ey
variety
arch
##bs
altern
techniques
18
##olution
##ov
efficient
problems
quantum
##ote
linux
structure
200
americ
travel
##ann
attack
basic
frame
economic
enj
enter
##ards
cook
book
##ental
##ont
takes
never
languages
##ouse
select
api
##oks
##imately
post
black
role
necessary
target
today
array
city
working
date
whether
modern
autom
physical
video
minutes
##esh
##come
prin
someone
methods
liv
single
enjoy
kind
##aries
##etic
ang
nature
##izing
##aps
rob
mass
loop
##ains
##cket
##rypt
elements
##ah
##aut
##osed
determine
algorithms
##ze
action
hour
document
##idence
practice
euro
##ock
related
rand
song
##ql
having
running
##ories
community
bal
ste
##oms
##load
distance
sleep
##ording
format
coll
##ently
ed
bar
##aw
##vant
helps
length
tit
stay
##verage
##ute
additional
bot
family
times
position
##idd
dark
flo
norm
##for
##itch
created
error
ball
transform
characters
identify
##fort
##ury
ult
##ients
email
virt
micro
results
seem
##oney
sorry
lat
situ
##omet
##istic
adj
age
big
##ides
clean
involves
fall
players
account
##ological
##ibility
glo
introdu
risk
##amed
images
affect
track
neg
##ties
##rop
rol
##ipe
##ensive
typically
blue
powerful
##wh
trained
ideas
done
exerc
finally
ant
goog
wee
##ai
##ird
choice
##back
sets
##be
send
syn
30
achieve
put
pay
rece
datab
phot
white
##wards
tradition
philosoph
depends
exec
feed
root
united
limit
sense
functions
series
political
detect
maj
vi
##ube
temperature
pie
option
google
rather
harm
games
wide
tok
sens
##bal
##orn
predict
rul
##ysis
##ditions
height
draw
colle
pad
lot
taking
professional
conditions
display
talk
fill
##oring
center
ver
##illion
obser
reason
define
player
store
areas
events
media
##board
##██
prob
disco
capt
strength
share
directory
##ram
##ler
##oo
##ites
full
##orks
shape
brain
europe
random
##ivity
requires
society
25
face
##cl
little
##asing
##man
##raft
materials
config
individuals
analy
##rain
##hn
##hing
##let
##he
defin
##ney
##land
needed
integr
sat
tun
country
adjust
advant
polic
friends
items
neural
abs
16
##aring
##ilt
easier
##ascript
sources
previous
javascript
convers
copy
major
vary
##rie
above
##ivers
button
##ffic
according
##iod
##ats
deb
occur
fig
money
consum
king
sam
##apt
emot
attention
away
valid
element
fire
##craft
expect
uni
virtual
##ls
click
##ips
room
period
recogn
##ane
fac
##ablish
##ension
minim
il
rust
going
##lying
##ologies
initial
link
##ait
useful
establish
challenges
lower
##work
provided
windows
universe
goal
collect
present
load
government
mov
paramet
##ool
really
conver
evidence
higher
advanced
requirements
live
night
vect
##cially
location
##ident
finan
grad
dim
flow
##view
analysis
opp
##ring
##atic
##ises
cond
quickly
dest
edu
##umn
##soci
starting
property
scientific
imag
pan
##pri
##oud
matter
fish
emp
thanks
square
##omes
##ograph
##ering
##sequ
includes
host
egg
##mit
##ither
card
##lex
##of
internet
countries
days
mix
review
helpful
john
led
##ured
germ
ter
interp
descript
rout
processing
started
trying
author
fit
##ugg
sequ
consist
said
highly
layer
thought
anc
regard
##by
associ
effective
##ones
##alu
close
dam
np
getting
educ
loss
experim
##ius
continue
details
etc
usually
devices
hol
stop
ground
purpose
##abor
stream
##empt
##aves
##sy
##ym
##ulate
cut
exact
edit
compet
walk
therefore
appropri
hal
ra
scale
course
##izes
prim
##ground
##cuss
##ready
espe
average
datas
circ
gain
sou
##ese
##ng
variable
##val
##ators
financial
##fs
doing
meet
job
properties
essential
traditional
named
near
positive
paper
2023
ful
already
page
##bol
least
index
database
##oman
heart
client
widely
force
sum
slow
patterns
limited
especially
hun
german
##rast
employ
doesn
global
fund
levels
opport
match
continu
management
opportun
##ised
visual
hardware
concern
fal
##rit
incor
progress
download
original
treat
##ww
##avor
##cious
##ters
##light
adapt
seek
benefits
dom
##inter
##utions
##unch
relevant
##app
generally
constant
discuss
chord
cells
cases
nor
cs
dream
##port
evalu
frequ
##ula
inde
cross
jour
among
column
explore
fix
production
device
window
##itions
along
growth
dou
##000
appropriate
fail
join
princi
coun
##amm
school
miss
nu
##iency
handle
operating
won
green
mut
##ew
##erous
artific
hours
##ption
developed
separ
normal
dang
rock
providing
13
##ift
respect
watch
supp
grav
produce
effects
##ato
tot
heav
required
happen
express
17
dyn
got
parts
ok
star
##ification
effort
##iction
digital
inn
##icate
seen
english
width
##na
ingr
artificial
happy
solution
##ault
heat
univers
buy
built
bring
save
either
across
replace
gold
tur
##lusion
thing
standard
safe
american
bad
mer
password
hold
conv
consequ
cred
14
nut
##isions
json
pow
bran
projects
measure
rules
os
##side
##uc
weather
perspect
##enced
medical
communication
##dr
summary
cool
actions
attempt
histor
node
##ren
##bon
screen
offers
gre
lack
insp
##ids
##aging
explan
complete
smaller
tim
mac
##pro
##fect
rate
assum
ingred
cam
rot
solar
##uments
difference
instruct
listen
planet
written
concepts
nav
www
civ
package
##ump
surface
row
##ench
##uration
specif
guid
leading
believe
calculate
##ply
##esp
##ribution
decision
prior
products
dynam
ancient
##ably
throughout
components
000
four
larger
electric
update
##gpt
doct
##atively
chem
##abilities
mount
##sel
##ili
spread
solve
remove
teach
bed
##str
networks
cultural
pick
##eness
yout
##ival
accept
playing
mathematical
bud
tast
gp
##cer
##ox
transl
men
simply
longer
java
##gest
animals
safety
industry
##aken
ultimately
csv
##fully
drag
##aling
comes
brit
##mos
##osing
interesting
oil
living
total
hor
wood
##sh
##oses
compared
describe
hab
##itect
later
letter
architect
map
suit
tra
efficiency
der
scen
developers
situation
##li
aim
##aa
##une
worth
arm
monit
title
colors
itself
prec
early
visit
electron
ii
##icial
##ison
##ulations
shap
discover
ones
query
record
false
house
price
conscious
background
##me
simpl
processes
experiences
aspect
##ding
##inary
issue
cover
remain
currently
perfect
sett
behind
##ipp
smo
box
push
tree
theor
psy
chr
##izations
chatgpt
maxim
##zz
reality
##igate
interface
approx
confl
symbol
desp
physics
culture
plant
##elling
species
crit
advent
inside
activities
mis
##gen
death
##ived
commit
actually
flu
computing
veget
legal
psych
##ude
conflict
sil
feedback
brow
wel
tom
factor
magic
week
##augh
surv
##aur
operations
##iel
##duct
warm
century
report
##itation
##sole
emb
differences
distribution
batter
drive
students
topic
pip
faster
##pper
hot
##omen
young
ingredients
##go
negative
##hy
iter
ali
##aced
distribut
carbon
particularly
beaut
youtube
mom
##ister
everyone
##encies
ce
yet
subst
complexity
half
tips
var
##ster
conclusion
associated
gar
lives
names
month
encour
50
score
audience
vector
##py
##ges
relationships
ax
towards
sup
accurate
##0s
##etimes
forward
prote
manage
condition
##ration
##arily
salt
##hol
thread
upon
decisions
final
fields
##name
##oming
variables
technologies
everything
vel
##ining
##edi
##ask
console
deg
##uss
setting
apply
drink
ethical
civil
mal
##dom
noise
diet
directly
libraries
##force
##uit
##ina
smart
eyes
ir
stable
desired
allowing
magn
private
healthy
companies
cod
##do
repe
innov
comfort
seg
climate
filter
movement
tax
##soft
involved
consequences
##selves
##list
emerg
wall
reflect
util
foot
commonly
label
sql
shad
ever
fight
coff
phone
certainly
alternative
gree
explor
appear
dataset
resist
linear
entire
sequence
##ops
connection
interested
activity
url
seas
became
infin
coffee
##aim
contains
pair
damage
bir
cro
cos
css
eat
git
vo
##istics
returns
involve
mine
easily
microsoft
pc
org
##umb
reli
electr
challenging
laws
description
df
pet
recommended
##────
instructions
modify
books
requests
sav
trust
##izz
moon
formula
parameters
3d
mel
sometimes
exercise
fine
speak
component
balance
##iddle
##roid
sust
demon
plot
consult
topics
spend
ep
threat
influence
framework
22
appl
active
cast
dise
whole
##ocol
combination
despite
##ians
##ising
##ero
reasons
secure
ded
rich
motiv
flex
##gar
privacy
plants
increased
experiment
sustain
bow
chann
container
implementation
collabor
independ
million
pros
dead
##ended
##rupt
cm
feeling
sched
##rics
forms
graphics
cup
robot
welcome
##uth
stri
wait
mode
199
children
third
prep
execut
incorpor
scal
creates
##7777
responses
mit
que
extract
international
detailed
pressure
##ny
adding
programs
central
movie
specifically
breat
##ensions
greater
videos
token
##unt
outside
flight
journey
chick
##osition
##ought
emph
board
equal
equation
blood
friendly
groups
bur
dir
hi
lines
spl
contact
evol
cheese
increasing
refers
customer
40
mention
clos
sky
ec
##anc
apple
platforms
strategy
fully
crypt
##aming
properly
volume
architecture
emphas
##ners
manip
testing
cloud
##ensity
geomet
origin
mechanics
preferences
master
feature
novel
keyboard
double
gas
##fr
##astic
serve
advice
err
ban
fair
rain
vul
##set
expand
##ruction
taste
taken
bey
stress
maybe
strategies
bott
education
gal
solutions
198
sounds
eggs
nucle
##round
scene
importance
surround
80
##nds
follows
##ception
##ission
eye
national
themselves
##ef
##use
##itary
front
abilities
beliefs
responsible
principles
##ony
nothing
quite
explanation
strugg
party
particles
mathematics
budget
render
##ife
reference
stack
suggestions
##head
##care
##we
##ino
##aged
##apan
seems
trade
openai
depth
settings
moment
##flow
align
enem
guit
famous
camer
japan
##itude
instance
recipe
guide
direction
historical
##eline
generation
ill
convert
beyond
std
developing
finding
capital
organization
opportunities
##atory
uns
regularly
european
camp
mi
##den
piece
core
ly
mental
win
##11
##ands
swe
advantage
spir
revolution
branch
cu
lic
brown
collection
alth
cold
obtain
artic
structures
caused
policy
empire
stock
programm
reducing
existing
radius
bank
##time
##fact
inj
concerns
weak
relig
cru
transport
extre
potentially
battle
risks
storage
##ma
##64
healthcare
existence
angle
##ography
interpret
gather
located
bound
late
od
##enge
##acing
dish
##arian
accuracy
den
creative
creatures
flat
complet
medium
practices
five
vert
##bit
##icious
added
argument
liter
##angle
moving
actual
float
smooth
rise
wild
##sp
##und
##eria
scr
creation
middle
und
defined
default
mid
##right
##rict
##gs
french
##key
generated
members
dail
none
##aft
##oad
##wise
sea
weap
opin
expert
resource
publish
roman
neur
unit
asking
##over
purch
although
##rix
respond
conversation
guitar
transfer
consciousness
aware
mist
##ley
##omp
wrong
attacks
perspective
hit
##gn
##isms
flour
construct
interests
viol
suitable
minecraft
chicken
##bre
##ball
##book
esc
catch
##atives
android
military
configuration
daily
##ament
capac
status
ble
pu
##cker
notes
immedi
iron
##to
##inct
##oting
claim
vulner
began
sho
messages
chemical
dw
##ae
span
technical
environmental
authent
voice
##▒▒
##omic
stars
##ells
successful
dangerous
du
##orial
deli
region
encrypt
favor
road
solid
north
demonstr
ip
prime
solving
websites
gravity
##ta
##iles
connected
changing
supply
pen
hash
advance
equip
economy
philosophy
ox
##eration
##ored
retrie
##ternal
rights
costs
measures
http
gender
##iliar
dry
fat
##change
soon
##ails
engineering
##ativity
##ouch
##reh
humanity
terminal
thinking
##agn
matrix
statement
milk
00
##iting
strings
browser
conduct
enh
fresh
population
##ffer
##ocr
layers
protein
pi
tut
##iation
##ees
##bi
##olf
truth
lost
bright
office
capable
scenari
##ech
##tr
##rial
##ache
goes
amaz
hands
film
edge
fib
##way
rein
pret
valu
eventually
analyze
advantages
vac
mole
improving
promote
approximately
pd
manager
cyber
site
reward
##inder
powers
tens
##chain
whe
bash
student
animal
gir
##uly
section
atmos
decl
focused
latest
##unk
##apter
clar
official
effectively
fem
tour
##esis
ann
coord
relax
germany
kil
rule
##ged
##ellow
ready
hyp
sympt
emotions
die
theories
##opt
myth
computers
templ
capabilities
didn
expression
primary
doctor
talking
greek
season
24
zero
##urs
unc
mob
resulting
diffusion
dynamic
##iet
##adem
alm
hair
compreh
insight
machines
oh
race
believed
labor
##atoes
aspects
ast
eating
sau
##aly
apart
improved
din
ice
release
compat
craft
ment
##gers
##inate
wanted
amounts
circle
capture
alien
60
ut
vast
##opp
invent
allowed
errors
hear
apolog
pepper
recent
played
switch
slight
cit
fel
news
skin
cooking
pand
##dle
##alle
##osit
speech
phr
critical
technique
##plications
##fficient
figure
camera
hero
wes
##32
compil
butter
corr
consistent
##fe
union
phen
causes
##idden
sides
##atically
##ams
meant
compare
feet
functional
secret
contribute
equipment
hat
##iful
chain
usage
launch
##roll
glass
##uries
looks
academ
curve
extension
styles
demand
pieces
sample
separate
battery
gpt
sugar
qual
reading
democr
introduction
exactly
vegetables
came
thus
evil
challenge
president
schedule
##ffe
polit
finish
metal
heavy
menu
45
rat
reb
##urance
anyone
indic
remo
moral
beautiful
symptoms
cp
tables
vill
##eper
##esents
##place
##ously
particip
logic
routine
counter
kill
len
##odes
external
unl
defe
thoughts
represents
##orch
fore
module
instit
installed
static
sentence
philosophical
kingdom
traffic
##ata
##issions
policies
##lection
forest
##izer
becomes
attribut
causing
##frame
voc
##down
append
vision
restrict
exercises
evaluate
mentioned
round
##min
resol
brand
developer
remains
classes
organizations
investment
filled
probability
fant
mill
##lin
dear
##used
peace
below
broad
probably
established
jack
##vas
##erate
##iny
##ifications
parad
layout
priorit
encourage
##son
##ership
assume
classical
##phere
commands
dogs
observ
bowl
23
luck
##orus
signal
christ
maximum
##ging
##ana
asyn
##que
##pped
engage
estimate
growing
photos
definition
monitor
largest
familiar
determined
released
satis
aug
dough
##erv
##erry
regulations
##ginx
reduced
protection
##point
valuable
net
null
##ned
##ope
##iring
stra
relatively
feelings
##████
##ield
fan
rap
##urr
leave
attract
reposit
continues
bias
fuel
motion
expected
tutorial
nginx
russ
##arr
isn
places
tele
spr
paddle
##etical
##ros
##ades
exh
chess
##plies
studies
##ructure
limitations
bul
seed
folder
supports
portal
integer
regarding
geometry
gith
oce
pin
ren
##host
##nam
myself
perm
extra
communities
cultures
scientists
theorem
western
github
32
##hold
##idge
classic
weights
credit
completely
21
aust
fing
ye
##room
##ceed
tend
serious
member
purs
imagine
british
comfortable
bottom
s3
##aving
##ounter
specify
runs
insert
##irm
door
docker
themes
opening
crucial
##itting
##elines
##ums
highlight
infrast
caffe
operation
tensor
apologize
brie
shar
knew
commer
matches
trees
spirit
dial
##bra
##vert
##ibly
touch
##hood
##uits
freed
blocks
received
phenomen
binary
ss
van
deploy
##ogue
medic
planning
situations
synt
veloc
##allel
infrastructure
vit
##rim
##game
##uary
inher
##leg
proced
compar
specified
biases
customers
##where
channel
slightly
gives
hidden
pul
tag
upl
void
wish
thick
alph
units
hyd
hon
mother
##ob
##itate
##amb
bread
shows
contract
answers
stored
updated
disease
via
##onal
##ada
manu
keys
saw
jobs
##box
behavi
audio
gaming
canvas
alge
communicate
stories
capacity
##zing
proof
shell
decide
limits
encounter
giving
adventure
wave
##tt
took
instr
engaging
lights
foundation
subjective
embed
applied
neurons
fro
lu
sus
##ibilities
##xture
underlying
attend
parallel
arguments
horiz
bird
sand
tab
hey
outline
functionality
expensive
syntax
algebra
pizz
yellow
##order
artists
protocol
restaur
occ
synth
receive
girl
atmosphere
density
except
leaves
learned
emotional
sauce
mort
ub
shared
##osure
clim
cloth
sold
afric
diverse
prompts
absol
contrast
personality
estim
experienced
lyrics
27
ven
##odies
##ulating
overview
assign
starts
purposes
harmful
navigate
repository
manufact
discord
lived
south
fixed
##iced
stick
grand
sport
bob
parag
carry
inputs
asked
recommendations
reactions
##etime
unable
appre
cris
practical
copyright
galax
mixture
##wr
##rees
##etch
numpy
profit
optimize
okay
prepare
felt
bab
billion
fed
##pm
ine
poor
justice
muscle
internal
influenced
deriv
divid
rough
went
##ho
##yle
##ided
##plot
assistance
magical
correctly
representation
recognition
jud
male
##uff
##ened
manner
absor
appreci
tv
##haps
##lus
##asy
beat
##amental
shown
apps
presence
gro
sem
sud
##iff
meat
assess
decre
contributions
documentation
fundamental
sweet
az
cab
mir
nice
##kt
##ulated
waste
glad
mobile
brief
ft
gard
son
trou
heard
liqu
keyword
changed
foods
hyper
university
reinforce
cv
ign
##ll
##col
##onds
##ung
socket
moves
lapt
paragraph
##cs
##xic
tow
##sect
truly
income
scre
passed
strengths
frequency
inspired
female
ple
vib
##ios
##rant
##cil
##50
thor
##ingu
chance
reply
geor
updates
reliable
nuclear
template
upload
jump
pig
##icing
onto
comment
chorus
curl
remote
environments
circum
continued
electricity
##untu
citiz
##otes
orient
alco
chur
trig
acid
php
exploring
identity
minimum
innovation
weakness
alcohol
cub
vict
##bles
##yal
##eries
##asure
recip
treatment
discovered
corresp
rapid
native
tail
##hic
##eless
reps
wear
considering
compute
username
accessible
driving
optimization
fishing
forces
stage
##iding
##ference
generating
ideal
automatically
guidance
habit
velocity
born
park
rom
ensuring
tests
triangle
described
##poon
landsc
sustainable
wat
##gon
##80
##ying
coming
wealth
gets
guess
assuming
shapes
ender
ram
uk
##ses
##res
enable
##illa
abst
imposs
perhaps
patient
constrain
vehic
particle
encod
benefit
radio
industrial
degree
26
dol
sir
##px
##ores
##icks
##omb
meal
##ellent
helped
transition
diagn
repair
aircraft
carefully
summar
depart
spanish
##de
##ugin
pygame
career
interactions
interpre
editor
oven
##itter
##istry
france
goods
cars
sheet
argue
farm
sorted
destro
competition
primarily
##process
aid
##erve
sex
bucket
implementing
snack
roll
habits
independent
favorite
academic
abstract
icon
tone
stability
##ested
sharing
frac
##iveness
196
businesses
america
council
distributed
hypoth
impossible
mask
tall
##tes
therm
neut
fruit
##ounds
attach
flag
followed
consumption
raise
##hydr
fantasy
pict
##rad
##lib
##more
town
stir
soil
willing
modified
fear
evolution
simulation
boot
printing
exists
beginning
opportunity
repeat
pizza
##ager
spaces
extend
researchers
substit
degrees
rub
##iers
chapter
mainten
entry
meeting
breath
rely
##fill
ord
exchange
alt
implications
##osen
plt
dataframe
becoming
flavor
agre
maintaining
fasting
coding
enemies
weapons
band
baking
##ama
obst
parent
servers
himself
pandas
cpu
maintenance
wik
##iant
##la
##sem
adult
grid
gramm
animation
seeking
gpu
purchase
dwar
prioritize
cou
cry
cogn
los
##ype
##ued
##orrow
island
##igation
unity
empt
poem
reader
happiness
marketing
parameter
segments
ocean
nodes
upgr
overcome
letters
produced
snow
morning
walking
freedom
ein
san
ten
wal
##orous
##enty
stre
deeper
shor
arri
elabor
swit
breaking
divide
legs
approaches
birds
fasc
##da
suited
##uses
##pping
##cont
experts
specialized
efficiently
dimensions
oxy
36
drop
##cent
ther
rect
leaving
##enses
poll
calend
leader
personalized
trip
movies
chords
straight
woman
##urt
suffer
transpar
distinct
195
breed
cats
achieved
temperatures
george
oxygen
pal
##rier
##osite
prices
formal
engines
views
garlic
retrieve
church
cate
iv
las
oct
##fl
teas
##ensional
##press
197
meditation
calculus
validation
mountain
io
pap
rice
##rt
throw
##eral
##icated
##ague
intel
acqu
outcome
boil
combined
recognize
##going
caffeine
sudden
categor
tact
plane
##coin
exposure
2021
blockchain
verify
paradox
cand
fly
##ression
##tx
##oint
anime
##unning
queries
accom
keeping
economics
cele
sac
##ystem
##10
liber
otherwise
disp
workers
multip
popularity
implemented
chatb
terrain
dragon
collaboration
extrem
expertise
comprehensive
ubuntu
##af
deal
dele
##emon
twitter
careful
cycle
entertain
axis
flexible
split
##weight
religious
ratio
celebr
waves
##lines
##yl
##rel
##omy
##unately
unk
##berry
powered
submit
facts
insurance
leads
concent
standards
afford
references
miles
college
editing
months
##iate
prox
##iration
##cks
shift
intended
##aches
incred
##encing
transact
joke
locations
connections
vectors
wonder
bin
dance
gall
ju
pure
rows
strange
boost
sensitive
efforts
perspectives
elaborate
dan
pages
pix
tal
wolf
##nel
##ening
alone
neck
plugin
worked
highest
outputs
seconds
teams
excellent
detection
article
insights
empty
fiction
##icy
##plish
older
studying
electronic
scenario
unlik
au
##onent
##ora
helping
##0000
regions
handling
choices
vegan
suggests
divers
investing
packages
appears
reviews
liquid
accomplish
eg
jan
sar
women
##gl
##12
chosen
included
basis
signals
combine
interactive
verse
employees
electrical
amazon
fiber
##ris
##bl
##atter
##ename
##rete
noting
closed
creativity
outc
decided
diam
##onding
regardless
survive
supplies
immediately
tutorials
unlikely
east
##gu
##areness
##eli
##ests
##osis
unfort
prem
numerous
##plication
brok
saying
pasta
floor
powder
hydro
james
laugh
sen
##cles
##works
##asp
##connect
decent
laion
characteristics
awareness
mathematic
societ
execute
nutri
puzz
almost
fab
tk
yog
##chem
neu
plenty
intr
##oking
distract
objective
tempor
aws
guidelines
cryptoc
enhance
cin
fict
##ca
##99
thous
beans
orbit
corner
##inese
equival
improvement
delicious
songs
rolls
occurs
birth
##holders
austral
##write
dro
jew
td
##cr
##cript
##itely
chinese
##umin
shall
infect
auto
typing
documents
gradually
simpler
##ancy
published
deliver
cryptocurr
rig
sell
##gb
##bar
##ole
comments
##ried
clock
alloc
workout
poly
classification
drug
paid
driven
paint
principle
golden
merge
accepted
##aught
interpretation
commercial
42
fa
hop
ms
rates
ssh
##vent
admin
plastic
##ief
##asses
emissions
greatly
constit
accurately
massive
illeg
dimensional
incorrect
28
wiz
owner
transformer
opinions
burn
cake
da
fans
rhy
tu
winter
##etes
reve
held
colon
indicate
obj
corpor
trading
introduced
survival
astron
weaknesses
outcomes
dun
rank
york
inner
plans
harder
tried
fulfill
appearance
resistant
satisf
cities
cache
mich
ol
pull
##base
##icit
##ules
##gress
coop
bridge
accel
equations
integration
resistance
license
unfortunately
64
bill
diction
por
##bor
##amin
ongoing
##ado
##agon
impress
strict
spin
genetic
checking
stores
facing
domain
columns
emergency
obstac
extremely
01
dut
mad
##aign
told
excess
shot
resolution
desire
informed
centuries
earthqu
harry
integers
predictions
dreams
remaining
campaign
escape
therap
500
db
ease
mart
pun
##lor
##bing
##bage
thin
reput
scan
understood
193
passion
belief
derivative
laptop
2d
font
trib
##ky
##onic
overf
genre
setup
fox
elim
##phone
writer
meters
movements
essay
route
epic
authentication
constraints
destroy
bol
kid
mol
pipe
##pg
##oke
##outh
##rovers
stim
stone
##ella
displ
technological
lifest
lighting
construction
##cules
managing
2022
##like
nether
##°f
unex
spark
prepar
focuses
versat
optimal
painting
mechanism
injury
cognitive
unkn
crow
rang
rene
wire
##iot
##aper
##writ
##iving
notice
advert
controvers
wouldn
consists
lightweight
performing
containing
trends
territ
domin
spending
phrase
reinforcement
mouth
turing
##db
##°c
stret
clust
adds
assets
signs
greatest
refr
balanced
frequently
failure
fictional
03
dumb
ray
##reg
alb
spell
knowing
crack
agent
hob
engineer
combat
robust
turning
dedicated
pretty
molecules
sizes
##faces
beef
club
##asts
deskt
rocket
joy
schol
biological
difficulty
minimize
beauty
circumst
fn
merg
mesh
vs
##cc
##oe
bear
queen
provider
##print
##pected
planets
courses
branches
psychology
equivalent
rhyth
march
##cho
arth
knight
newton
positions
backup
realistic
links
labels
mechanical
proport
constantly
missing
struggle
gave
nar
sad
##edia
chron
##ustr
scp
scope
cream
settle
distances
194
2020
influential
falling
observed
opposite
opinion
foreign
augment
azure
citizens
h1
rick
##mber
##etary
isol
##cend
onion
chuck
chocol
##antic
notation
mood
##raid
##plicated
warri
swim
availability
turns
##heet
previously
criteria
manipulate
japanese
behaviors
bind
father
##cy
asci
conn
sudo
##advant
fruits
unf
disadvant
pointer
progression
##prise
calm
muse
significantly
offering
turned
datasets
incorporate
surrounding
lifestyle
desktop
300
ber
bact
fusion
kern
##ael
##ki
##zen
anx
alert
myster
brush
plays
crime
subsc
potatoes
confirm
meaningful
discrim
1000
tokens
debate
compatible
resolve
landscape
broken
unknown
lord
##here
##iday
usb
quiet
relative
persist
lists
flav
parents
dependent
impacts
harv
sites
protected
statist
affected
##whel
slowly
monitoring
evolved
cryst
35
ahead
cd
rh
ring
txt
##mer
##file
reform
rewrite
##idents
cancer
depr
atoms
contents
washing
roots
computational
wars
statements
happens
reaching
reaction
flowers
watching
happened
cabin
shorter
illegal
ascii
wings
##path
##inating
##anch
##arant
compile
spot
overwhel
phase
explicit
backend
realized
supported
##ategory
stronger
cooked
analyzing
translate
magnetic
infinite
literature
instrument
garden
renew
chocolate
category
ui
##bu
##bed
##uce
##ptic
una
##entials
controls
pawn
beginner
##oooo
journ
transportation
extreme
circumstances
dot
km
lun
nan
##lp
##eter
##iment
china
##ements
enab
unre
interview
couldn
partial
crim
minor
carro
installation
batch
versions
introduce
attempts
closer
phenomenon
##elihood
kore
##lier
##arm
forg
##opher
gray
afraid
logo
necessarily
alternatives
linked
mixed
drinking
enemy
defeat
finger
##ek
##oon
##wor
inh
##entions
prove
lege
scroll
serving
subt
carbo
typical
extr
eleg
controlled
schem
searching
intelligent
destination
authority
comparison
thorough
grammar
teaspoon
carbohydr
cas
pine
wis
wine
##onna
conve
neigh
aren
served
partner
wants
register
monad
promoting
entity
optimized
governments
frameworks
discovery
minimal
continuous
civilization
lua
alex
hu
hom
west
##can
##ka
fort
assem
exit
##aint
##ighter
smell
flask
webso
blog
concise
widesp
ethics
antib
silver
restaurant
appreciate
decentral
depression
widespread
31
dict
ghost
hang
tight
##tage
##░░
##ref
##imal
diss
applying
performed
sunlight
margin
successfully
##ameter
tuning
periods
nuts
codes
shadow
crisis
dur
fetch
maps
##pes
##rices
##itarian
##arter
##ica
adop
overl
funny
bub
processed
guarant
choosing
surve
professionals
precise
fluid
segment
electrons
threats
clarify
dinner
##feed
border
hous
##iance
##ln
insect
##ares
##ste
whis
##ogram
perce
##ruption
excel
breaks
cleaning
mission
threads
articles
trigger
calendar
wizard
dunge
70
cable
cube
duration
rare
raw
##24
##▓▓
cha
##osystem
lose
spells
finds
completed
producing
severe
prints
titles
fighting
displays
bay
bodies
sight
##life
##dy
meets
spent
texture
earlier
visible
determining
statistics
industries
steam
streaming
gravit
listening
armor
iii
diseases
channels
absolute
baby
bag
cards
mr
six
##cal
forget
compl
##osaur
contrad
speaking
brought
##ertain
listed
consideration
operator
customize
bitcoin
dishes
encryption
advancements
russia
corresponding
33
agr
lon
rating
##yo
##omial
##irect
decor
ends
drum
exciting
mechanisms
tune
indeed
translation
critic
exploration
##────────
##opping
removing
restrictions
horizont
administ
died
pour
sq
says
session
tong
##house
##wind
##vm
##ancing
forever
defines
firm
lightning
sword
speeds
politics
kernel
hes
soph
##ils
intu
unlike
loved
##lock
logical
likelihood
sentient
replaced
weeks
soul
matching
motivated
prepared
ecosystem
immediate
vacu
coordin
ftp
fabric
mas
sod
##lab
##ded
##90
##inations
##ading
shop
guy
ownership
beneficial
drawing
consistency
experiments
mitigate
kilomet
uncertain
sharp
unexpected
bert
echo
vr
vent
wing
##pace
##body
##zer
stuff
selection
arrow
matplot
matrices
polyn
possibilities
monday
reached
padding
shaped
theoretical
tomatoes
pipeline
repeated
innovative
vertical
institutions
oriented
websocket
dj
gift
kitch
luc
##pack
##stand
conven
##ifier
##anted
imper
serves
parties
designs
calls
diab
organized
division
salary
panel
flexibility
mistake
delete
decentralized
gravitational
cb
lunch
upper
##iety
##ban
storm
weigh
spect
feat
boy
ago
artist
confusion
repet
##mmet
##auth
255
walls
cups
delivery
carbohydrates
polynomial
55
##ст
##section
orange
sufficient
trick
ship
loyal
##thern
scatter
apologies
perception
spain
focusing
radar
describes
contributed
accounts
roles
facebook
records
simplify
conflicts
mistakes
wheels
sqrt
si
torch
tiny
##gi
##dp
##fast
##asion
worry
adopt
bund
smiles
formed
checks
practicing
180
dimension
cutting
##apped
holding
##aaaa
cuis
exhib
stretch
bacteria
matplotlib
ben
rasp
##mission
##dir
##vid
##illet
replic
atomic
clients
creature
numer
finance
concrete
markets
characterized
lesson
investors
referred
automated
steel
buying
credentials
alpha
obstacles
boss
lamb
nas
osc
##torch
conqu
consens
disrupt
co2
theme
recently
pytorch
decline
elif
increases
avoiding
summer
gods
represented
ultimate
figures
universal
entirely
cosmos
incorporating
weapon
mythology
democratic
summarize
anxiety
statistical
90
fits
hund
ske
##lers
##idate
##using
placed
##allow
lie
lock
instances
assert
mostly
20th
buildings
objectives
expans
beginners
consuming
mountains
##ipping
tomato
department
street
switches
nutrients
kitchen
dna
pm
##chron
plate
clone
interval
recurs
defend
defense
feels
##hips
args
traveling
nearby
spreads
screens
interpreted
flying
nose
wife
##js
img
compass
manual
##ished
obs
charge
advoc
possibility
memor
promot
achieving
cyl
preference
formatting
integrated
expectations
explanations
iterate
increasingly
doll
cluster
hundred
37
##nes
##itor
inject
alice
abc
creators
amb
reco
humid
former
whereas
curves
transmit
eastern
calculated
tells
digest
furthermore
clearly
##mitt
hunting
inspiration
fluff
crops
breathing
closely
rainb
sports
mirror
juice
99
cel
nation
##3d
##uation
canada
##agram
intensity
ups
bugs
crash
optional
skillet
possess
potter
##curr
operate
installing
organic
header
salad
minute
edges
cardio
garbage
scratch
claims
compatibility
spiritual
intellect
chatbot
january
dumbb
400
rome
sr
tort
##hot
##cut
##ara
##omfort
##rote
##iling
comed
##okes
poison
explo
endpoint
chef
info
export
multiplication
improvements
entities
stands
referring
scientist
digit
##azi
morality
proposed
selected
faced
fitness
britain
adventures
saving
declar
##lusive
suffering
cuisine
consensus
jerry
wav
##hes
##ii
##iver
##security
##urally
incent
dates
coe
##oken
await
begins
court
depict
philosopher
tunnel
failed
vegetable
clothing
galaxy
neutral
michael
cooperation
rhythm
mysterious
subtract
gap
gear
##hop
##89
##code
iso
anom
complicated
##illed
myst
intersection
coast
belong
println
hydr
breakfast
representing
automate
initialize
programmers
violence
vulnerabilities
inventory
estimated
sarah
journal
fert
gent
rogue
sister
tick
##iences
##ping
##rate
##aust
##uate
##att
##enue
reverse
##arts
##formation
interrupt
mainly
metric
elected
reprodu
muscles
structured
significance
suggested
sales
paste
experiencing
opponent
holds
encrypted
scenarios
agricult
02
apt
lad
wider
##rific
##rition
##cel
chest
hex
##aping
disk
colour
relativity
smile
formation
pyram
##boards
##mmmm
batman
brother
responsibility
databases
majority
samples
hosting
rotation
explores
executed
religion
##opped
observations
categories
olive
overfitting
ath
borrow
cels
fle
pil
##pass
##ener
tea
intermitt
generates
computation
productivity
secre
##eshold
tracking
weeke
covered
infinity
melody
vocab
morty
vibrant
disadvantages
celsius
dust
je
lies
ital
plus
unless
moist
recover
worlds
bath
mindful
##airs
sentences
2018
loops
reasoning
definitely
consumer
npm
trusted
manufactur
affordable
hydrogen
cryptocurrency
vacuum
dav
gps
pod
ride
wrote
##iest
##34
##oles
concurr
notable
arms
straw
simulate
remind
marked
drivers
marine
graphql
propos
staying
gradient
descriptions
hung
independence
millions
async
africa
picture
dictionary
washington
gone
hier
kids
##rest
##20
##under
inch
##otic
conject
frag
mexic
considerations
extensive
communism
excited
payment
photo
adapted
emphasizes
molec
suddenly
transactions
raspberry
intermittent
era
ham
sv
##ga
##fol
##vin
##lets
whose
intric
coin
proven
pref
instant
generative
para
endless
designing
effectiveness
metrics
interaction
trial
alternatively
execution
##ographic
convin
precision
reliability
motivation
blend
vulnerable
african
vehicles
sacrific
harvest
expansion
recovery
mur
mouse
ru
tension
##etics
stem
chopped
##unction
ade
cocon
explos
regards
produces
gui
filters
##iano
leadership
currency
arrang
arrays
strategic
immune
automation
tokyo
gained
doub
heavily
football
cosm
medicine
reveal
conjecture
coconut
dense
gun
glow
mig
ps
tc
##ha
##hand
##ns
##jj
##eros
reject
whate
##ulary
haz
mys
interv
##conduct
regul
agree
dependencies
hole
##odynam
increment
accessed
meta
purple
revenue
standing
digits
trend
##poons
rolling
empath
##ugging
slower
gpus
##oxide
##ipped
keywords
recipes
substitute
concentration
criminal
korea
tongue
vocabulary
whatever
furn
mail
sig
##mg
##ypt
##fall
##information
##iden
dece
deals
##aked
##apse
scot
moderate
knows
texts
everyday
warning
similarly
showing
accordingly
##apping
normalization
timest
waiting
kilogram
village
tensorflow
inequ
cv2
ukrain
diversity
egypt
mysql
29
75
bench
lingu
##ui
##uing
beings
deck
##iforn
lean
intention
strain
outdo
seeing
calories
californ
llm
changefeed
legacy
treasure
voltage
2019
superv
anti
raised
attributes
trouble
sexual
##gressive
scholars
34
sie
tor
##map
##wall
##error
##iter
##elength
##roph
stunning
sov
##bert
basics
##cipl
parse
reddit
ergon
managed
squared
validate
##value
happening
nutrition
rotate
army
proteins
##holic
occup
flavors
lambda
bake
eb
mold
wit
zone
##my
beach
##iger
shakes
login
contem
scar
worker
opens
recording
asset
crust
filename
looked
confident
protagon
##ommod
analog
catholic
driver
snipp
wordpress
superconduct
commitment
banana
exhaust
couple
versatile
album
kilometers
california
bb
bio
lots
pir
wa
##mark
toy
##stream
pron
atom
ardu
composition
##api
gov
quarter
desert
gene
acts
startup
accommod
possibly
communic
leaders
answering
mush
airpl
skilled
calculation
contributing
gradle
competitive
discussion
specifies
teaching
gpio
neckl
thousands
renewable
insects
caught
giant
kwh
slic
tape
v1
toler
##iture
isa
italy
##umes
febr
outer
conserv
generations
patent
decimal
corn
signature
swallow
calculations
##backs
configure
satell
regarded
evaluation
aims
symbols
batteries
dedication
licens
injuries
procedures
honest
divided
papers
cylinder
gentle
secrets
bass
##fare
##king
##kit
##zy
datetime
modules
##acon
##acle
symmet
consume
curious
correl
involving
organize
inflamm
putting
shoot
cybersecurity
australia
coordinates
intellectual
february
selling
tes
varies
##ba
##yr
##ws
##ро
##rooms
asia
##ida
sund
##iform
##estic
seven
resume
comparing
gran
percent
emit
humor
variations
joint
##text
artif
fewer
connecting
organisms
identifying
conversations
circuit
horror
tactics
antibiot
hesitate
italian
44
ah
bell
foss
hall
href
pounds
##onym
inp
##essor
##ifts
sept
##izable
intake
roast
joe
studio
extensions
protot
repub
subjects
robots
bottle
timeline
struggling
deployment
yoga
constitution
rac
rings
tale
wake
##pipe
##case
##ya
usa
enables
pool
folk
regulation
polar
ending
dress
##phony
confidence
##ront
telling
sends
educational
raises
distributions
##▒▒▒▒
demonstrate
neuro
wisdom
arduino
duck
ga
kar
##ele
##vious
##56
##igen
##ria
intense
composed
moved
sphere
recon
diameter
controlling
selecting
barb
mixing
##yme
epis
attribute
galaxies
huge
artifact
september
bold
dash
gm
ni
na
ore
##za
##uber
##ini
aside
annot
alter
##agement
##peare
##unte
uniform
##gression
grain
modeling
partners
invo
processor
solved
charged
runtime
england
19th
##brid
musical
reflection
activation
volunte
latin
##client
continuously
concerned
traits
scalable
banks
wheel
pursue
rapidly
incredible
drugs
faith
dy
fault
losing
nlp
##wd
inqu
onions
##urg
chlor
##ptions
unne
obvious
warfare
realize
equality
metaph
passing
cultiv
portion
##777
radiation
urban
kinds
separated
mercur
derived
factorial
odd
authentic
pdf
carrots
48
nich
pill
zip
##etically
sta
##igating
proc
##ifies
haven
enforce
shopping
willi
fees
anywhere
coverage
##aria
lift
minister
longest
sheets
fried
paths
##ynth
transformers
presentation
frequent
respectively
greet
assumes
dynamics
savings
emphasis
capitalism
dialogue
federal
wikip
pollution
museum
diabetes
shakespeare
jim
penc
##icep
##ango
heap
heating
unw
logg
appoint
bron
simplic
fluct
gameplay
calling
dioxide
sincer
profound
famil
biology
automatic
holy
danger
dangers
committed
seasons
blender
telev
seeds
yeah
roughly
transparency
gallon
assemb
chaos
timestamp
soviet
ergonomic
protagonist
isaac
simplicity
3000
kick
pitch
rational
##ray
##но
##che
##aker
##pling
##osph
wearing
arise
kept
accident
flash
blind
extended
visited
supporting
reduction
directions
scripts
identified
traditions
hybrid
measured
propri
recognized
mutual
manipulation
dinosaur
removed
decrease
entertainment
unreal
wavelength
intricate
wikipedia
47
62
cow
jul
ts
##page
##tuce
##coming
##fu
##inity
toxic
inches
##isl
##ett
##char
##imp
compress
lettuce
decades
medication
returned
memories
ensures
electro
serverless
engineers
localhost
paying
malicious
utilize
collaborate
evolve
##processor
refresh
hierarch
murder
bish
bond
herm
lemon
##peg
##aks
compr
##gry
readers
batt
lessons
headers
deeply
2013
transformation
negot
panels
convention
attempting
##77777777
illustr
compiler
participate
alphab
pleasure
hypothetical
adults
temporary
horizontal
numerical
republic
unnecess
ack
rod
x2
##pir
##60
##oup
##chang
stages
cherry
##illing
sole
arc
embr
fold
aggressive
keyboards
police
markdown
slice
gluc
collapse
debug
collected
destruction
johnson
funding
teacher
shaping
brows
geometric
proxim
prefix
sincerely
cere
hurt
nations
pose
sed
##88
asks
##idth
##igue
##thr
alive
spring
##ishing
offline
exposed
containers
physic
explaining
inflation
sungl
150
alternate
##forward
sensor
sensory
cooling
emerged
evolving
vacc
photosynth
##████████
earthquake
bayes
tcp
bpy
eager
ion
nested
pound
png
ze
##men
##com
##22
stom
##ago
##umber
##rian
shut
##appe
allies
##acion
actively
cheap
auton
drain
studied
divine
posts
princess
angel
philosophers
reasonable
##aneously
expressed
expressions
magnet
cryptography
##options
phrases
christian
troubles
wiki
housing
##window
humidity
aster
dos
mp
mars
nic
narr
p2
pon
tip
um
yam
##ja
##uel
##oust
fork
orth
wasn
##acent
grab
ampl
##ipher
pepp
##orders
##cio
regulate
advers
ended
offset
corrupt
esp
calculator
protecting
debt
nearly
discussions
grew
inspire
chemistry
relaxation
finished
vitamin
tower
pixel
diamond
excessive
augmented
discrimin
##stein
intuitive
convenient
comedy
inequality
glucose
777777777
jane
thri
##eras
##inks
rewards
##olves
chances
##opl
impl
shel
meals
arab
grams
discipl
functioning
twist
owned
insul
delay
volcan
2015
ethere
2000
greenhouse
conventions
precip
maximize
psychological
apartment
bullet
vehicle
orders
societal
jewish
reputation
dumbbell
adequ
mercury
proprietary
sunglasses
gut
ips
tiss
x1
##nis
##lam
##30
##ups
##то
##inent
##esth
inference
forced
##iders
anth
proceed
##abil
enth
seat
prone
hearing
resize
unus
compelling
spat
threshold
twice
larg
retain
vec
reduces
physically
angles
falls
sensors
integral
integrate
facil
consistently
turkey
macro
picking
chrom
castle
surroundings
amazing
satisfact
tags
embedding
synthetic
cubic
contradict
777777777777
lac
lux
rent
ti
wet
##now
##med
##b5
##fri
##chuck
susp
seism
##apor
respir
pars
profile
safely
measuring
symphony
discour
filling
observe
adjusting
woodchuck
hitler
utility
glasses
democracy
phenomena
inherit
restaurants
puzzles
controversial
legend
bubble
dungeon
src
anomal
furniture
snippet
bes
fate
fake
gases
gonna
hik
nft
piano
xml
##dm
##edict
##icon
##entine
stead
##akers
unpr
boat
retail
corruption
##ifying
performs
190
squares
responsibilities
reaches
preser
biggest
defining
imaging
schools
programmed
shoes
rewarding
coordinate
absolut
fascinating
transparent
thoroughly
ukraine
unpredict
fash
gt
jun
wed
##off
##field
##15
##oned
##anes
##itors
##omple
forums
stake
exception
doors
worse
placing
disappe
simult
relief
transmission
owners
calculates
mapping
naturally
displayed
analyt
##lands
conversational
consumers
loading
smoke
peter
casting
cmd
rendering
august
algebraic
romantic
upgrade
therapy
fluffball
families
38
65
eight
gate
hide
##hr
##spe
##mar
##aud
##ji
##92
##inated
tofu
##stack
station
shock
##osity
fry
##usi
league
resid
##apes
##asters
phosph
computations
directed
professor
recommendation
grows
freely
addressing
maintained
copper
balls
receives
emotion
sequences
greece
saved
heroes
politic
fingers
venune
arthur
explicitly
adopted
nasa
fertil
unnecessary
largely
fashion
011
600
award
bc
cort
cart
ff
honey
mint
rl
ws
##mon
##water
##16
##xx
##onents
##oral
canc
##estate
##active
##plements
worst
##ander
resil
##aching
quad
##acci
##gres
covers
percept
desires
wrap
inval
advis
believes
logs
catal
affirm
farming
offered
clicking
joining
dynamically
shadows
schedul
emphasize
dividing
agreement
societies
crystal
pineap
oscill
tesla
seismic
bible
bomb
dub
fats
kit
mall
tries
##hen
##och
##vi
##vable
##inst
##eto
##ithm
orb
##abol
hack
##osp
resized
buffer
populations
eucl
cellular
succeed
marx
sorting
darkness
emails
mutex
timing
fourth
scenes
motivations
indicates
ssd
behaviour
encoding
dwarves
talent
hobb
subscrib
neighb
enthusi
##friend
54
gin
hay
ich
lion
lag
tsp
vote
##hz
##rine
##65
##ena
youth
##sey
fract
noticed
unco
compression
##ogen
apoc
amd
indo
relate
findings
advances
methane
##iances
surprise
entre
restore
combining
sitting
reactor
drawn
fastapi
##isticated
conversion
reports
speaker
prosper
boundaries
##inguish
jumping
iconic
mathematician
ranging
advertising
conquer
depicted
##element
apocaly
69
bark
bicy
fis
fizz
jail
kg
mc
ow
vine
##pre
##link
##ни
##aten
##ette
alright
dealing
ench
##ills
plain
pra
moreover
feas
##berries
phones
whenever
finite
classified
multipl
120
##script
2017
angular
observer
captured
initially
turtle
convolution
measurement
rotating
applies
illness
vulnerability
crafting
spray
tailored
multiply
eliminate
convey
sophisticated
rainbow
agriculture
empathy
scott
proximity
photosynthesis
precipitation
2x
aqu
cash
lor
nest
rou
tile
vamp
wu
##hal
##rary
##70
##onacci
##itable
##isible
##riers
trail
reset
uncon
compose
##ava
grant
indu
curv
polym
elastic
cores
resulted
easiest
applicable
surfaces
visa
printf
biased
initi
lasting
immers
ancest
holes
assumptions
misinformation
civilizations
reflects
strike
frontend
penal
asyncio
russian
instruments
grown
pictures
incredibly
mathematicians
stimul
compassion
weekend
acknow
respiratory
absolutely
simultaneously
67
dv
horm
hars
homes
jokes
keras
lumin
rpg
tough
##pet
##tons
##ть
##iner
##asazi
anasazi
como
##ems
##ckets
##opes
scores
cock
overhead
prehe
instinct
generic
acting
twe
param
arts
films
##books
portug
rising
storing
preventing
describing
preferred
normally
adjusted
employee
measurements
aimed
visiting
ceo
substance
banking
demonstrates
pretend
qualities
motherboard
ignore
distractions
narrow
warriors
enabling
casual
prototype
troublesho
asteroid
63
bun
fm
faces
lake
lond
mk
nvid
overs
rs
sized
tan
##hh
##ez
##lig
##mp
##bby
##13
##ли
##ione
##sters
plates
perman
instruction
opened
engaged
infring
operators
expenses
explained
customization
courage
regularization
affects
authorities
holiday
essentially
priority
electronics
sustainability
momentum
yeast
dialect
procedure
frozen
protocols
soldiers
##connected
infections
chronic
moisture
ethereum
invalid
london
nvidia
ba
ctx
dice
fav
ken
ner
nerv
pac
sre
##kes
##orph
##vember
conj
##the
contest
commod
apis
genres
november
recy
shoulder
followers
subsequ
specifications
cave
warming
smallest
determines
docs
2014
sorts
photography
absence
recorded
tomorrow
##aughter
programmer
latex
institution
absorb
encoded
snacks
proxy
bolt
territory
overwhelming
guarantee
mystery
##restrial
television
hiking
curvature
harsh
dys
h2
l2
oz
sick
wise
##lined
##bel
##width
##uk
##erb
##ouds
##entity
##ola
##uls
##erson
##uning
seal
sect
une
unic
unint
incident
manif
syd
rose
royal
underground
invention
##cia
decomp
completing
mining
guard
typed
election
meanings
metabol
contained
ports
typescript
sentiment
supern
norms
receiving
integrity
doctype
chrome
labeled
pairs
obtained
compiled
medications
ruby
dwarf
##world
elegans
regulatory
bon
bonds
diced
paced
tank
##mod
##82
##kin
##iled
stro
##ims
##ador
##ema
##opol
prison
compact
incomple
interior
interfaces
conspir
emper
boole
variation
elli
extent
dipl
operates
protest
revers
calculating
argued
quantity
superior
propag
sending
adjustments
navigation
executive
encountered
recipient
arrive
puzzle
paintings
astronom
marty
isolation
inhab
django
david
unpredictable
sydney
mild
nick
pump
##ril
##cast
##ois
##adata
##essage
##umps
uneth
clouds
grilled
pear
curs
charges
parry
herbs
mete
certific
founder
founded
scripting
enters
animations
requested
treated
2016
##ometry
firewall
macd
tablespoons
killing
judg
inflammation
procrast
peppers
unethical
04
05
59
gam
july
kram
ml
nn
riding
vp
##85
##fc
##fo
##wu
##wood
##ota
##urd
prol
##agger
abund
uncle
arbit
quote
##ounced
generator
differently
patience
ages
distur
engagement
termin
metadata
widget
similarity
contexts
travels
influences
draft
##cloud
tuned
consumed
rotated
aliens
irrit
explored
strip
scalability
originally
chemicals
waterm
diagnosis
straightforward
wolfram
##cending
uncertainty
proposal
sliced
annotation
nervous
boolean
diplom
kramer
fif
les
lid
pace
pink
zomb
##rup
##lie
##oj
##fin
thir
toward
asleep
##agers
chic
##anger
spa
##berg
pho
##ologists
forming
agi
guix
locate
centers
caps
prize
##exception
dried
similarities
origins
marcus
virus
interacting
addresses
audiences
microw
postgres
targeted
arraylist
sleeping
seemed
##ropri
achievements
occurred
presented
rocks
macos
distribute
alignment
winning
vertices
vertex
manufacturing
preparation
warrior
dissol
adoption
contempor
unusual
800
jug
oun
rid
rum
wi
##ship
##pher
##names
##fit
##kell
##wich
##va
thumb
toys
##edge
##rew
exceed
##agen
usr
enz
incoming
##ieval
manually
grade
prey
genes
endurance
medieval
activate
publicly
appealing
archety
printer
steak
microcont
##heim
opposition
imagination
funds
suppose
acceptable
boxes
approxim
struggles
candidate
acceleration
dollars
manufacturer
sacrifice
insulin
convolutional
cute
gest
gently
jup
june
mos
sle
##iar
##cling
##dings
##data
##ua
##oted
anarch
##adian
##essions
unlock
##ource
wash
##aven
modifications
haskell
knock
amend
peel
pole
relation
pythag
sourced
caution
seeks
dram
drinks
inspect
prominent
keeps
connects
certainty
organism
assistants
discomfort
##bsp
americans
##what
friendship
establishing
collective
hunter
treatments
dreaming
bedtime
translated
symbolic
substances
irr
surrounded
wildlife
inherent
einstein
rigorous
dutch
earthquakes
racial
william
pineapple
uncover
blow
dx
dar
gn
hers
ih
jar
jet
yield
##band
##dh
##atural
##ald
##utton
chili
##aine
##unc
shif
shower
meow
adm
reson
somewhat
closing
apples
coins
spher
overr
peer
bool
accum
lifetime
192
planned
visually
promising
heads
algorithmic
2010
landing
##aws
viet
employers
fails
179
universes
simplified
magnitude
sqlite
executable
broader
highlights
suspect
plugins
premium
perceive
administr
cosmosdb
##odynamics
adequate
steady
hobbies
entrepr
a1
eld
hits
iphone
jung
nil
nap
witch
##iable
##ras
##bn
##kel
##eted
suff
##ateful
chile
seam
##orean
ads
compound
compens
quotes
spoken
playlist
listview
reminder
decrypt
avoc
distant
mini
readable
promise
sunset
investigate
sentience
enterprise
barrier
satur
evaluating
dragons
speakers
strive
conducted
fibonacci
vocal
observation
memorable
mexico
assembly
satisfaction
phoen
contemporary
07
58
76
hub
mamm
p1
ton
wow
по
##pus
##rum
##car
##function
##ра
##ет
##ль
##ndr
##itis
##omas
##utes
stated
champ
trim
sender
pricing
acoust
disag
##lude
matters
shouldn
##raw
signed
caritate
vegg
meter
refine
explains
##onda
##athers
##bsd
enjoyable
titan
photograph
detected
occurr
separation
horse
adventur
supre
malware
infinites
forests
contracts
occasion
hypothesis
altitude
laser
tkinter
yogurt
##chemy
fulfilling
proportional
repeatedly
hydrated
sigma
december
herself
entreprene
43
aesth
cn
dent
hen
mdr
naming
sib
tel
tap
##hib
##mal
##mas
##burg
##fish
##esco
ist
##uts
##oder
complications
sections
frank
friday
pruning
##elled
soy
unst
##ustration
gobl
quit
interm
newer
##oked
rooms
simulations
openbsd
downs
##phones
yearly
monkey
deviation
networking
drives
combines
tradem
squir
lowest
2011
appeal
blueprint
routes
authorization
employment
bringing
centralized
manipulating
##ompan
thickness
orientation
victory
impressive
##writer
lunar
##worth
incentives
coefficient
pilot
outdoor
mushrooms
conservation
naive
inquir
emperor
meteor
phoenix
goblins
39
daughter
gb
gri
hr
kin
lou
lis
pent
river
tro
uwu
##rd
##rich
##55
##orian
inapp
forum
forec
##uris
##imals
##ersion
##ados
##antial
incon
buttons
cli
anymore
grace
coher
spelling
##ipse
poet
fool
humorous
smith
smoking
1024
offs
earn
potato
calor
providers
controller
metals
tested
capability
legisl
viewed
##aze
replacing
base64
randomly
##class
soup
hunt
heavier
spreading
discoveries
approximate
constructed
compilation
vanilla
horizon
switzer
octo
multiplying
celebrate
jewel
cbd
loyalty
anomalies
vinegar
acoustic
inappropri
switzerland
46
biden
f1
hus
loud
ome
rtx
sought
tack
zuc
##pan
##event
##nic
##netes
##mpeg
##button
##86
##ku
##ва
##ales
##itivity
##aka
shield
franch
interf
evapor
commission
disorder
disorders
##ologist
requiring
actor
textual
##aterial
corners
caes
surpr
freezing
showed
investigation
fastest
anglic
lengths
definitive
saturn
collector
converting
losses
circles
nearest
falcon
pushing
aligned
almond
mentors
embeddings
sandwich
exceptional
climbing
attached
thousand
acceler
merged
swimming
berries
soda
##author
satellite
fossil
browsers
besides
stakeholders
ffmpeg
october
cout
gd
gym
kel
merc
rut
sd
trop
zoo
##ey
##vation
youn
##state
req
regression
prose
alle
debr
cham
usual
fraud
lib
intim
tender
##idean
grateful
coat
preprocess
workflow
simul
##lectric
##uba
polite
joined
minced
blur
pointers
countless
swing
##type
eru
portfol
approached
responsive
weighted
godd
preserve
floating
harmony
fitting
experimental
hearts
supposed
teachings
silly
reporting
##listener
unsure
peaceful
paddle1
paddle2
synthesis
decreased
cinema
berlin
reforms
enabled
changefeedprocessor
antibiotics
fluctu
inheritance
euclidean
conspiracy
debris
66
a2
apl
hint
hosp
ios
kuber
lst
lens
lighter
mes
mong
ptr
sessions
##sen
##gun
##oh
##obe
##zed
##ко
##entina
stere
stuck
anonym
##verty
implies
enum
lever
primes
heal
healing
scaling
modes
fears
recall
poverty
developments
accompan
patients
regional
agency
retire
cheer
cheaper
##phr
confused
##issance
estate
batik
bike
portray
worksheet
##lessly
updating
exclusive
volat
graphic
replies
##anny
accountability
harmon
drawbacks
circular
##apper
northern
reported
monthly
robotics
burst
templates
qualified
sprink
australian
reputable
dominant
knights
persistence
durable
featuring
stretching
##chronous
molecular
percentage
bronze
bayesian
lagr
bicycle
supernatural
infinitesimals
jewelry
zucch
anglican
younger
kubernetes
bil
bacon
cot
crop
nit
##position
##fire
##itively
inac
##asm
##elon
stones
##amps
##olds
tril
shr
reser
unauthor
##outs
teeth
somewhere
modification
sys
apache
spam
partition
relies
foo
invas
patch
solo
complement
distinguish
sketch
blank
##roller
designer
passes
determination
investments
packing
ethan
traveled
booking
introducing
centered
collecting
##ymes
fundament
visualize
respectful
ingredient
utilizing
crown
1985
purchasing
villagers
participating
hyperpar
ordinary
birthday
duty
settlements
forgot
administration
lucid
declaration
pyramids
dinosaurs
solely
anthrop
wupped
unauthorized
68
awards
fell
fought
fission
hls
ped
rab
##hi
##bul
##oved
##wide
##vis
##ны
thro
##inction
##oning
infer
##omagn
##start
trap
enlight
frames
dobby
##udes
mox
syrup
disaster
percy
##ounce
themed
pregn
remov
polish
elon
builds
signaling
artistic
drums
##linear
profic
existed
argentina
morally
##anned
bigger
##while
planting
##ields
cmap
expanding
declared
launched
transitioning
chatbots
hoping
preparing
exhibit
hungarian
migration
pirate
communications
accidentally
stomach
thrive
volcanic
favour
unicorn
inappropriate
caesar
bands
fou
hem
iq
ls
mri
ran
vsc
zu
##tar
##comm
##ania
##ingly
##rection
##ollo
##ido
##ulative
suits
usestate
neither
fred
doe
lepro
intent
##ached
##ogonal
april
examine
coloss
fung
genu
brings
instability
worldwide
relie
patches
poland
elaine
guides
extens
evening
warrant
realm
counts
topological
economies
determin
harass
stats
singular
viewers
shortest
snaps
excit
breakdown
motor
formats
affecting
detective
predicting
damaged
hunger
visualization
replacement
doctrine
perfectly
misunder
footprint
scales
spirits
##ompat
duplic
fatigue
invented
##array
walks
transaction
therapist
hobby
subscript
extrater
##label
recursively
convince
cosmic
revealed
sunday
artifacts
comprom
##through
orthogonal
preheat
arbitrary
supreme
leprosy
fest
mand
races
wond
xbox
##40
##count
##°7
##inc
##oni
##alities
##asant
##uto
bears
##oline
anat
##ods
##thon
##agues
haw
worried
##uda
liver
teen
grat
apollo
displace
##arious
bra
craw
lets
offic
carrier
methodology
visits
metam
tempo
bios
portra
maze
quantities
authors
addressed
pressing
##pool
remembered
18th
firef
converted
assumption
encouraging
irre
taxes
shaders
dir1
1980s
odys
dwight
atmospher
indicating
asynchronous
seriously
frost
evolutionary
agreed
rectangle
infection
punct
neighbor
ecosystems
inpaint
yaml
jailbre
router
watermelon
goddess
gor
hil
hpipe
jose
lect
oat
votes
veter
##night
##cm
##17
##orious
##anas
##chet
bend
##uristic
oracle
struck
##grad
col1
indices
foam
webpage
planes
readability
beta
proton
encode
structural
entries
slam
slide
fuck
nonlinear
landroid
representations
entered
enjoyed
kindness
synchron
tunis
loaded
gaining
bedroom
moments
substantial
manageable
conditioning
electromagn
extracted
burning
closest
fairness
smoothing
annual
relaxing
photoshop
rena
shares
clothes
citizen
punish
settlement
overwhelmed
staff
procrastination
stereot
extraterrestrial
08
aer
bou
hur
hire
hiring
ln
nail
pse
pets
rn
tensions
welf
##laim
##crib
##35
##uity
##ona
##enn
##eding
ingest
##isol
##eld
rephr
shake
##illas
plug
abuse
clo
interconnected
disable
func
bug
appar
boots
informative
lifesp
aviation
beloved
confusing
counting
behave
severity
certified
devops
revised
storyt
treas
##poch
2008
entering
harmonic
absurd
varying
johnny
terror
frequencies
normalized
pcie
mitosis
revolutionary
stocks
midi
pued
solidity
mentor
estimates
diamonds
crowd
scheme
overlap
sodium
supervised
battles
ipsum
immersive
manifest
portfolio
fluctuations
renaissance
pseud
welfare
ay
ct
ctr
gc
jpg
mim
##sk
##bm
##47
##fan
##war
##33
##uous
##onts
##itudes
##arial
islam
##oten
##ura
cone
cant
##agu
usd
proud
##anda
sci
##keeper
knife
handles
directories
llms
suggestion
difficulties
brothers
lawy
targets
##autions
adjacent
accountable
negatively
feeding
limiting
vii
ruler
configur
panic
competitors
employed
evaluated
buddh
precautions
psycho
encourages
dietary
filtered
modifying
cruel
completion
brightness
participants
carrying
stirring
corporate
kidney
ghosts
perceived
compliance
promotion
roasted
autonom
affirmed
apocalyptic
fisher
elliptic
certificate
chicago
microwave
intermedi
cbdcs
vscode
colossal
79
bones
cure
gig
hence
jes
lp
nine
pax
rails
tied
tube
zo
##yy
##jit
##zilla
##esome
tol
##icul
isab
recept
stal
##ami
##igm
prohib
##irical
frustr
##izers
aband
arithm
creator
disconnect
buzz
indirect
appet
basil
braz
wrapper
##cience
caut
hook
learns
membr
equipped
elem
clever
llc
awesome
restart
colorful
managers
legit
glut
optimizing
pressed
graphs
essence
transformed
latte
viable
sensitivity
prediction
capturing
facility
hosts
hosted
employer
domains
##umbled
richard
boundary
publishing
violent
conducting
##namon
interpreter
thermal
willingness
upgrading
cinnamon
discrimination
legends
mindfulness
airplane
licensed
invoice
embrace
feasible
cockt
pythagorean
avocado
09
52
82
bows
cze
eq
eps
epoch
pok
zeros
на
##ij
##sm
##table
##greg
##wt
##ла
##ano
##arn
##elope
##ilty
##thread
##istant
shells
resc
##ellor
mane
##gram
desk
workload
paris
skip
factory
guests
laid
monetary
equil
organizing
suggesting
headaches
demands
127
busy
marketplace
trek
snake
euros
microbi
payments
colleague
##heets
definitions
##byid
adaptation
adaptations
discussing
respective
17th
passwords
filtering
reflected
sweep
interpretations
shooting
roads
tablespoon
christmas
highlighting
climb
assessment
streets
breeds
cryptocurrencies
msg
corporations
spectrum
spreadsheet
arrangement
hazard
necklaces
politicians
pacific
trademark
poetry
kelvin
inaccur
atmospheric
paxos
arithmetic
brazil
czech
73
dens
jay
mx
wax
wins
y1
y2
zones
##rated
##lich
##max
##oop
##ford
##kg
##ju
##ло
##erget
##onge
##alchemy
starch
ash
ans
deez
##river
enfor
energet
weaken
arist
compost
clut
##epth
perse
sponge
##iph
overflow
robert
recurr
transist
safer
ell
chees
mineral
coral
guilty
##etyl
supportive
writers
bloom
airflow
encl
simplex
colored
oldest
##ecd
optimizations
strongest
blocking
##screen
godot
copies
urg
formatted
fallen
captain
integrating
crossb
missed
merkel
greens
listener
wooden
sqlalchemy
croat
crochet
eaten
independently
executing
expanded
galois
licenses
gathering
scraping
neuron
duke
vacation
clarity
permits
pursuit
girlfriend
absorbed
masked
liberty
entertaining
purely
pixels
schema
hundreds
reproduction
lady
pyramid
authenticity
pencils
folders
adversarial
spawn
enlighten
ctrl
cautious
77
bould
bone
cipher
fax
gains
ibase
mate
nd
pic
rp
rar
rush
tie
vin
wolves
##hog
##pa
##rus
##km
##14
##19
##ри
##atar
##itage
##arse
##aser
##amic
##irable
##aded
##istan
neon
trails
seats
adapter
intentions
compos
compounds
crew
acetyl
feathers
grains
perpet
serial
brah
foster
variance
subpro
aval
parser
distort
offensive
classify
designers
evenly
multiverse
productive
harness
likes
customizable
nextcloud
viruses
releases
behavioral
lastly
predicted
ruled
colleagues
occurring
circuits
downloaded
##liament
##holder
hypoten
rounded
##color
clubs
proportion
replicate
celest
niche
conventional
alphabet
discipline
luxury
disappear
lorem
inconven
retirement
sprinkle
displacement
lifespan
tolki
pokemon
3x
cad
dies
fp
fet
jer
pere
sant
tik
tbsp
##ht
##how
##sis
##ped
##rations
##rane
##date
thomas
##inery
##alysis
##itizer
##render
##idian
anecd
withstand
chanc
tricks
notifications
intensive
unm
addevent
consent
valley
wrest
playful
curse
specifics
district
factual
guys
softened
swift
diagram
writeline
affairs
plato
##azz
tablet
circul
2007
documentclient
sams
opposed
stopping
compete
domestic
alongside
historic
pipelines
irfan
unsu
mythical
permission
permissions
laptops
paragraphs
1955
boiling
scanning
passionate
versatility
connor
##░░░░
scattered
witness
tolerance
dosage
cortisol
quadr
fifth
postgresql
husband
excitement
firefox
storytelling
enlightenment
tolkien
addeventlistener
irfanview
78
95
bing
cough
dual
f5
gaps
hate
hip
jog
lub
nails
om
oauth
pit
pier
sne
ta
##pie
##tic
##dc
##child
##igar
##odb
yours
##rika
tricep
shiny
lev
plag
##ppings
tends
moder
spac
peak
noble
brut
relu
firstly
parliament
heritage
lightly
muff
reads
swiss
concert
temp
testament
##ronut
researcher
furry
128
showcase
freq
packed
strongly
marley
governance
presents
immense
##ameters
latency
sampling
loader
descriptive
southern
counsel
turp
historically
priorities
smartphone
experimenting
originated
nucleus
##space
theorems
agreements
laughter
tribes
destroyed
territories
crystals
##cala
digestion
linguistics
folkl
unwanted
shelter
irrational
saturday
entrepreneurs
electromagnetic
microbiome
energetic
hypotenuse
chancellor
samsung
96
bod
boring
gates
gimp
hedge
mb
rival
tent
tilt
taught
v2
zack
##punk
##cers
##found
##isely
reign
##urning
exagger
deple
##illance
leverage
unified
modular
##acies
##assistant
overly
workplace
india
##lov
brave
variant
##onsist
decay
larry
returning
##rows
infr
locally
redund
meanwhile
printed
checkout
passive
customized
squats
glue
optimizer
##iku
graphical
lands
urls
2009
bald
collaps
captiv
256
recognizing
flower
educate
walked
mutation
universities
navigating
pipes
hotel
melted
cameras
scrap
coordination
rebell
oceans
suscept
synthes
wealthy
thermodynamics
campaigns
surveillance
ventil
##standing
tunneling
necklace
episode
amendment
downsides
portrait
peregr
56
bg
bought
cul
golf
hamb
ns
nom
nod
nba
punk
rit
vital
##iat
##lings
##fuck
##vs
##ici
##eliness
##stone
##style
##cha
##chan
bee
##search
##idad
dehydr
chart
weird
residents
unt
tex
inclusive
dating
amet
disapp
spices
valentine
openassistant
charlie
trains
optic
subtle
correction
blu
drama
accessibility
checked
profits
breast
versa
slot
combinations
delight
challenged
##player
2005
barriers
glob
tracks
##beat
converts
leds
authorized
sequential
streams
failures
watched
macros
civili
simplest
remained
emerging
utilized
queue
bleeding
rebu
defeated
observable
waters
diagnose
tallest
extends
relying
acquire
rigid
allocation
workouts
colonies
astronomy
dictionaries
advertis
cracking
whisk
ratings
criticism
coeffic
molecule
##marks
tileentity
permanent
microcontroller
mammals
lisa
tackle
genuine
croatia
celestial
##ronutri
infrared
peregrine
civilians
bt
bored
cunning
cigar
das
damp
fer
hog
kan
kiv
sigh
tire
viv
vice
vivid
##ships
##no
##number
##tb
##lim
##gy
##aus
##ypes
##fly
##ket
##18
##37
##ре
tox
##eling
forth
##imm
orch
##ifiers
chains
##unting
trait
##angian
resem
liam
loose
inconsist
scra
anyway
adder
brands
simulating
shoulders
wanting
flame
personnel
backward
carried
freeze
expon
companion
descent
este
customs
minded
achievable
##ruit
corrected
avoided
releasing
volumes
2012
barter
cleaned
gloves
detecting
configured
satan
facilities
opponents
empirical
cuts
inspiring
silicon
repeating
involvement
trustworth
consulting
appliances
8080
enhanced
comprehension
foreach
institute
commerce
honor
venue
assigned
pigments
flags
distinctive
throws
colonial
##oelectric
monads
glowing
airplanes
physicist
tissue
multiplied
stimuli
troubleshooting
contestant
decomposition
inhabit
suffix
lagrangian
quadratic
folklore
coefficients
5th
72
85
dess
fonts
mm
mun
ross
riff
tf
tac
trol
tiles
wick
xor
yo
##ias
##gas
theft
##esc
##organ
toppings
##eds
inex
##rels
##uting
##idable
angry
##oding
alarm
##emade
trace
##osh
adam
pride
clin
mock
grass
needing
idx
instagram
codebase
relat
differentiate
invasion
curved
curls
aging
agents
agencies
runner
joh
improves
sheep
everywhere
mont
equals
swed
operational
responding
encomp
ordered
awe
futuristic
ethnic
representative
immort
2001
affection
verb
discovers
establishment
loads
association
gotta
grey
vectorized
supplement
pairwise
threatened
securely
deduct
1997
##efined
unsol
lying
cyberpunk
killed
restricted
embedded
acquis
premise
satisfy
##written
persistent
homemade
fortress
dungeons
contradiction
loneliness
repetitions
obsidian
athlet
incremental
gauss
##charge
bishops
negoti
spatial
preserving
junior
grip
louis
coherent
hyperparameters
subscription
hilarious
rephrase
isabella
ndarray
inconvenience
##ranean
exponential
49
7b5
bite
fs
fellow
g2
h3
horn
hiding
nerve
ry
rivers
sel
не
##dat
##des
##def
##jo
##erce
##ongh
##oul
isra
reus
bez
anac
canadian
proph
exchang
##opter
fridge
adams
heated
##udd
impression
scoring
##ours
allerg
datal
mans
##gex
##astroph
intersect
##igned
newly
fungi
workforce
##lox
ids
recre
actors
differential
attain
flor
aggreg
keychain
lifel
miner
ourselves
belg
monsters
accessing
passport
paul
entangle
versus
catastroph
mapped
fuels
##ascular
relev
attacker
transforming
##ropy
payload
250
debated
debugging
clicked
facial
treats
mutant
guided
acceptance
backgrounds
conditional
deadbol
dirt
novels
camping
literary
demonstrated
femin
uncomfort
apartments
pandem
attractive
rename
rectang
submitted
nutrient
intrig
allocate
spinach
1930s
netherlands
carrot
houses
dollar
svg
intervention
linguistic
superconductors
biochem
licensing
enforcement
discriminant
##oplan
unclear
snapshot
joseph
autonomous
jesus
anaconda
06
700
8000
bm
bang
bots
cf
cyn
dad
doth
dump
ecl
gly
hid
ire
lith
mv
mang
rb
rip
sail
tang
tired
von
woooo
##rent
##rous
##zone
##vice
##via
##vascular
##66
##anian
##ali
##itative
ink
##oma
##ctors
##road
##idates
props
##ayer
##imeter
comics
##ighth
shuff
liability
##ormap
scent
##ogui
strongh
helium
granted
col2
speculation
phaser
buff
craz
varied
patr
remark
advise
poles
hood
monarch
confront
slave
jsoup
protective
hopefully
110
11am
breakthrough
travelers
roblox
neglig
brainfuck
##ugged
##bolic
tastes
visitors
reflecting
breathe
fairly
##weather
wheat
declare
laboratory
demanding
indicator
renown
hyperbolic
uploaded
tactile
auf
satisfied
##buzz
555
injection
cardiovascular
doubt
logger
bishop
hayek
fraction
acknowled
institutional
inquiry
franchise
interfere
trilob
neighborhood
lawyer
intermediate
susceptible
entanglement
bce
bust
bib
cord
dd
dair
fps
grie
hong
hline
hmm
kong
khal
lily
md
nin
punch
qr
ripe
sist
ya
##iro
##scious
##eed
##fig
##wing
##vity
##ка
##era
theta
thesis
##inis
##orse
##alph
##icip
##eties
forge
beaches
##seen
##idays
confer
##odge
aliqu
chari
##ellation
unix
loans
acids
outd
outro
disney
provoking
overnight
emma
pope
##orde
boards
pyaut
twitch
accidents
listing
regret
##prime
##ysics
justify
aged
understandable
##enger
artwork
ears
aftern
drone
calc
promotes
diy
musk
esta
placement
slices
speedr
trades
minds
hygi
marks
discrete
archae
targeting
prince
floors
agend
minimizing
lowering
opposing
layered
hungry
continuing
##amma
assumed
traum
scenic
suppl
infinitely
1994
dir2
bananas
transported
odor
enhancing
clarification
familiarize
##rosion
shellscript
attending
fedora
habitat
senior
delivered
tribe
merging
rhyme
survey
firmware
spreadsheets
transmitted
intentionally
accommodate
correlation
shooter
appointment
cereal
mp4
suspicious
analytics
polymer
unintended
elder
occasionally
forecast
tropical
chamber
favourite
gratitude
tunisia
configurations
ritual
dessert
minerals
ireland
stronghold
dairy
pyautogui
aeros
ee
ferm
jord
l1
lava
mant
rd
vue
xss
##rance
##net
##nia
##mes
##b9
##45
##72
##на
##oria
##arms
##rec
##isco
##ille
reck
asian
conce
congest
##image
exter
exoplan
##rium
traged
seo
noted
leaf
##apers
tear
gob
quino
sciences
clues
disasters
spo
preced
##ario
brill
reload
invisible
inversion
smiling
crush
curios
personally
producers
##engu
##teness
avatar
laplace
earning
currencies
multif
projection
visibility
devast
environmentally
viewer
marvel
cycling
predators
appeared
immut
2006
collision
traditionally
verified
observing
probabilities
debian
flows
reviewing
routing
##ammer
greed
##zzle
critics
surviv
iteration
iterations
explorer
tokenizer
illustration
advancement
officially
switching
attributed
21st
pursuing
##tttt
towering
radiohead
##flix
liquidity
accomplishments
satisfying
##anche
adopting
featured
ambig
declarative
bathroom
coinbase
explosive
metaphor
##etooth
orbital
fizzbuzz
vampire
stroke
cursor
ounces
vietnam
calorie
invasive
##commun
extensively
cloves
gluten
oauth2
disappoint
bluetooth
rebuild
relevance
outdated
quinoa
83
bunch
baked
bicep
e4
gau
gdp
i32
kail
lakes
rx
rack
xy
##eve
##nish
##ti
##gae
##bf
##father
##78
##76
##39
##atus
##ndo
##anth
##alg
##ito
##ettes
##station
stabil
##amiliar
exac
##anting
##opy
trapped
sees
adobe
scrol
mancala
##geometry
interference
spons
phant
mature
valheim
brains
underwater
obl
textures
charles
charging
subset
##ateral
classifier
usernames
insu
ideology
##althy
communist
monster
centaur
topology
prevents
conclus
director
certifications
revol
placeholders
implementations
magaz
activated
viewing
mecha
cython
bitter
propose
immig
urine
steal
edition
##away
roller
terr
npc
stops
souls
downloads
woods
##aaa
deadlines
robotic
1998
1990s
fairy
gathered
##brew
catching
truthful
officials
qualifications
sandy
circumference
corresponds
landscapes
throwing
candidates
orbitals
drops
polygon
corporation
boliv
refriger
unfamiliar
criticized
imperative
bundle
advocate
manufacturers
hazards
kilograms
occupation
halluc
invoices
obviously
julia
instincts
portugal
incomplete
judgment
enzymes
champions
squirrels
mongodb
legitimate
aristot
kivy
uncomfortable
curiosity
kailh
350
74
89
bits
cens
cakes
hv
mile
ron
riddle
slo
tint
vend
##iy
##pad
##nt
##gd
##bled
##cale
##oys
##jax
##vy
##vised
thurs
theological
tod
toast
##ctl
##rod
##step
beer
stumbled
##amine
##idential
##theless
##ulf
comic
chips
##ained
##ista
neo
trunc
implements
##ando
##andal
atl
loan
quot
scared
strum
helic
##aceted
spoon
emulate
indian
valve
tyr
basket
num2
invite
assass
corpus
signup
handled
##reading
expose
companions
messaging
researching
heading
demons
spacecraft
broke
showc
delays
cycl
mechanic
discount
nevertheless
balancing
##ometer
##click
##rained
160
periodic
collections
terrib
downloading
missions
merch
picked
household
criter
silence
threading
voices
organs
melt
incorporates
odds
##oader
authenticate
myths
defeating
resolved
jackson
ssds
pigment
romans
1960s
snowden
laughing
senate
dropped
spinning
epicure
controversy
isolated
scrollbar
ticket
intervals
ebay
pencil
wavelengths
resilience
catalog
elasticsearch
hormone
sector
astronomical
dramatic
occurrences
lstm
zucchini
membrane
equilib
persever
subproject
avalanche
orchest
dataloader
mansion
patrick
renowned
multifaceted
3rd
bure
cpp
eco
fighter
gross
hats
nazi
pione
rib
til
ug
vig
zh
##power
##rin
##rating
##tion
##direct
thunder
##inger
##isy
##isk
##ctic
##string
regex
stood
ascending
anch
##odor
##ifiable
##ivir
dose
unfor
imply
arises
clash
grind
coal
newts
getelement
peers
brack
persu
smells
varieties
flc
letting
optical
classm
mediter
meme
preval
prevention
concaten
airbn
existential
generalization
delib
fuse
packaging
##ophag
shortcut
snails
excuse
sorcer
15th
traveler
analyst
imagery
raising
##ritious
gravitation
nutritious
##proof
beds
alike
supplements
experimentation
dirty
campfire
literal
purchased
##trans
academy
pulgas
judge
absorption
appreciation
triggers
substitution
islands
dancing
sarc
astronaut
ranges
elegant
registered
surveys
intuition
immediategeometry
winglets
rainbows
mexican
ruins
hierarchy
narrative
p2p
infringement
irritation
zombie
dissolve
omega
bravery
stalin
cocktail
recurrent
crossbows
wrestling
##lovak
toxins
reusable
crazy
trilobites
congestion
exacerb
insufficient
conclusions
thursday
criterion
getelementbyid
airbnb
pulgasari
2nd
bull
brian
cer
dile
dign
eav
hd
hill
hugging
i2
kra
lb
mary
nad
oop
pw
pale
pins
sink
tect
tues
vm
v0
v3
wo
wer
wound
##har
##mil
##mail
##warts
##че
##ле
##onse
forb
orang
exe
exert
##essed
deity
deform
##pection
##umbs
##oples
tract
truck
leaks
##izar
resort
unseen
contam
comply
fever
outfit
gra
covid
newfound
##erma
peoples
basically
posix
relates
pyplot
curly
regulated
humanoid
dependency
blades
werew
cafe
##rolog
pointed
##phen
monet
multith
temple
passage
requirement
pathways
combust
argues
fuzz
correcting
viewpoint
##iko
teamwork
viral
virgin
##anna
documented
latent
latter
senses
captures
##heit
figs
consisting
holidays
progressive
failing
britann
##meal
fluids
vector1
scaliger
bottles
renderer
aligns
transferred
constructing
catchy
girls
tourists
annoy
relaxed
indicators
strauss
dialog
victim
habitats
acquired
egal
scholar
unfair
interviews
linkedin
assemble
triggered
horizontally
##vmessage
venture
repetition
digestive
concurrent
inpain
awarded
prosperity
nerves
metabolism
veggies
eruption
portrayed
cotton
odyssey
lpvmessage
plagiar
unsolved
##alpha
hygiene
equilibrium
mediterranean
dilemm
tuesday
92
aver
c2
dall
doses
eag
hind
hills
mism
nons
rna
tay
vess
ко
##hs
##eing
##rical
##rise
##node
##gage
##mium
##kk
##west
##qr
##viate
##uv
##ме
toss
##items
##choline
itiner
stur
withd
chip
chunk
##antine
shade
shrim
leon
leather
unhe
usepack
scav
disab
cox
perl
spots
spicy
overth
cola
roof
nood
nobel
numeric
##auc
##ologically
decides
deciding
textbooks
##ocent
donald
drought
ideally
monopol
surg
equally
swap
preview
markov
physi
impacted
biography
geography
workshop
temperate
maintainable
##otech
roleplay
masses
steep
edison
transformations
antar
payee
strengthen
16th
validity
fireplace
competing
progressions
heaven
doctors
weekly
stablecoin
magnets
footer
shader
threatening
1991
smoothly
hitting
truths
specifying
procedural
pulled
soldier
upgrades
wallet
arrived
fascism
1970s
burns
overlapping
coastal
##mmmmmmmm
outdoors
satellites
symmetric
dashboard
tissues
legendary
perceptions
advisable
neighbors
ancestors
disturb
archetype
alleviate
fungus
harassment
punctuation
hazardous
acetylcholine
hogwarts
chariot
afternoon
combustion
egalitarian
shrimp
usepackage
53
bs
eur
eternal
gans
jit
jam
jazz
koj
mph
roses
rgb
sab
tones
uv
voting
waking
yields
##hed
##hops
##iw
##sl
##eks
##rors
##met
##front
##qt
##enia
##ila
rever
sto
stan
##urger
##ima
##ader
##aga
##agonal
##ifa
##iffs
chim
chill
##umen
##empl
hacker
imdb
shep
shipping
sein
seag
##user
byte
leak
hebrew
soap
contribution
somehow
##aved
grin
grasp
knitting
evoke
disput
disson
coca
cohes
descend
examination
roomm
num1
underm
wrist
thrill
accused
patents
agile
parks
builder
##axe
##iquit
fierce
extinction
healthier
machinery
messi
portable
materialism
identical
animated
delicate
##athon
responsibly
marbles
marathon
interacts
influenc
discl
2004
posted
darker
##ometric
cleaner
anticip
draws
imaginary
expressing
turb
misle
deaths
warmth
collaborative
burj
emphasized
literally
oxide
reinfor
anns
crafts
utf
corrin
secretary
nulla
tabs
ubiquit
assignments
copyrighted
derivatives
##content
billions
##writing
lucina
imperial
repetitive
interrupted
##password
concurrency
explosion
mushroom
joints
antibiotic
volunteers
cowork
angela
chromos
resilient
scheduling
oscillator
enthusiasts
initiatives
dialectical
jupiter
vii°7
depletion
dehydration
inhabitants
bezier
jordan
epicurean
##lovakia
shepher
4k
61
aids
bor
bump
bonding
cables
f2
gi
hops
iost
jac
juris
kai
lime
nos
nix
pak
rw
racing
vot
xt
##hell
##lene
##mo
##mers
##blo
##100
##52
##те
##ки
##alot
##isation
isot
rex
bees
##amins
##igc
##adapter
exotic
##agh
chan
##aba
##employ
trump
franc
notion
bytes
##actic
leo
lend
socr
somebody
wasp
mods
##account
fee
##gevity
outl
grated
upcoming
disgu
permit
newsp
emission
deter
technically
surely
decade
trainer
subs
parmes
possession
earned
insulation
equator
answered
breach
identification
personalities
diving
workshops
salute
beneath
copied
musicians
bitwise
contributors
steamed
flooring
seemingly
predictable
appropriately
fixing
nuanced
respected
standardized
credible
attempted
##liest
precisely
covering
silent
iterates
cease
prospect
ecs
violate
capacitor
fibers
heroic
lucky
vitamins
hydra
inefficient
poorly
encoder
departments
farmer
neutr
neutron
wondering
strictly
foxes
luajit
longevity
decorations
oscar
rejected
##odynamic
##etti
gtk
gateway
approximation
override
titanium
fundamentals
proficient
officer
mimic
psychoan
spongebo
transistors
acquisition
manga
khalifa
tragedy
phantom
itinerary
kojeve
iostream
parmesan
41
bos
caching
dt
dop
fah
fdc
icar
pist
sas
tn
tub
wires
wipe
##ham
##part
##log
##mat
##aired
##cam
##days
##f2
##fing
##во
##alus
##edes
##level
##etext
isprime
##ilant
##ching
##ched
##uter
whom
##olent
##url
##imited
##ulates
oral
suic
##terday
chose
##unks
trillion
shy
##ptical
friction
##ppuc
intlist
unemploy
syndr
##ibus
outlines
dism
##ipy
colormap
speculative
simmer
detach
registry
decode
agility
distro
cheat
stephen
python3
cappuc
multic
waterfall
fries
paw
continent
foundations
arrested
esim
yesterday
logos
storyline
lego
delta
##neys
salmon
singer
singing
triang
specializes
attacking
enjoying
exercising
antivir
puts
receiver
sensations
ruling
##ooof
copying
##apters
flowing
reviewed
authoritarian
treaty
discussed
crosslink
mounted
##shi
settime
pushed
deadl
1999
flights
burger
bottlene
nucleation
bounds
constructive
pupp
mentees
##queue
assignment
cabbage
towel
tailor
calendula
paprika
boiled
##riso
delivering
wireless
augmentation
arrows
recursive
belongs
##jjjj
accommodations
compressed
parsing
wednes
phosphorus
scheduled
dubai
##install
hackers
induced
oversight
subsequent
nickel
vpn
abundant
thirst
gestures
fourier
compromise
rescue
bgp
xorriso
pandemic
gauge
bureau
##ophagy
multithreading
fuzzy
jurisd
pakistan
hydraul
1st
3pm
512
81
86
94
90s
ais
bst
bars
cached
dong
danny
fbi
gan
gifts
gamma
hired
kon
kings
kann
lol
nause
pork
pengu
ros
rated
sop
sale
tons
ра
##ien
##rid
##rap
##resp
##len
##cd
##cv
##ccol
##fil
##uver
##erge
##onia
todo
##itism
##elly
whit
##irs
sushi
extern
alib
albert
depress
decks
##ante
shred
##usa
##usive
weed
intend
loves
contamin
##keys
##ogether
strang
intercept
outlets
##aceae
consol
commits
spacing
overse
importing
genetics
peas
indent
relational
##context
formidable
processors
remorse
transit
advised
elf
joins
endl
carries
monoid
controllers
afterlife
connector
airport
revenge
##ync
liked
broccol
showers
trem
secondly
specialist
##atched
stealth
latitude
cleanup
introduces
antis
oppress
hostile
associate
crossing
nuances
lacks
misuse
iterative
namespace
epist
hike
1987
nothingness
organizational
obtaining
deno
oxid
announced
seasonal
vocals
paradigm
teleport
inserted
grandm
briefly
ignored
altogether
pollen
teaspoons
accomplished
##cription
obstacle
binding
museums
reformat
interviewer
antibodies
whisper
tortilla
agricultural
borrowing
weekends
strawberry
svd
exhaustive
neurotrans
volunteer
friedrich
hierarchical
vaccines
facilit
subscribers
unconscious
penalty
portugues
terminator
adventurous
##escope
troops
simulator
anonymous
freddy
wonders
metamaterial
abandoned
czechos
bouldering
texas
scrape
gaussian
belgium
conferences
goblin
aristotle
slope
truncated
helicopter
sturdy
unhealthy
ubiquitous
spongebob
wednesday
broccoli
neurotransmit
264
5x
aure
aigc
gel
goth
hug
ibm
kim
lora
oly
pans
qdir
r1
rays
ruth
tq
udp
vult
zor
##hf
##prop
##east
##eign
##bits
##born
##aver
##c2
##city
##kem
##watch
##je
##erning
##input
invert
##real
##levant
stall
stays
stup
##urable
chapters
imbal
shit
shelf
ships
##pervised
resign
loving
imposed
quis
hasn
outlet
disruption
spoke
pharm
systemctl
emerge
brid
idle
posed
obsc
##contain
smok
formations
firms
advancing
ski
blast
carl
valueerror
complexities
vex
notebook
installer
revise
biomes
characteristic
geforce
portions
identifier
slog
workspace
publication
scientif
##───
godel
audit
superposition
specials
homeown
186
limitation
##atsuba
elementary
oppression
destiny
destinations
nukem
suppress
consequence
listeners
architectures
vector2
dedu
masterpie
policyholders
weaker
claimed
ipad
tours
astroph
unlimited
rounds
bulb
profitable
victims
dolor
taller
arrival
candy
liberal
rhythms
confirmed
##osaurus
swords
convenience
fleet
hungary
symmetry
karatsuba
reconst
faults
analytical
subscribe
indoor
indoors
conjug
pearl
wolframalpha
seamless
compensation
disagre
henry
telescope
gdpr
reserved
anatomy
irrelevant
protonmail
unsupervised
jogging
omn
brutal
rebellion
florida
catastrophic
rectangular
eclipse
shuffle
remarkable
terrible
plagiarism
seagull
hopsalot
kaiju
settimeout
hydraulic
portuguese
olymp
tqdm
stupid
cte
cumin
ciph
dorian
eine
eighth
gle
gay
kris
lush
mg
nth
rm
rade
sid
tier
verm
wil
wages
##pi
##pse
##84
##cube
##df
##overs
##ytes
##f3
##kins
##де
thee
theater
##atur
##atomic
##edel
##arin
##elian
beats
ster
stitch
##otal
##olith
##urst
anger
##tery
chair
chunks
##abs
nept
##riage
##unci
##opian
shed
shog
shops
##pled
bypass
adher
prag
##pert
reso
reserve
atp
composite
tears
mozz
##hero
outlined
spagh
##00000
precious
genetically
pean
##loop
highway
crunch
variational
accord
regist
solder
goodby
subatomic
distress
distros
backwards
blaze
dont
pointing
filament
monk
monty
limbs
##coins
continents
happily
awake
entropy
mindset
treating
representatives
selector
edward
##awed
sync
photons
pads
pady
padx
validating
graduate
destruct
panc
grounds
##ritis
constantine
normalize
1789
merely
gregor
teachers
oneself
hotels
ceiling
males
irs
reliance
1982
##amente
seasoned
crafted
inventions
removes
netflix
vitae
comparable
pulse
cuba
radioactive
360
365
acquiring
celebrated
submitting
senators
tuples
cooper
fluffy
concurrently
straws
instantly
changefeedoptions
nutritional
contempl
analogy
deserts
emitted
gmail
discouraged
acknowledge
sleek
shifted
administrator
napole
aesthetic
legislation
pregnant
stereotypes
##cribed
receptors
spacetime
##ronutrients
clinical
israel
bustling
agenda
brilliant
oranges
syndrome
penguin
##container
ciphers
radeon
97
cx
dil
fame
gw
jama
kh
kant
kwar
lj
lan
ot
pas
pend
pony
tl
tet
tam
vim
vida
ware
##pal
##ev
##rav
##range
##norm
##taking
##bb
##bir
##87
##kind
##93
##x2
##го
thou
##any
toe
andre
andalus
##aler
##alvm
##itives
##arks
##icism
reun
reuse
whites
stol
stain
##amy
##olate
asp
asb
congr
##irt
##aden
dex
##pept
nec
enorm
shre
shine
notorious
plaus
sover
scans
##index
mozilla
syll
mayonna
addr
knead
dispro
provin
desirable
overcoming
col3
indie
##look
nost
langchain
smiled
##cium
listens
listdir
flies
flux
transitions
understands
##engers
runners
lifting
elig
minnes
dependence
signify
guilt
drones
conclude
marking
metagen
exposing
expiration
containment
winds
sunrise
nextint
publications
marie
exclud
cycles
superhero
morris
immer
ultra
risky
analyzed
tunn
debates
##ools
thoughtful
stopped
meetings
matchcube
adapting
adaptability
universally
##renheit
timer
teaches
embark
innovations
splitting
winner
denoted
transferring
constructor
##break
##breaking
450
rebels
austria
frog
occas
grandfather
screwd
commentary
romance
octop
octaves
##flies
wonderful
daniel
temporarily
constitutes
tuple
ranked
impressions
tribal
netherite
noticeable
sadness
inhib
hanging
hangover
durability
bubbles
guaranteed
subtraction
convincing
##handler
neuropept
barbarian
altered
cultivate
illustrate
facilitate
rsa
commodity
propaganda
abundance
shifting
surprising
warranty
hawking
synchronization
apparent
islamic
buddhism
workloads
inaccurate
circulation
munich
hidl
sorcerer
contamination
graalvm
werewolf
taylor
socrates
fahrenheit
cappucino
antivirus
bottlenecks
czechoslovakia
neptune
spaghetti
gregorian
kwargs
mayonnaise
minnesota
7pm
bh
bait
banned
cite
fade
hdr
jumps
lamp
maven
r2
rude
sake
sits
saves
##hd
##pin
##tode
##tok
##mt
##afe
##cor
##dig
##yter
##yll
##79
##ko
##jud
##zes
##5000
##ак
##env
##enium
##edd
##itt
##arity
##arella
##omics
##eterm
##rocess
##rogen
##ilon
##storm
##status
ford
stations
cancel
##thal
##ulas
sug
suck
suite
##abeth
haiku
shark
sean
adhere
##izabeth
pll
pluto
heg
##arte
arsen
inclusion
##acks
scram
alliance
alliances
##astics
evac
needle
deserve
##oka
##orship
roy
nobody
poses
persons
defensive
twin
patties
informal
##encoder
remed
filepath
substr
webpack
elizabeth
redsh
backed
backst
ende
blade
guards
##cedent
downside
promises
conclud
printers
##iolet
erat
issued
laying
maiden
##ematic
squar
treach
painter
painful
depos
replied
landmarks
ethically
2003
automating
stealing
titled
fallacy
##███
##height
illusion
dimin
panthe
groundbreaking
mutations
osi
derive
browse
forwarding
stablecoins
emergence
incorporated
capitalist
revolutionize
penelope
retrieval
diego
mobility
fantastic
inev
semi
cubes
265
destroying
dispose
multiprocess
tales
neurolog
impressed
proportions
disadvantage
cabinet
partially
convex
minimalist
exhibits
screenshot
dumbbells
##cutor
egyptian
mysqli
pronunci
communicating
ducks
reconc
nih
negotiate
parsley
retailers
##speed
scottish
reversed
prolong
jupyter
ihw
tonight
disagree
dentist
unstable
hospital
accompanied
volatility
zoom
epsilon
jayden
vinci
fpv
sneak
culinary
hamburger
inexp
ryzen
lifelift
biochemistry
shellscripts
brackets
kraaaaa
mozzarella
multiprocessing
71
999
ase
b2
bour
eget
gats
ia
kot
lau
masc
masters
nm
piv
saint
##hu
##iom
##math
##most
##bic
##cular
##wer
##wort
##wert
##zow
##да
##ми
tooth
##ede
inverse
sticks
##idunt
conse
conform
##oded
alumin
charts
##estine
##emed
traps
##illes
##iva
##ivals
##usal
##usions
wears
abroad
soc
intros
locks
incompat
scream
scipy
thereby
moire
modulation
moderation
manages
acap
myapp
interd
aph
cope
cozy
perme
perlin
peripher
colder
##enders
indigen
pyr
cron
variants
accent
##pending
fired
paras
redirect
earliest
autophagy
filed
##iana
sheer
shezow
projections
##gano
##othermal
##odymium
centre
betray
concerning
metall
elections
refused
airline
restrain
suns
sunny
affine
divisible
quantify
married
trials
depri
secondary
motors
proposition
archive
alternating
2002
##aham
##idding
latvia
configuring
policym
imagin
progresses
despair
axios
pcs
ec2
depthmap
religions
freshly
hairs
##ervation
attracted
touching
freedoms
deploying
inherently
##onald
frodo
mortgage
##hole
gardens
diagnost
repairs
icons
thermoelectric
rubik
cognition
poems
pollut
martin
##build
##────────────────
storms
mystical
reminders
guns
oregano
nfts
##special
residential
emotionally
praise
tweets
paramiko
tanks
zombies
##panel
volatile
removal
festival
lecture
oatmeal
treasury
urgency
diagrams
turpentine
encompasses
feminine
survivors
strangers
##olithic
shogi
shrek
pronunciation
inexpensive
gatsby
5000
bount
ci
e2
fles
faint
gy
gz
jones
jwt
lore
maria
ng
oled
pthread
sulf
tum
till
torn
uap
vom
vint
wand
xk
yon
##pick
##nament
##lv
##g2
##mi
##bling
##49
##food
##wurst
##jar
##1n
##vc
##uge
##мо
thy
##inator
##ita
##itan
inver
inability
##omnia
##rog
##stage
reyn
recharge
##oteric
onclick
ants
canned
##ads
##ags
chilling
##umph
neodymium
##riel
shining
worm
meios
unbi
impair
##apore
scored
clay
clip
clicks
modus
##ffect
spy
sparse
exams
imported
phd
matt
buk
buck
workbook
##ounters
valky
oblig
formulas
deton
cront
patri
attor
flip
decoder
saute
ava
cheating
##ergy
101
##ocl
calcium
surge
toolkit
diets
aftermath
tempt
connectivity
responds
differs
##issive
multiplayer
continental
encaps
encounters
placeholder
internship
geopol
socially
liking
identities
elseif
statically
##ophyll
marriage
snap
successes
privile
sortino
##ashing
morph
discard
essays
tasked
100g
##ovs
randint
barcel
majestic
colleges
displaying
condem
empires
##ographical
##ofun
streamlined
##emption
##interval
innate
rotten
instructgpt
guiding
gpg
translating
lateral
misch
supers
shades
melting
melodies
scaled
spline
1980
campus
membership
powershell
comprehend
launching
attractions
bulbs
renov
exceptions
climax
crispr
divides
grooming
semaph
correspond
fascinated
deleted
diversify
neuros
distracted
ranking
crows
dominance
alertness
nano
minority
korean
marginal
sights
bundler
exploitation
anomaly
reproduce
computationally
strawberries
harvesting
trendy
pronounced
faulty
chloropl
appointed
hermione
autonomy
pona
rlhf
advisor
induction
luminosity
troubleshoot
bunny
fmt
incompleteness
peeled
leveraging
removable
duplicate
appetite
lubric
muffin
ventilation
prophec
perseverance
tectonic
virginia
misleading
voters
unemployment
bridges
conjugate
goodbye
ljava
nostalg
tunnels
neurological
indigenous
policymakers
meiosis
crontab
barcelona
5v
ain
bree
cav
dtype
hive
holog
ions
kiss
lent
lint
loses
ov
pid
qa
qwert
rud
rural
sic
surn
tess
vene
voy
vram
wander
x0
yah
zine
°c
за
##hm
##soup
##paper
##mode
##a2
##42
##di
##╣╣
##eno
##anitizer
##alf
##alted
##leton
##isons
##ctive
##cher
stove
##amation
##ols
##select
anten
procl
##ersonal
##ira
##add
##adas
alp
degrad
chuk
##aining
##estos
##estring
trag
traces
traced
enim
##query
admit
##ellar
##arted
unused
gover
sciss
##ardo
##acity
interplay
griff
upset
apology
colony
genoc
genesis
pha
brim
brick
brighter
positively
simulated
##auch
foil
smarter
aggression
subprocess
saus
redemption
backprop
endofun
skyn
##adec
popul
performances
fiery
calib
calming
inspection
insomnia
constants
methodologies
memes
accessories
exponent
airspeed
harbor
mustard
slack
slots
conceptual
eventual
deltar
bush
invested
investig
##lessness
optimistic
contextual
##ashed
proposes
##amedpipe
##ropol
toki
observers
firearms
gradual
walker
consequential
cooler
grease
navig
pickaxe
scenery
aiming
theoretically
warmer
##frames
1989
escal
demonstrating
retrieved
valued
tensors
mentally
citrus
beautifulsoup
externalities
##inyl
ssl
velocities
pulling
contractor
horizons
venus
grandchild
appreciated
beatles
remoteexception
trigon
spaceship
rubber
lasag
paradoxes
liberties
autohot
stimulate
stretches
1945
##cycle
cdot
guarantees
##▓▓▓▓
lonely
scattering
scratching
jeff
dressing
chlorophyll
hybridization
electrodes
##comput
narrator
corrupted
preserved
mallory
orbits
spherical
forgotten
relieve
duplicates
veterin
collapsed
globally
negotiations
deadbolt
breakthroughs
fermat
dilemma
withdraw
cohesive
epicureanism
nausea
depressed
epistem
scientifically
stolen
plausible
sovereign
immerse
screwdriver
kotlin
acapella
imaginative
bounty
unbiased
bukkit
attorney
geopolitical
backpropag
autohotkey
57
aero
b7
bent
binder
cuda
dc
d2
dome
eigen
erosion
fuses
gust
gasses
hue
kr
lately
mul
merma
nam
ou
rental
sag
vw
vet
yard
yfin
##iated
##si
##sanitizer
##tree
##lon
##bc
##c1
##depth
##oa
##oby
##fx
##kai
##j7
##zuel
##uid
##та
##▀▀
##же
##oric
##orak
##enz
togg
##itic
##ications
##asis
##ctica
fors
beating
##ample
##otion
##sec
cones
congress
##ifting
##opic
sew
##places
meg
prador
prusa
##inear
libre
unle
lob
loki
##uster
quart
clause
##ogens
##ograp
acron
interchange
outlook
##xtrin
spi
##00s
prejud
systematic
actuation
invoke
wherever
regen
remot
decree
transm
textbf
charism
charming
computed
subm
subway
mainstream
humanitarian
classname
locals
extinct
mund
monkeys
visions
supporters
elev
writes
refuse
esoteric
styl
geoc
portals
magma
rises
searches
triumph
addresssanitizer
offerings
baseball
attackers
angels
massa
##ahl
virtue
microorgan
##manager
lowercase
associations
groundhog
##values
constantin
separately
rocker
buyers
lacking
timeless
oils
discovering
queryselect
smoother
maximizing
maltode
smartphones
footage
savory
bounded
dennis
float64
unders
undead
floured
constructs
shoe
pretrained
layouts
vitro
babies
pige
farmers
lasers
categorical
verifying
shallow
allocated
duties
molds
controversies
territorial
mysteries
dictator
coordinated
diablo
weighs
nasal
promoted
exploited
incentiv
flew
fragment
##folder
##handle
egyptians
slicing
conservative
episodes
chloride
metaphysics
cultivation
pillow
jimmy
logging
illustrations
rods
magnetism
wedding
wsl
neighboring
6900
dvorak
permanently
diplomatic
sibling
intimid
hospit
enumerate
determinant
punishment
frustrating
ellipse
nsa
boredom
trustworthy
relatable
strumming
shortcuts
antarctica
jurisdiction
shredded
vultures
masterpiece
destructive
napoleon
enormous
redshift
pantheon
aluminum
soccer
##ovsky
neuroscience
surname
tessell
venezuel
genocide
deltarune
##ographer
microorganisms
queryselector
maltodextrin
ale
cact
gil
gast
han
jugg
keto
lenses
mage
nunc
pile
pong
porn
sss
tin
tou
vest
vite
wur
wines
yose
zer
вы
про
##hel
##rom
##rust
##tk
##tens
##lf
##lar
##lang
##block
##41
##card
##cice
##dn
##fel
##feld
##kan
##ры
##ля
##atis
##orca
toile
andro
##alous
##itz
##ician
##iser
##eln
##eten
##rok
##ilian
##ston
##chen
rend
recess
revel
##utation
beast
##igo
alf
##terol
choles
##ckey
imsh
shout
##activity
worms
mej
plastics
abbre
untr
arctic
cliff
whats
manh
##aca
synd
interfer
grill
knees
coach
coated
proved
descending
overload
speculate
phases
setbacks
induct
nocice
bases
underg
##config
curry
attila
flick
file1
lifetimes
enduring
10px
blues
finest
##ocation
carb
caring
performant
downt
constex
##swith
veune
watering
##types
##oids
devious
installations
individually
sche
biome
arrange
geographic
logar
slang
elsewhere
investor
mathematically
##note
singapore
governed
cybor
businessman
motive
supercomput
securing
contributes
balloon
antig
achievement
rooted
sensation
definitively
initializes
gradients
condens
empower
routines
damages
damaging
holzer
credits
electrician
silk
surviving
##ielding
smartboard
motivate
deadly
1995
burden
contacting
unsalted
sweat
browned
odin
flatten
vertically
penet
##track
almonds
sauer
stylesheet
qualia
rebase
unladen
resolving
familiarity
attraction
tendency
climates
assessments
towers
screw
acidic
1969
sanit
boiler
sacred
msft
revealing
porosity
madison
1938
naruto
alexand
alexander
sightings
decoration
skelet
locked
hamlet
sigm
inflammatory
staple
greeting
battling
##threshold
##████████████████
cancellation
mallorca
talented
##ulsion
capsules
ounce
spheres
accumulate
sqlite3
veggie
cnns
nitrogen
pregnancy
tiktok
##renderer
advertisements
sweden
##communications
immigration
prevalent
forbidden
overthrow
dissonant
influencers
chromosomes
nosql
psychoanalysis
suicide
triangles
##response
peanut
asbestos
congrat
condemned
prophecy
griffin
skynet
backpropagation
cholesterol
imshow
constexpr
aave
bpm
cum
cia
casc
caches
dn
dive
dick
daw
dying
fy
gaz
gcc
hut
ie
iot
iamb
krit
moth
mids
mnt
nig
oak
pup
slud
sene
tinc
uri
upp
va
vinyl
wie
zara
мо
##nas
##tf
##gur
##green
##mite
##core
##comp
##d2
##drop
##fers
##jan
##uweather
##ру
thail
thaler
##inates
##atin
tob
##omi
##elin
rearr
stiff
##amph
##olicy
prover
##iments
##imaged
##odox
alleg
alchem
algae
##peed
##atemal
##tered
chop
##oper
tracing
shaking
shifts
##plib
notep
notification
byz
adhes
prank
abap
intens
unrest
loaf
inca
strand
##iendo
acorn
upbeat
considers
cob
spare
desper
imports
phon
buckets
bru
poign
develops
##conds
crimes
importantly
accuweather
fires
solub
transcend
textfield
charset
##psy
retval
distill
bless
guatemal
handler
cares
popup
hockey
complexes
county
behalf
muslim
devil
geological
costa
socialism
generalize
headache
##ructured
mauris
divinity
storj
filesystem
travelling
knowledgeable
reactors
presidents
motif
preferably
attacked
poster
stew
##forge
shareholders
tuna
virtualization
periodically
halting
funded
discusses
expressive
140
jsonify
timmy
accepting
##ippin
critically
embody
encouraged
axes
emergencies
greeks
strikes
1993
burgers
stressful
1983
revolutionized
injured
wilder
escam
tourist
##alyst
mentee
vastly
newslet
vocation
broadly
jacket
pulses
honkai
273
liquids
ignoring
watts
guessing
diagnosed
breathtaking
##semble
tennis
arrives
dispos
dancer
msci
wizards
fulfillment
satisfies
accelerate
stimulation
unfold
lunges
fortune
advocates
ambient
exploit
davis
tolerate
joey
williams
hermetic
browsing
vaccine
angeles
oscillations
recyc
recycling
subsequently
stripak
diplomacy
thumbn
gesture
anarcho
gnu
gnome
sandwiches
prosecutor
preprocessing
thrown
##laimed
epochs
maneuver
disappearance
exaggerated
immortality
selenium
elderly
exterior
magazine
i2p
deformed
eagle
##otechn
prospects
aureus
gothic
vomiting
chloroplasts
breeze
yahoo
degradation
veterinarian
yfinance
toggle
tessellator
sludge
tincidunt
thailand
##imagedata
notepad
4th
5g
93
aerial
bard
bother
baz
cc
cain
cows
dum
dots
dizz
ejs
fen
gib
hammer
ira
jen
jpeg
lact
lind
mice
nie
naph
nik
nisl
pag
picks
pku
pippin
rica
sb
sith
sple
ud
zoning
##hum
##gard
##binder
##fw
##fruit
##kward
##qi
##jk
##23
##vention
##volent
##ве
##ди
thyme
theo
##inals
##info
andrew
##aline
##rend
##isi
##eland
##etur
##eters
##etamine
##ilism
##stro
ree
reass
rebo
replication
##oling
##urus
##igon
orm
##irling
alan
algun
hav
##antly
secur
frying
meats
leap
plumb
prest
wef
##ialog
abol
abra
sock
intro
intestine
unpre
incidents
scler
scandal
allied
moons
grap
grants
upward
proving
examining
##ipot
##iento
##orses
matlab
gett
##arians
indist
valor
valence
noisy
##etheless
defect
boom
flipping
flaws
persona
##gets
computes
retro
skies
finely
factories
lazy
handful
methyl
methamph
autism
designated
longitude
improper
drill
potent
approved
monops
realities
accessory
hardening
selfish
histogram
exped
passions
##ommon
continually
refuge
winding
layman
biod
awkward
demographic
1234
careers
squid
squee
quantitative
avoids
pressures
nonetheless
maintains
specialize
2000s
balances
neglect
antwort
displaylink
verification
caption
elemental
goalkeeper
presenting
financially
terra
grounded
competit
halves
##interface
goto
innocent
buyer
macar
accepts
tasty
armies
monitored
settlers
vegetarian
factorization
embarr
reflections
utilizes
scalar
extraction
cryptographic
mastery
denied
undefined
tourism
tournament
240
defender
forehead
broadcast
repositories
russell
telegram
encountering
profitability
ineffic
vibrate
##resource
summarization
abstraction
parenthes
suffered
##ylon
gallons
auberg
intrusion
temporal
rigor
reveals
overfishing
eliminating
epicurus
crowds
alerts
nanow
forgive
bags
decorative
skeptical
hexadec
jean
jealous
pirates
granite
bellamy
altering
partnerships
ponens
volcano
seattle
contradictions
praised
nesting
parrying
enzyme
archetypes
mosc
occurrence
mentorship
zookeeper
complementary
throat
jailbreak
jailbreaking
gorillas
frustrated
aggregate
archaeological
rdkit
exoplanets
censorship
tintin
classmates
dignity
britannia
hindu
noodles
seinfeld
subsid
homeowners
gwyn
##thalene
reynolds
tragic
sausage
yosemite
androids
undergone
iambic
krita
seneca
escamoles
recycled
naphthalene
methamphetamine
embarrass
parentheses
aubergine
5pm
88
91
ajax
bic
bis
borders
cass
dip
dude
f4
f3
jelly
kun
lil
lions
oste
pint
rats
raven
rugged
svel
ted
uint
u64
vague
woke
xx
yml
zap
бы
##hard
##hots
##iac
##pen
##parts
##eas
##nen
##tile
##lists
##maker
##bour
##cence
##die
##oons
##ymmet
##zh
##5°f
##ся
##ви
theology
##enames
##itches
##isure
##asma
##elle
forcing
bean
##ambo
conlang
##imeters
orci
delet
chief
##ummer
neces
##anto
##open
tran
seals
##pler
notify
leisure
##perm
ate
unchang
uninstall
lovers
quir
##forms
##acles
myscript
grail
##assium
pero
perimeter
spik
cols
##loqu
nozzle
ides
ops
relay
relied
relatives
persists
actu
crate
list1
regime
regulating
solves
remod
firstname
##engine
##gged
retention
elit
skull
classroom
carbs
##cedes
filing
potassium
calf
insult
callback
confron
learners
surpass
equitable
diagonal
opera
afterwards
writings
expense
passant
popularized
refract
questioning
esper
costume
headphones
sla
maple
divis
delt
salv
intelligible
##iker
marble
initiate
radical
clearance
##eeee
landed
remembering
proponents
discre
homework
transforms
rolled
photon
##boarding
##aneous
nightlife
hostname
cardboard
##lexic
sequel
educated
competitions
visuals
dominate
norse
safegu
credited
credibility
historians
greased
youtuber
menus
##liers
monitors
iterating
plotly
threaten
sustained
collaborating
strips
executives
emphasizing
##onyms
unsigned
unsafe
smoothie
guitarists
penn
rewarded
citations
skinned
cpus
restrictive
##links
pinch
inherited
##object
susie
crisp
crispy
miracle
ftplib
bandwidth
sanctions
dropout
sacro
##glas
intrigue
orbiting
dropping
seller
burnout
dawn
tuber
##borne
unexpl
cracks
arthouse
creamy
1940
pawns
kmp
wisely
weighing
spectral
tricky
simplifying
poisoning
belongings
fertility
tickets
ladies
arranged
arrangements
dressed
barbec
toxicity
drained
esp32
perceptron
enthusiasm
apocalypse
mcd
sprayers
buns
uneven
lidar
knocked
resonance
jungle
seamlessly
hubris
photographers
pentameter
legislative
intimacy
fucking
##aguar
enforcing
weakened
clutch
rarely
anecdotal
redundant
captivating
vivo
intriguing
lithium
speedrunning
crushed
refrigerator
atlantic
discounts
astronauts
##harp
##milch
inpainted
##blocks
piston
antisem
grandmother
invertible
resignation
dexter
scrambled
substrate
backstory
treacherous
semaphore
antenna
endofunctors
aerobic
forsource
remotely
constantinople
logarithm
cyborg
byzantine
guatemala
hexadecimal
svelte
9th
a4
bach
biff
cues
ds
dull
dining
e5
fancy
ger
gum
ghz
ginger
hull
jaguar
kri
lamps
nc
ny
nqr
oware
rider
sass
sally
ties
tus
tense
ww
yu
##hist
##rr
##rison
##lis
##cos
##cogen
##71
##2im
##36
##95
##96
##vd
##vial
##ци
theat
##inement
##aton
##onomy
##esium
##ndry
##enza
toc
##aland
##arus
##ombs
##omorph
##stick
stun
stakes
stalk
##amel
##otia
ons
ank
##aya
##ulpt
##irts
##adays
deuter
##estation
##emas
useless
##rive
##oping
##plots
##osc
dozen
worship
plac
##andan
liable
lips
sculpt
cla
##ulture
stranger
##avell
anytime
maya
addbutton
conserve
disinformation
perov
theseus
keen
emitting
##arium
noises
underne
undergo
acted
actix
assure
boys
thrust
twists
attitude
file2
charity
##ggy
saud
saigon
specification
paralysis
skys
minus
##pective
herb
blink
##tee
objectively
autoc
planar
longing
drunk
druid
insulating
##phoria
hover
##braten
readily
memorial
swot
swapped
operant
operated
protests
nowadays
electoral
histones
##ieren
checkra
thinkers
founding
impactful
stylish
entrance
internships
##mless
harmless
headed
slaves
glitch
referencing
summon
exclude
prescribed
predeterm
##ercase
appearing
182
posture
princ
livest
kinda
accounting
globe
talked
expecting
facult
minimizes
collectors
converges
nights
grades
interpersonal
competitor
##lights
evaluates
douglas
starter
mercedes
14th
greg
timely
civic
translates
remainder
misinter
psychologist
embod
utilities
appearances
dfa
ecological
crypto
rainfall
1984
injust
bounding
denim
literacy
mistaken
starship
favorable
retrieves
enhances
utter
panda
finishing
rebasing
villains
participation
millip
chessboard
sharpe
taboo
screws
pleas
hypothes
attachment
substituting
altru
walter
breeding
##related
powdered
daunting
merger
sadly
1941
flavour
forgiveness
schemes
homeless
blogs
triggering
cbt
replicants
defending
advocating
incentive
belonging
warnings
sieve
superconductivity
pronoun
constitutional
pooling
volunteering
cheapest
christianity
amplitude
residency
owning
enchanted
multiplier
mk3
pumpkin
darth
suspects
aesthetics
bilinear
shrink
fundamentally
anthropology
wondrous
crawl
frosting
bending
aerodynamic
hurric
ingested
rpgs
unmatched
triceps
baldness
rigidbody
glycogen
trauma
aerospace
ambiguity
sarcastic
disabled
descendants
coworkers
rwandan
newspaper
deadlifts
indentation
pragma
royale
##cedented
laundry
pivot
pollutants
flesh
chukar
venezuela
toilet
mejor
nociception
midsummer
wilderness
disposal
unprecedented
sclerotia
competitiveness
moscow
remodeling
tubercul
dexterity
kriya
perovsk
underneath
predetermined
80s
aa
aus
aunt
bv
bare
couch
d4
d5
dain
drew
ego
fue
gist
gang
josh
kat
lung
oats
pants
puss
pests
rin
ric
rim
rog
rav
raph
sage
sap
vow
vader
wss
wyr
yum
zep
иг
##tw
##test
##liness
##lik
##46
##83
##cat
##caster
##fa
##fj
##75
##wed
##wear
##qtt
##31
##vari
##uer
##xual
##по
##600
##ει
##init
##inian
##atical
##energy
##anks
topped
##item
##itating
##reate
##omat
##omar
##stall
stairs
stoch
##igs
exits
deemed
cher
##abytes
haun
##aki
usable
engr
sham
frustration
worn
placent
prd
pratt
abi
abel
##elles
sooth
atari
lover
impaired
scoop
modulating
##acco
##graph
##ouses
outwe
grands
commas
coating
##dup
phishing
underf
recruit
pockets
assault
deterg
throne
curated
charger
submission
subclass
subplots
elite
avg
finances
finland
infant
donating
cape
autumn
belt
##enees
realism
realization
realizing
realizes
veb
swelling
markers
checker
refact
refined
practition
airlines
orderstatus
styling
costly
sliding
searched
argv
broth
mah
legally
##sera
lincol
salty
coursera
chatting
causal
presses
prompted
milest
##ova
##ovo
cookie
blackwood
arrayadapter
enjoyment
songwriter
collisions
edible
barg
##awa
antelope
heights
##oof
definite
countryside
16gb
##iversity
expectancy
recognizable
converg
holder
mutated
totally
heavens
170
merit
cooled
pickled
worthy
critique
committee
iterator
utilization
cros
petals
speaks
220
bloodstream
splits
fairies
rainy
nationalism
stacks
guitars
illumin
##balls
drying
conductive
mentions
felting
##rollers
branding
prioritizing
commercially
wishes
mortal
sticky
decreases
mirrors
gardening
pleasant
cubed
parking
thermometer
sanitizer
1950s
palace
palette
octave
categorize
celebration
cinematic
pulls
1939
clusters
arthritis
quieter
cdn
cdc
instrumental
casino
tightly
boyfriend
##ста
bundling
tortillas
endpoints
ticker
interrupting
doubled
metaverse
scotland
supervision
siege
embracing
arabia
disciplines
twisted
delayed
fertilizer
cartoon
##instance
prospero
enchil
feasibility
trailing
unconvention
hormones
luminari
conjunction
sealed
prisoners
vpc
ridicul
rumors
photographs
cnn
proficiency
unicorns
hemis
ranks
misunderstanding
rnase
pseudo
buddhist
cruelty
prohibited
jerusal
hedgehog
cigarettes
ferment
inconsistent
rossum
trolley
greyh
athletes
bmw
md5
sisters
aliquam
polymerization
preceding
devastating
bolivar
showcases
viewpoints
turbines
shepherd
francisco
disguised
neutrons
dismiss
detachable
ruthless
deduction
fleeting
##normal
province
eligible
neuropeptides
pyrenees
sulfur
governing
acronym
mundane
sauerbraten
congratulations
fyodor
tobacco
##otechnology
lactose
plumbing
biodiversity
##tileentity
checkra1n
princip
placenta
outweigh
lincoln
0x
7th
777
ace
aka
bid
berry
cuc
dm
etern
eins
f6
fist
genders
hides
hodge
horses
jr
ky
ket
kod
lcd
nl
npr
nets
rcs
rvalue
sore
tard
ubi
vapor
wol
xs
x86
zop
до
это
##hp
##policy
##non
##namedpipe
##lc
##doms
##oz
##oos
##oft
##f1
##fia
##fets
##zs
##uy
##67
##не
##orient
##orestation
toaster
##eda
##edience
##itle
##arbon
##icles
##isen
##elist
##ctory
##etta
##stood
##utter
whims
stance
thats
##oto
##urious
##ige
consect
anos
ante
anton
##thest
##ulk
exempl
choking
chedd
##umines
##eman
##emis
haunting
##una
##unge
##unarity
##usic
##plex
lee
lip
unwr
##apol
inclus
scree
##arding
clown
modalities
otherworld
##ibles
grays
knuck
disreg
coke
##ensical
overuse
makeup
genius
emits
setinterval
getl
brake
braga
simd
##full
openings
##ubmit
##ribe
attitudes
flint
wellness
quests
subdirect
bland
blame
infilt
guest
##rolled
userid
##bridge
warping
energies
beforehand
hardest
marker
markup
metropol
freeing
certification
paired
paws
messy
thinkpad
analys
orderid
headcr
slit
slur
123
sunflow
brook
squash
marketplaces
blockb
blocked
##ascar
##azing
influenza
godzilla
presidential
superman
lasts
lasted
contributor
immoral
pastel
urp
uran
1885
massage
stepped
positioning
virtually
accountnumber
introductory
photographer
detector
vien
predictive
analyse
faceted
##ographics
associative
matched
domest
amongst
173
gotten
convol
14k
explanatory
##ceries
##shima
traject
perfection
garage
civilian
irreg
segreg
sqlstate
explorers
spends
1996
executes
mitigating
##untary
hiro
rainfor
vulkan
1981
depths
scrub
milky
sectional
compiling
politically
millenn
christopher
permissive
touched
groceries
semantic
vibrations
siri
flavorful
grammatical
palm
scanner
sparkle
spellcaster
chronology
isolate
sudoers
statistically
journals
whiskey
wizarding
chaotic
mrna
sixth
compliant
firmly
siem
benj
skeleton
promotions
celtic
spirituality
hydration
##attan
colours
stems
rejection
benchmark
scarce
superconductor
waits
tolerant
##▒▒▒▒▒▒
nicht
logged
julian
stoma
lacunarity
discourse
discourage
illnesses
vampires
penalties
asteroids
nerd
dysfunction
##ulsive
sectors
bonus
##castle
microcontrollers
adventurer
siblings
unstructured
squirrel
evaporation
evaporate
nitrate
reserves
rabbit
misunderstood
liverpool
cheesec
jersey
santa
tabletop
coughing
resembles
##datas
##default
negligence
ninja
rituals
earnings
immutable
rollerbl
ribbon
tilted
deliberate
exacerbate
nonsensical
chimney
giants
isotopes
puppy
dongle
contaminated
##birds
whitespace
diminished
reconcile
filedialog
metallic
deprivation
##specialrenderer
epistemology
##component
barbecue
antisemitism
##2img
livestock
dainty
stochastic
haunted
grandson
unconventional
cheddar
unwrap
otherworldly
irregular
0f
3px
750
84
900
a²
aria
bast
bounce
c5
cage
cue
cater
cited
cush
caves
dart
egest
hens
hitch
iit
jedi
komm
lt
ld
mud
momm
mqtt
noun
ond
pis
pellent
pwd
qfile
rag
ramp
rfc
sind
sals
sperm
tonal
ttttt
wanna
xxx
zinc
что
##iere
##iary
##pers
##pages
##rak
##rome
##tor
##games
##bow
##bur
##cere
##cred
##casts
##compat
##o3
##oot
##finder
##qn
##qg
##zn
##97
##ать
##▄▄
##erbi
##esque
##anim
toll
##ionage
##root
##chment
rewritten
##uted
beam
beak
begun
itp
stern
##amina
asi
##igan
anew
canaria
prow
ally
alley
deuts
chalk
usda
neox
imap
ensemble
shines
##plugin
##orted
##pleasant
##qual
ador
##allows
resizing
unpleasant
impul
impost
scout
scary
wasted
##ogy
helios
modul
feast
feared
##iba
anyways
outstanding
outliers
amen
dispar
disabilities
pertain
##inte
emble
buil
##loc
codec
pocket
simon
invalu
##ubers
pyqt
startups
##prite
fled
flawed
considerable
retired
runny
webrt
params
parchment
distinction
skate
factions
locom
carriers
filenames
calvin
ideologies
belarus
monte
monde
confid
servant
multim
projected
learner
assisting
increments
promised
eleph
cleared
temples
##cope
sincere
refere
breaches
ordering
headline
headset
slip
behaves
approaching
glac
sounding
soundstage
labour
##acese
##scs
reactive
radi
preservation
replaces
discern
grouped
enjoys
actionable
collateral
barely
virtues
##ometers
blueberries
synonyms
feeds
probable
##raining
neuralink
kingdoms
recognizes
educators
primitive
essentials
visualizing
visualizations
adaptive
adaptable
csharp
crossed
mutable
175
conv3d
screenplay
camps
armed
settled
psychologists
psychedel
iterrows
garnish
vector3
malfunction
wallpaper
utilitarian
threatens
225
bowler
deadline
schedules
##from
advantageous
bankrupt
seafood
purchases
responded
capacitors
dws
fatty
reinstall
insightful
mentoring
butterflies
meantime
vanity
viterbi
thicker
contractors
mortality
southeast
beaten
sudeten
uploading
victorian
victorious
constraint
abstractions
towns
bandits
##101
intrins
rankings
madrid
db2
martial
dominated
033
bearer
arthrop
chrono
chronological
unaware
elegance
imperfect
disrupted
disruptions
transmitter
celery
subtracting
athens
flee
proposals
intervene
scholarship
occupied
correlated
dyst
greetings
fluctuate
physicists
zeus
zealand
orthodox
amplify
espionage
contradictory
luxurious
0110
dubstep
barking
polymorph
instinctual
kenya
dysphoria
metabolic
pearls
terminology
dissolved
##namese
inspector
vietnamese
compensate
champion
inquiries
omelet
surprised
accelerating
mercant
rutile
zucchinis
billy
treasures
puede
inaccuracies
composting
distorted
diesel
duality
piercing
moderator
counselor
entrepreneurship
nomad
immutability
##aaaark
monopoly
roommate
deterior
obscure
squarep
inevitable
aseprite
incompatible
vintage
geocaching
intimidating
zeroth
manhattan
syndical
skeletal
uppercase
proverb
stranded
##strokes
deuteronomy
saudi
faculty
perovskite
jerusalem
blockbuster
hiroshima
egestas
pellentesque
salsa
ttttttt
invaluable
webrtc
2a
4000
4chan
8pen
bombs
dere
duct
f7
fes
fid
fus
gol
gab
gsp
hinder
honda
kale
kiana
mere
mario
nir
nurs
norde
ott
ondr
pes
ping
pel
rc
rans
raster
raz
tmp
tcha
uber
vault
wool
yarn
при
##iavell
##sol
##ea
##ean
##rist
##t1
##lr
##lad
##gc
##bly
##aque
##cery
##oise
##f6
##fet
##fold
##wal
##walk
##wave
##jet
##21
##vik
##uu
##xr
##ти
##еи
##ered
##erver
##oras
##enic
##enos
##ington
##itant
##requ
##lem
##isp
##enta
##rown
isp
##stock
##stering
rear
##uther
stee
##amaz
##otomy
onc
onchange
##idental
conway
sums
##adin
exar
expend
deall
chasing
##emention
##istically
neil
##unches
trash
shag
shore
shots
shatter
seated
##osely
fright
##mente
worsen
adorn
##izo
plots
plasma
pray
resident
atatur
incap
quiz
##sover
creat
helm
modem
##ffff
##astically
interst
knit
knuth
##velope
conser
ami
timezone
colomb
preload
buoy
indul
nova
hisoka
relating
reluct
foes
fostering
playbook
twister
##iseconds
attended
personas
goodness
agitation
subspace
webcam
elves
chefs
##axis
mins
guan
carn
1977
1964
downward
afor
improvis
potions
greatness
##curs
belly
readfile
daytime
##otherap
assists
sway
cleans
machiavell
refining
refinement
practiced
priest
individualism
pathogens
##arser
generalized
recommends
slider
personalize
dematerial
12th
inflict
traded
##service
linspace
saliva
investigating
measurable
correctness
courts
##ikovsky
shortly
trips
trivial
exclus
paints
nonpro
predefined
specially
pastry
cookware
selects
loopstack
barr
ultim
glove
antagon
brainstorm
conversely
clickable
imagined
reviewers
ledger
##bytes
educating
hollow
norris
mutually
rocky
130
cambridge
listened
##strong
tasting
translations
dragging
britons
armstrong
##hyr
##holds
repeats
comfortably
emergent
cropped
cosine
gitlab
striking
1990
chickens
splash
mastering
rendered
illum
programmable
##maj7
deny
scraps
undo
undes
violations
escaping
puff
claiming
spanning
penis
uncommon
utah
phrasing
democrat
458
milliseconds
pursued
deployed
compares
suspend
semicon
decreasing
1960
bootable
churchill
1974
1975
deleting
concentrations
hopes
daemon
innerblocks
bills
kidneys
sparked
robustness
bacterial
confirmation
harvested
instrumentation
lungs
borderline
iii°7
bagu
guyomar
##сти
sufficiently
worrying
replicas
abcdef
crashes
comedic
blending
sexuality
scarcity
##market
honestly
correlations
karamaz
julius
electroly
refreshing
alphabetical
prefixes
retaining
marxist
lionel
##ния
sprayer
mkdir
##hhhh
commodore
disturbing
kinetic
bursts
rabbi
teenager
sweeping
denser
enclosed
enclosure
urgent
fetus
turpis
trustworthiness
suffixes
swedish
buffett
negligible
xyz
stabilize
hvac
hvlp
basketball
ugali
anchor
concatenate
pwm
##phenidate
vessels
surgery
physiological
##hedral
anticipate
раз
alibi
accordance
syllables
occasional
prolonged
ihwbinder
consecut
diagnostic
valkyries
nostalgia
sicilian
consequentialism
sovereignty
mermaids
charismatic
wsl2
alfred
newsletter
lindy
splend
reboot
methylphenidate
tranqu
mcdonald
tuberculoid
rinse
zephyr
bargaining
hemisphere
eternity
consectetur
grayscale
kommt
prowess
##integr
buildup
psychedelic
mercantilism
squarepants
nordea
ondrag
tchaikovsky
steeper
##ementioned
ataturk
colombia
semiconduct
karamazov
9x
apert
b²
bout
bals
cous
cual
cada
cilant
dass
durs
dodge
ej
eul
eph
hz
jol
ku
lx
lem
lts
lanc
nal
nud
pom
pam
pest
pem
pscs
ri
rt
rage
sine
sided
tails
vern
wary
wield
xl
xf
xen
xtx
zen
во
от
то
##hark
##iam
##iper
##sr
##pat
##pay
##rc
##tn
##lj
##message
##bh
##bus
##bound
##bone
##aid
##aways
##44
##81
##doc
##yd
##yan
##yard
##wm
##win
##zm
##vana
##uke
##ます
##63
##хо
##🤓🤓
##▒╢
##てす
theod
##inn
##inence
##atta
##orp
##oration
##ancer
##inging
##itters
inade
##aron
##icion
##lepsy
##asian
##rot
rept
replicated
beacon
stating
##otive
##seus
##odic
orph
##irth
alk
aloe
##agascar
deont
deleg
##pex
choms
chairs
##email
usability
imread
seiz
seaw
##ortion
notably
doi
doom
##ques
##quis
worries
plugging
prager
abd
abdom
##elli
##eller
contours
qubits
cler
washer
myclass
##grade
graham
knee
disj
coil
peru
spider
spinal
desolate
##ipation
newint
##oku
roam
rope
workings
modeled
appcompat
nostr
basement
idah
wrapped
differentiation
##const
formulated
boston
crates
curtain
rema
textbook
subred
elmer
backups
chewing
signatures
finnish
##ocar
##ocative
artich
handlers
lightdm
donations
cavern
downtime
curricul
confined
warn
projectile
diver
limbal
##coat
##colepsy
repo
profiles
aired
ency
happier
mathbb
pathway
impacting
geothermal
geographical
identifies
1200
sunscreen
achilles
delve
viewport
tablets
##scape
##osthen
farms
reacts
philip
depot
deprec
ethic
sorrow
cookies
looping
edx
ultrav
tracker
3090
sensing
rulers
vera
captions
strengthening
##clop
##hnen
debts
figuring
expectation
collects
gradu
cardstock
damper
holly
hunters
dreamed
rotates
navbar
pickle
youtubers
recordings
conflicting
axi
malcol
magnesium
innovate
sega
reflective
reliant
splunk
galile
1986
struggled
illusions
##1111
branching
radius1
radius2
battlefield
violation
violates
dwell
##aea
hashes
oxford
retrieving
dryer
amazed
edge1
edge2
females
annex
symptom
utens
phenyl
democrats
finishes
rebel
rebirth
prioritizes
fanf
##urrency
attracting
fueled
bulk
tendencies
medicinal
comparisons
tabular
climbed
estimating
judy
cvv
1968
extending
dwarven
fascist
palest
paladin
1971
##ylum
concentrate
gallery
laughed
madagascar
eliminates
displaced
narcolepsy
calmly
anxious
rhymes
dotted
criminals
scrollable
extrud
##────────────
conquest
asserts
img2img
salads
exploiting
reproductive
borrowed
ruin
coconuts
empathetic
waist
honesty
sundial
karl
partnership
dye
unrealistic
republicans
shutdown
mp3
umbre
thriving
implied
shelves
proceeding
spatula
satisfactory
contradicts
lacanian
politician
bombing
owl
rsv
instructional
typedef
inhabited
firewalls
forecasts
accelerator
sdk
mesa
harmonious
##ных
hemp
festivals
teenage
odysseus
stereotype
absurdity
normalizedarr
aye
colossalai
indirectly
redundancy
inconsistencies
wicked
johann
allergic
recreational
intrigued
confrontation
speedrun
reckless
reloadresource
ambiguous
bolivia
tyrann
assassination
analysts
nadph
weren
averages
vessel
wireshark
multicurrency
crosslinking
slogans
reconstruct
warehouse
metagenomic
evacuate
remedies
eratosthen
peripheral
alpine
scissors
pigeon
renders
abbrevi
downturn
hutu
indistinguish
discrep
unexplained
hypotheses
milestones
segregation
polymorphism
nirvana
ransom
balsamic
cilantro
inadequ
chomsky
idaho
ultraviolet
malcolm
eratosthenes
2f
299
4x
4ac
87
8k
baaaa
bambo
dor
dich
dora
fond
fauc
gon
gian
gins
gmos
lig
mcc
n2
nfl
nbsp
omit
p3
pause
pdo
pestic
qt
rail
tid
tame
vic
vines
vox
ylabel
zfs
°f
ис
ре
со
##hem
##held
##hiker
##iago
##pu
##pret
##ei
##nest
##nable
##take
##tools
##g0
##gle
##mith
##mate
##bot
##bie
##bird
##bula
##fes
##kj
##kim
##qk
##jour
##28
##zw
##zv
##zle
##vet
##uf
##uitive
##6000
##αι
##ου
thie
##erately
##onies
##esity
##anine
##anaka
##alm
##ala
##itated
##itution
##itian
##rey
##lee
##isch
##iscing
##iscipl
##asu
##sted
##styr
forex
##chat
##owatt
reef
beverage
stole
##uron
condu
conference
cany
canon
##lyn
##imensional
##odus
orn
##aders
exodus
##agick
##ereau
##abi
##emy
##emos
##emagick
##istication
haha
nebula
##uned
##unate
enrich
shang
sevent
##ploys
##ection
##ivism
##acted
adip
lepr
lebr
pledge
abac
sockets
unpar
imposing
arden
aroma
incas
quo
scare
clang
clog
claws
##keep
creed
creep
##iev
acet
##ibul
##aste
##asty
##astical
addict
outsm
gren
grac
grids
grapes
##velt
##ksw
amid
amino
ambit
disconnected
dislik
coco
timeframe
spans
deser
desist
columb
##00x
preprocessor
system32
setitems
roose
##endo
novice
obesity
wright
generous
worldview
openly
opengl
invers
formally
defic
booth
crises
##erte
technician
##ysburg
flora
floral
transp
transfers
justified
wellington
chargers
##enging
retr
retiro
runesc
polished
cheats
numbered
blit
fines
artemis
donuts
cargo
populated
median
drastically
approval
confidential
surreal
protons
state0
##culus
passenger
mussol
devi
revival
calculators
logits
catalyst
headlines
slash
125
spacex
safest
litter
protections
packaged
labs
corrections
##emberg
chatfs
digging
summaries
trie
triple
snail
circus
painted
volksw
##redited
subjected
musician
childhood
superst
specializing
propulsion
urge
archim
posting
angled
edited
barista
boto3
payroll
fills
adjustment
parametric
imagemagick
terrestrial
streamline
editors
continuity
treaties
crosses
rockets
suppression
instructor
00000
translator
architectural
colorscale
pushes
welcoming
garcia
encouragement
iris
melon
mitigation
chickpe
401
403
ecumen
manipulated
bottoms
nucleos
stackover
denote
float32
demonstration
penins
tutsi
kilowatt
inventor
qualify
villain
villager
lenovo
telephone
pursuits
insertion
puls
honors
##ttemberg
tabl
pizzas
estimation
grandpar
grocery
uploads
summarizing
departure
coup
1954
ioexception
tactical
paradoxical
talents
##guereau
broker
laughs
infected
polystyr
elimination
sparkling
cracked
margins
decorate
sophistication
obsessed
cylind
375
crashing
pilots
jeans
adept
doubts
psu
ukrainian
torment
analogies
snippets
exhausted
bioenergy
gradlew
cornell
gmo
cultivating
pillars
greeted
unwaver
blindness
yamanaka
adversity
suspension
woodchucks
anomalous
disappeared
shocked
aquatic
initiative
picturesque
propagation
astronomers
gamers
prolog
jargon
administrative
chilean
blurry
changefeedprocessoroptions
hints
cheerio
invasions
anatase
officers
bouguereau
fisheries
828
brazilian
densities
mineralization
crocheting
pyramidal
santiago
tavern
bodily
btc
kanji
esteem
tacos
recreate
woooooooo
bibl
grief
suppliers
biceps
scrolling
vendor
todos
showcasing
deliberately
huggingface
annoying
stanford
reinforced
sasanian
neurotransmitters
imbalances
wilson
registration
sugars
endeav
deposits
b2g2
introspective
wandering
populous
stylized
wurttemberg
nigeria
distillation
hermeticism
gettysburg
macaroni
nanowire
osteotomy
fuego
principal
tardis
screeching
benjamin
hitchhiker
##credentials
deutsch
pyqt5
referend
syndicalism
interstellar
aforementioned
nonprofit
consecutive
euler
encyclop
umbrell
indistinguishable
bamboo
##isciplinary
adipiscing
lebron
ambitious
roosevelt
runescape
mussolini
stackoverflow
polystyrene
unwavering
2tb
aqi
b1
bunk
cauc
fount
fudd
giz
gord
hopping
houst
ling
lur
ligh
lyn
mish
mia
nib
oy
opend
oculus
pacing
porous
qthread
rg
sich
sells
tamed
upt
ufo
vatic
vaping
wan
wage
ward
xr
xvi
##han
##pent
##pot
##gia
##mb
##md
##mus
##b2
##bases
##43
##culture
##ders
##dist
##dles
##fits
##7b9
##kary
##wy
##well
##qy
##1000
##zo
##vo
##vely
##ville
##uya
##xiv
##ду
theolog
##inar
##oug
##alt
##iti
##itone
##itty
##iterate
inert
##arth
##asive
##roc
##rock
##ilst
##ilight
##std
reich
bepo
stab
stamina
##igms
proactive
als
##agus
##ifter
##ifted
##abble
neolithic
##opia
envelope
sep
##pts
##plus
##oreal
weir
weaving
hein
soar
intact
unh
unav
unpro
uncont
unwind
##aped
incl
scoot
wasting
willis
spear
modems
manjar
##anship
feather
hasta
mycan
mynas
intertw
outs
comma
ample
disks
perc
provision
spice
examines
colds
newcastle
preg
prehist
phi
phar
employs
setopt
rober
pew
induce
braces
opus
recur
partitions
generators
fooooo
actress
openml
openweather
invaded
smol
detrim
crumbs
variability
twink
twilight
curds
list2
##ysical
attr
solitary
solitude
flush
2050
transcript
transcription
##gger
keynes
subfolder
pollin
sauron
elix
parque
joan
backing
backyard
skipping
corout
herding
blond
classifiers
##pported
laur
handed
lightbul
popping
seeq
planner
typo
hadd
constellation
currents
realms
softmax
swan
swear
checklist
##license
##ribute
blob
blocc
believing
mathjax
biol
eskim
logb
logistic
catan
drip
slid
demean
affinity
legion
legol
showdown
delivers
requesting
glimp
packets
margar
shortage
11th
volum
governor
cyan
clearing
depiction
deposit
secondname
propell
10000
selective
##aha
stepping
collar
##iddles
latt
synonym
photoelectric
feedforward
predicts
drawings
verifies
reasonably
directorypath
figma
validated
initialized
grader
descriptor
##sylv
raft
hearty
summing
separates
turbul
##uccess
macronutrients
camb
chemist
shapely
##ippers
##gener
factored
embodies
malays
emerges
labeling
linearly
connectionpolicy
infinities
cosines
pcb
peterson
1992
queens
burrit
mentioning
closure
##ancies
nuclei
famously
stdout
stdio
miami
lyra
odors
mediums
##taic
hashtable
announce
ratios
fantastical
paradigms
extraord
320
austrian
breadcr
frogs
luke
manufactured
absorbing
tvs
##collection
pleased
pleasing
curlopt
churches
constrained
repairing
sheet1
1963
##radius
breaths
boosts
senator
distraction
drove
administer
constitu
colonists
madonna
thinks
overfit
molten
rhin
renewed
##pticism
luna
scrollview
mascul
skepticism
recursion
obsession
injected
##okenizer
podcasts
fragrant
coinc
sacrifices
mailto
bbc
pronounce
accommodation
##essori
roasting
shakespearean
##check
hierarchies
discriminator
arabic
adequately
spatzle
chromatin
##offs
residue
hacking
ancestor
unintellig
guardian
superiority
nickname
certificates
judgement
drafted
lesions
dramatically
witcher
witchcraft
##вать
deterministic
lectures
veterinary
punishments
aerodynamics
ayud
abandon
unsupported
pierre
muffins
rivalry
synthesize
##vsky
sighed
montessori
affectionate
deductions
athletic
exponentially
deadbolts
punchline
rebuilding
centaurs
mileage
vigilant
zheng
sarcasm
traction
nonsense
surgical
disclosure
tubes
crosslinked
neurotransmitter
skiing
omnipot
ctek
tierra
lantern
reunion
bourgu
mascot
aphex
permeable
obligations
encapsulation
lentils
qwerty
phaulk
trigonometry
touches
rearrang
poignancy
thumbnails
udemy
unchanged
slavery
pennsylv
clauses
shampo
detergent
crossover
whimsical
knuckles
subdirectories
metropolis
brooklyn
vienna
rainforest
cheesecake
sudetenland
arthropods
omelette
buoyancy
barracks
curriculum
faucibus
giannis
abacus
volkswagen
peninsula
referendum
gordon
houston
vatican
mycanvas
openmllicense
bloccpay
glimpse
phaulkon
pennsylvania
2pm
5k
51
6th
bak
bong
bry
bizar
citing
fog
gad
hans
horde
iz
iac
jill
ki
kart
mast
mango
nur
nint
pact
rf
rach
rug
rash
riddles
sow
teng
tony
u2
ux
wired
xp
xlabel
yl
yer
yol
yak
yang
z0
zerg
ме
##hub
##hai
##iert
##parser
##nut
##tag
##tles
##town
##lop
##gian
##aff
##cq
##cell
##camp
##dk
##dump
##disk
##oven
##yles
##fen
##7b5
##jv
##91
##var
##uro
##uada
##62
##ем
thief
##eris
##onics
##ester
##eseen
##anol
##anse
andy
##alvik
##itin
##iona
##ican
##leys
##iso
##omo
##ombo
##asar
##elo
##elor
##ete
##robi
isfull
foref
reag
bever
whilst
stif
stub
stamp
stroll
##amics
##aments
##ationally
##see
asgard
anoint
##ayan
##odel
##odio
alger
alman
algo
deception
deeds
##ifi
chal
chass
chmod
##emia
##emusic
neque
##ungen
##opart
impending
enqueue
##plant
##illary
##ivia
adverse
adolf
admission
levi
plc
plum
plist
prayer
aber
residence
resizes
uno
unpl
lobby
lovely
imped
impart
arn
arxiv
gogh
clue
clones
cloning
wasps
stray
strife
##acs
##acular
##ffman
acces
feug
##gray
##area
interoper
likewise
griddle
upfront
consoles
##irection
apric
dislike
discharge
provisions
spraw
##enson
overlo
##inters
newbie
serene
kevin
systemd
getstart
getaxis
thanos
##ountable
apprent
nums
brad
bricks
##ishes
underworld
humble
##icking
invading
defenses
deforestation
cra
folks
acclaimed
regimes
##yslexic
atten
reminis
2077
decad
charl
charm
##gettable
elven
eliot
elrod
redis
backs
mainwindow
htm
skating
corrosion
finet
##ocode
infants
infused
lave
carol
carlo
owns
planks
typho
hoffman
ideals
everybody
terminate
confuse
confection
multitude
waterproof
mighty
equity
swallows
diarr
concat
hardness
ensl
purity
repay
expanse
revan
pathfinder
biking
espress
organizer
costumes
##exist
stringlist
magna
storylines
risus
problematic
demographics
affair
traders
fuze
##parse
glory
nato
freud
referenced
statue
##asterror
triath
##scopic
snakes
exclusion
110000
voluntary
farther
lovebirds
deposition
maintainability
wordle
strategically
ethi
##ashi
micronutrients
appeals
moroc
##apsed
steve
stayed
microb
synaps
detects
probiot
randomness
integrals
saturation
converge
conda
raid
souven
##valid
paperwork
germanic
domination
missile
1790
starvation
turk
baden
mounting
transluc
##shine
##liable
maximizes
psychiat
psychotherap
iteratively
distributive
axs
axe
magnific
sqlcode
shaded
fights
##───────
melodic
flexbox
bowel
extracting
burrow
dirname
volumefx
stressed
denmark
midst
violating
hashmap
fatal
handsome
ohio
##alleled
glassfish
villages
jacks
christof
##quez
bulg
highlighted
suspected
birdwatch
saucepan
absorbs
ignor
ignite
##llll
##colors
vibration
##dev
1962
obstruct
couples
courier
1958
1952
1973
celebrity
talks
janitor
premises
fabrics
incorrectly
transformerencoder
colonization
martian
molar
crackers
brushing
harvard
unreliable
fortunately
ghostly
durer
333
pouring
sophia
stormy
polynomials
##сто
disruptive
advocacy
formerly
crashed
tortor
pods
fragrance
deceit
inequalities
occupy
witches
granola
barbell
episodio
kicked
compressor
murdered
##changes
draining
grabbing
grabbed
discriminatory
cortex
fiscal
ancestry
luminous
preheated
tweet
rsync
##thearted
strokes
cursed
gambit
exceeded
admissions
resonate
resonates
overrides
jungian
entrepreneur
dentists
a2f2
harmonies
anthropomorph
freddie
singularity
mandate
##cribe
pseudocode
transistor
perpetu
distortion
lubuntu
counseling
scraped
ventilated
resemble
encompass
immortal
exchanges
mvp
devastated
##communication
disappointed
disappointment
magazines
merchant
unforeseen
unforgettable
кото
leonardo
physiology
undermine
smoky
disagreements
pancakes
cooperative
pendant
##hdj
hegelian
interdisciplinary
thermoelectricity
##builder
mischiev
namely
spike
regeneration
hospitality
alexandre
mothers
jenny
monopsony
bachelor
soothing
convergence
7772
##orientation
getlasterror
headcrabs
ldalvik
utilitarianism
dystopian
gabriel
oncreate
carniv
aperture
lancaster
seizures
ginsburg
lepromat
unparalleled
archimedes
ecumenical
biblical
umbrella
lighthearted
opendyslexic
manjaro
openweathermap
biolumines
demeanor
volumemusic
malaysia
breadcrumbs
unintelligible
bizarre
nintendo
isfullscreen
algeria
mischievous
2k
6g
ak
bf
bri
boun
ced
dagger
ech
ether
fals
faa
gems
hs
h4
hues
ig
ike
kling
kael
kcal
kiw
lr
leth
lvalue
mj
mak
mell
mog
makers
mashed
nf3
ost
rind
rides
rift
svm
tann
vod
vase
wird
winters
xi
za
ве
ка
√2
##hire
##houses
##iencies
##produ
##eb
##ran
##rants
##nite
##nik
##length
##800
##dog
##fg
##font
##files
##700
##jam
##just
##zt
##98
##vw
##vim
##uest
##xy
##xj
##сс
##со
##ги
##69
##до
##за
##πο
##erin
##eren
##inely
##enh
##anot
##alld
##itates
##itask
ing
ingen
##rem
##reated
##reens
##lein
##leigh
##asement
##etor
reh
##vec
beeth
stitches
##oli
##oltaic
onset
asim
asym
##idic
##idos
conoc
anf
prost
##irl
alic
dee
##verra
chard
chase
##umble
##umwal
##empo
##ripe
trist
tritone
shimm
shirt
sehr
seifter
##plate
##plays
fring
fresco
dost
mein
melee
leq
pled
plut
##perform
atah
##artes
loosely
impur
impract
contour
contrary
##orms
scand
##ourced
whichever
crepe
datos
moi
##ghan
feb
myc
interconnect
additive
outbreak
dataframes
##ualpa
uphold
amp
ammon
coarse
coexist
spas
spaced
overc
##bery
mates
emoj
getkey
getcontext
getservice
##arios
peach
pecul
tyler
nox
undergrad
posits
codebases
wrapping
humming
openness
##conf
formulate
boeing
pyro
thrilled
twenty
accidental
listnode
patty
patron
##pring
justification
chars
considerably
##plicit
trainable
optics
retry
elusive
parmen
endanger
endswith
mainloop
mines
minho
corals
hera
handy
cafes
drift
drilling
drills
typography
fierc
typeerror
##ianism
multitask
warned
realistically
watery
envision
leveling
nowhere
purr
limb
exposes
descartes
bloody
reflex
refuses
capit
commandments
founders
individuality
economists
##owska
lesser
logically
logistics
cathedral
harms
tellus
drizzle
combinator
argparse
sunshine
maid
divisions
mindepth
showform
delph
packet
labrad
lowry
111
deepf
preventdefault
clearer
prescription
motives
appeasement
immun
1500
urna
1800
targetport
##eshow
robin
darkest
ultras
antes
viverra
##orns
verd
verbal
##aptic
##umnav
panther
##ofrak
germans
interpol
consisted
competent
circadian
circumnav
indexes
##omancer
hearted
slowing
dougd
13th
respects
consequently
historian
macbook
macronutri
navy
rowling
guideline
bedding
##strap
##strings
buddy
britt
horrors
fluent
vegetation
magician
survived
distributing
axial
velit
taxation
shading
cropping
melanch
consultation
deduce
dirpath
evolves
customerid
404
ecc
bankaccount
denies
wildfly
scrut
undec
publishers
minecraftforge
demonstrators
browserwindow
conductor
brightly
##trace
apologise
corrid
launcher
indicated
killer
attracts
pinha
325
procedurally
taboos
assigns
assigning
manufacture
judicial
commented
recipients
attachments
coupled
tener
shorth
palms
1978
1979
liberation
dispater
entertained
celebrities
juicy
boosting
distracting
clockwise
##venthandler
burned
porogen
albums
engineered
swimmers
binds
renewal
##buffer
##imentary
extrac
conveys
arena
alexa
fortnite
dicts
segmentation
clarifying
whispers
echoes
dimensionality
replicating
pmc
promotional
possessed
neutralize
hydrate
journalists
025
excitedly
sacrificing
explosions
incremented
deceive
leaning
polarized
bronsted
televisions
##нои
nicely
implant
implanting
twisting
retained
lacus
1901
gtfs
cancelled
kittens
buffered
euclid
enchant
dialectics
bao
ozone
anarchism
accumulation
1923
administrators
saturated
768
coherence
offspring
sdl
simulators
pedest
misunderstand
apparently
giganot
ansible
pico
harnessing
##html
mbti
reigns
captivate
nodded
advertisement
verbose
acknowledging
leafy
greedy
vendors
merchand
vigor
##directory
classmate
monetize
inpainting
disabling
disputes
shepherds
jacob
nixos
outlining
##filename
tremend
oppressed
facilitated
hugo
disagreement
soldering
jamaica
tamper
aspiring
excluding
octopus
hegel
arsenic
concluded
patriot
hologram
lasagne
quarters
vestibul
recession
untrust
cumulative
cascade
intensities
valorant
deletion
tocumwal
misinterpret
injustice
altruism
bvofrak
egoism
raphson
underfitting
einsum
sunflower
domesticated
cushion
adorable
emblem
multimedia
intrinsic
illumination
undesirable
splendor
semiconductor
dursley
johannes
##journey
seventh
outsmart
chickpeas
nucleosome
pregunt
elixir
lattice
extraordinary
beverages
almanac
impedance
interoperability
lavender
souvenirs
turkish
translucent
magnificent
kiwi
beethoven
asimov
asympt
atahualpa
peculiar
parmenides
dougdoug
macronutrient
melanchol
giganotosaurus
vestibulum
1g
3g
432
792
aes
bier
bmm
bah
bae
bwr
baker
bqn
ctes
dnd
dword
dental
dapp
hither
ib
iren
icel
jets
jaw
kb
kre
lym
luther
mw
mbs
pich
psw
poul
rus
rall
riders
sang
sans
tm
tide
uter
vc
vival
vcs
wang
wits
wounds
xenia
zur
zup
пре
てす
##hl
##hill
##hma
##hesis
##ih
##pit
##eg
##e5
##rage
##rorm
##nab
##try
##tores
##gx
##gable
##mates
##miles
##bx
##bear
##48
##c3
##cu
##corn
##d0
##fy
##fus
##74
##3f
##94
##900
##ам
##ια
thai
##erat
##erent
##erie
##erick
##enne
##anza
##aled
##alanine
##edo
##edit
ini
insec
##icter
##omain
##ason
##ilage
##stra
reused
##util
##utical
beams
whirling
stagn
##amis
##oler
##seed
##urric
ashes
##idades
##igated
cong
canny
##impl
##then
orcs
##adel
##adium
##essag
chi
chil
chia
churn
chitin
##estone
##estinal
##abouts
neph
neocl
##rip
##opods
tres
trent
trench
trinity
sha
shone
shru
shaker
sha2
##pless
##oske
##illions
##ortis
##quer
##omend
lew
plugged
ifconfig
heide
abused
abuses
##udo
liu
intimate
unrelated
arising
##ardly
clips
cloned
alla
##ogene
datat
stricter
modal
modifiers
##ght
feud
syst
syser
myback
anybody
##eps
##geist
intervent
gru
grub
conscience
dissoci
spins
spaw
##ipage
overd
colloqu
keeper
mating
emul
differing
##ermost
indones
##loa
appreh
##fty
numb
brat
brig
brass
underest
recomend
reloc
createwindow
smoked
playtime
playstation
pyl
crf
whereabouts
##erto
accents
informacion
reggae
##oths
techno
technologically
firing
flare
remix
justin
considerate
aggress
webb
webui
elena
elapsed
paran
distingu
distilled
reduct
skunk
minipage
104
10am
10th
1020
blaz
donation
donates
caramel
caul
1932
1922
medi
afghan
insur
insens
studios
hoax
mug
multid
sometime
writeln
histories
connectors
expired
##issim
pave
foundational
estas
##conomic
revision
economist
batches
##iculture
biode
awaken
restored
socialist
recommending
coloration
headlights
customary
slay
slim
slides
conception
maize
mafia
animate
legumes
activists
2024
delic
##athan
squat
protector
glare
glands
freeman
messagebox
marg
##embert
shortness
triad
##scroll
excell
112
sidebar
deepest
volt
radiant
milit
coping
landfill
audible
audits
superf
soreness
ulloa
specialty
morbi
groupby
##ovoltaic
automotive
steering
edgy
##awan
balloons
virtuous
microphone
tracked
payees
photovoltaic
googleap
paddles
lottery
randomization
figured
elementum
converter
mixer
npcs
streamer
cuter
##cussions
circom
soups
huns
indefin
fixes
separating
respecting
dynasty
convict
nodejs
screenplays
camembert
buds
architects
suitors
##solete
##python
##aska
mala
dietitian
irish
codomain
utiliz
savvy
richter
stripped
incorporation
scalp
journeyed
hiit
contacts
gasoline
stacked
unsuccess
##110
spiral
odio
denom
denial
scrabble
duis
sooner
piper
mythological
asthma
wesley
appendtores
resolver
paradise
fueling
telecommunications
sprint
seedlings
wishing
contraction
##ordered
mortals
southwest
sticking
federation
##column
wearable
summarized
##depend
interpreting
1967
rubbing
sanct
sanche
ivan
1972
celebrations
auch
corner4
corner1
corner2
corner3
autoencoder
420
0100000
rayleigh
citizenship
rhine
dictum
overlord
complain
sessionmaker
spectro
numeracy
memorize
##itori
##iii
##attempt
fleek
fragile
regulates
##▒▒▒▒▒▒▒▒
inquire
assembled
flashlight
hurtful
zeit
nicot
nicene
poniat
amplifier
esp82
chromatic
renting
cmd1
386
shocking
01100
01110
affirmations
succeeded
##ogenic
bicycles
praesent
cashew
stimulus
compassionate
oversimpl
commodo
anarchist
unlocking
pythagoras
irrigation
admiration
accumulated
elden
mammal
##worthy
interfacing
accompany
lagrange
hyperparameter
pedal
inferior
hawai
irrevers
nonlinearity
ingestion
fisherman
receptor
cleverness
cocktails
enforced
cheeses
compositions
cadena
##░░░░░░░░
witnessed
bodied
sighs
bartering
trolling
lifelong
monarchy
neighborhoods
aliquet
mantle
scrolled
terran
350°f
##iyama
##steps
cyclists
stoic
roommessag
coworker
sasuke
bureaucr
loli
pharmace
olympic
vermiculture
dilig
paso
sucking
##ffective
proclaim
navigator
lobortis
interfering
alchemist
desperate
soluble
posterior
dizziness
iraq
secured
123456
inefficiency
subsidies
refractive
wyrms
hedgehogs
greyhounds
##dataset
amenities
fidel
adorned
exclusively
zenity
orphan
prageru
caverns
phenylalanine
abbreviations
tablename
cylinders
lightbulb
yakitori
chassidic
feugiat
sprawling
espresso
synapses
lepromatous
emojis
noxious
undergraduate
fiercely
delphi
extracurric
merchandise
irenae
iceland
vivaldi
##rormessage
insecure
neoclass
heidegger
syserrormessage
mybackup
interventions
spawning
appendtoresult
sanchez
poniatowska
esp8266
roommessagetext
extracurricular
1mg
2g
auct
bern
cena
dod
dast
dia
dht
eve
eax
eats
ethern
fence
fumes
gaze
hips
jake
junk
ka
kas
kamp
lw
lace
lump
mour
moss
maker
pens
rapt
rng
ragu
t5
tak
tant
troll
uix
venge
wip
wail
wooof
xg
yyy
zog
вс
из
ми
##hin
##iu
##pop
##eur
##rh
##ni
##nc
##nets
##nuts
##tv
##lion
##lord
##gust
##gov
##galy
##aab
##aism
##cive
##cub
##cards
##copy
##dz
##driver
##yff
##yms
##yder
##ypus
##2d
##zx
##38
##985
##vb
##vish
##54
##5y
##ско
##ор
##лу
##ку
##με
##ρο
##erian
##inth
##onso
##anu
##anuel
##alam
##itus
##iones
##icular
##isan
##omin
##asa
##elve
##etz
##etra
##ilia
##sten
reper
##vectors
beet
stared
##ampling
##otte
##otox
##otography
##uras
converse
anna
##imil
##irates
exting
alchemy
##agging
dequeue
chests
##erequis
hacer
usar
imb
implicit
enroll
shame
shib
seq
##osures
##illery
notch
lex
##izoph
plural
iface
priced
prerequis
##anged
resh
reserv
soaking
intoler
unet
unions
artery
compart
quizz
scars
##ourse
buterin
creations
creality
mobs
helmet
modding
modifier
mankind
##group
mayo
interruption
outages
grape
grazing
eval
evident
evokes
upside
apf
amph
disbel
disgust
provocative
needles
spine
spiders
desde
overhe
overtime
##intuitive
newpath
prefect
phara
emirates
gety
roi
##endum
workstation
pele
pears
peaks
peasant
brink
opaque
reclaim
positives
obsolete
hummus
opencv
invoking
invaders
smash
##cias
detached
cran
crist
crts
curled
findview
solace
flamm
remover
2034
decoding
completeness
agrees
retreat
subd
webpages
polity
engages
endorph
chew
cheers
fins
classics
##tech
artillery
popcorn
performers
autot
autosc
plank
lookup
insist
insured
##bral
mundo
monot
monoch
confed
multin
applicant
vez
centimeters
visudo
somed
energized
##boy
equiv
keepass
swapping
toolbar
redux
prevail
hardy
hardly
hardships
purus
limerick
checkbox
muscular
multiples
sinks
devoted
practically
airless
installs
messenger
httpex
linewidth
ernest
revolves
##geries
schw
skillthreshold
bi2
biometric
cath
suggestive
colorbar
slopes
standpoint
affili
delves
linestring
liters
platypus
glitter
glitters
salaries
salvation
marketed
##notes
succ
##iki
marquez
##aires
benevolent
shorten
shortcom
maxattempt
snyder
115
prevented
landmark
predator
tariffs
##ampunk
bites
bitters
grouping
1892
arraylists
cityscape
documentaries
balancer
steampunk
micros
##roportion
##beast
synops
photoreal
philosophies
viel
fillings
##hea
integrates
tunings
165
debut
figur
virtualbox
providedmin
nightm
hola
holistic
clientreg
hunted
innoc
merits
consequat
coolant
timelines
instructed
planetary
lateran
map2
traverse
##aaab
##ipper
maximillion
committing
psyche
silic
50g
resistor
birch
reliably
peters
trusty
meloni
epit
richer
experimentally
stripe
striving
ecomet
cloudy
originate
originality
galactic
althea
lateinit
smoothness
##undlich
middleware
midjourney
neuritis
duoling
favorites
northeast
demonstrations
hashed
##changefeed
conductors
pretium
cybern
whey
seasoning
sauces
vastness
hatred
counterparts
counterintuitive
kills
telephony
springs
sprouts
bullets
renamed
dockerfile
medicines
proofread
parallelism
contrasts
grandad
ineffective
judaism
assessing
sonic
jumped
rapido
ramifications
sexually
1965
altitudes
parenthesis
walrus
arriving
##centric
rectifiable
1953
1956
papacy
tactic
dispens
dispatch
disproportion
concentrated
premature
premier
hydrox
polyg
faang
dao
michel
olivia
preparations
refrig
##oevsky
1942
brushes
brushstrokes
crystall
nanotechnology
nanopart
carbohydrate
##▓▓▓
mrs
mrbeast
drumming
criticisms
##labs
##сть
trickster
bosses
memorization
memorizing
possesses
tortoise
poisonous
digitised
journalist
hexdump
borrowers
recovering
baths
hamster
svms
instantiate
convinced
blended
ruined
psalm
##falls
redditor
openssl
toyota
symmetrical
443
prototy
racism
polarization
reconnect
annotations
pillows
pitched
physician
vaccinations
eagerly
nicaea
forked
tien
tiene
wetlands
fertilization
cancelling
fracture
prosperous
owen
enchanting
lorawan
kenny
subsequence
reversing
propagate
astronomer
gamer
exceeds
ihre
admire
1920s
1794
premiums
trimming
lunarvim
meteorologists
pentagon
exceptionalism
mercy
tropics
cottage
shroud
blanket
extensible
snapshots
compromised
mandarin
prohibit
clutter
rpi
rarity
anecdotes
tileentityspecialrenderer
##noise
allergies
biochemical
cfg
cynic
traumatic
desserts
exoplanet
sponsored
hallucination
hallucinations
championships
tinted
tyranny
companionship
pioneer
ugly
prevalence
woven
britannica
mismatch
noodle
disturbances
revered
thriller
newspapers
##camera
externality
consolidate
overseas
denoising
astrophotography
reconstruction
highwaytools
crunchy
malesuada
contemplation
khan
stainless
notoriously
arsenal
endeavor
restrainer
privileges
mischief
supersymmet
renovation
holograph
proclamation
lasagna
librem
prejudice
incentivize
juggling
antigens
penetration
sigmoid
sigmund
allegiance
adhesion
abolition
abraham
defects
spikes
##lisher
ankle
pleasures
enchiladas
cucumber
kodaka
millennium
siempre
mommy
ondrop
##torrent
##burgh
locomotion
fusce
gspread
ottoman
razor
shattered
cleansing
baguette
deontology
disjoint
utensils
pigeonhole
thieves
conducive
amidst
deficiency
endeavors
fountain
unhapp
pharetra
keynesian
haddaway
slideshow
legoland
shampoo
charlotte
ethiopia
morocco
christofides
bulgaria
birdwatching
vodka
rehabil
dostoevsky
impurities
impractical
misunderstandings
patriotism
asymptotic
lymph
pichai
poultry
nephew
sha256
##ogeneous
biodegrad
excellence
unsuccessful
irreversible
pharmaceutical
neoclassical
ethernet
extingu
shibuya
pharaoh
findviewbyid
endorphins
autoscaling
httpexception
shortcomings
maxattempts
clientregistry
duolingo
1px
2c
2px
364
5e
6pm
8gb
911
akin
bail
bins
bury
c3
cem
cries
caster
cauch
dp
d3
daring
dips
dns
eh
eerie
fc
fare
fades
fda
ferb
fiona
gong
getw
gute
gtx
gimm
hin
hatch
hipp
hallow
jerm
jframe
junction
jaws
kl
kidding
lure
latch
lugg
lsp
lumps
lelli
m³
nv
nort
nord
nio
nisi
pvc
ration
rpm
rhaps
riffs
s1
sony
tb
t4
tio
tsc
tires
toul
tribute
vt
vf
vie
vra
varch
wob
wkt
wielding
wifi
yann
yuv
ди
но
об
фор
└──
##hav
##iad
##rans
##rically
##rank
##mouse
##bk
##bin
##bell
##bars
##bug
##aic
##420
##dd
##d5
##oow
##yp
##yg
##yx
##wo
##wx
##wan
##with
##wares
##qq
##jl
##jin
##jon
##jos
##27
##25
##zip
##3p
##v7
##сь
##ски
##ιν
##ικ
##жно
##зы
##ше
##му
##てい
##inality
##atel
##atos
##enas
##anet
##ingles
toes
tosh
anderson
##alo
##eded
##itations
##itious
##itled
inet
inse
insecurity
infty
##arism
##ionment
##left
##isis
##isations
##isposition
##omput
##asso
##ela
##ctor
##etcode
##rob
##ilist
##store
reception
revert
beard
beads
whipped
stare
##cends
aspir
asylum
anemia
prodig
##imen
##odium
##ulu
##ulent
##adding
##adores
alumn
comun
##people
##ifend
chin
chap
##emb
hail
##akely
nect
necr
##uns
##unct
##opr
imitate
shear
shave
shingles
seash
frances
framing
##ectl
notations
##quet
mega
adren
leetcode
##ineas
heist
##ellen
sobre
ints
int64
unpack
unesco
unrav
loot
loosen
##ichi
incand
qui
ques
##acked
scam
scss
moj
helper
##acraft
acrome
feces
myel
mycel
interdepend
outw
gram
grim
grave
upsc
upwards
amate
peril
percuss
timeout
spar
##jective
##ailable
##ensible
newline
newborn
phy
phineas
getn
getx
roe
rook
##lower
peaches
indication
noon
nope
basmat
brakes
brute
brisk
idi
idiom
opacity
recap
sims
##fulness
generosity
##putate
humility
humili
smugg
deflect
defici
playstyle
bock
bohem
crt
crouch
craving
wherein
twelve
accus
listings
regener
solvent
flan
decou
decarbon
producer
textured
textcontent
charitable
##ggles
webdriver
sao
saas
redist
endure
maine
miners
108
offense
blakely
factoring
##pportionment
sourcing
guven
carc
performer
autore
filmm
potion
constipation
##reader
sheesh
mucus
termites
monument
warren
veins
##warden
##boost
envy
diagon
eleifend
previa
concisely
hardship
##ername
diffuse
checkpoint
expire
expires
madeira
##mmm
passengers
##ricks
sinister
##ixin
bloated
##iox
refinery
prix
prized
physique
brew
publisher
maths
economically
layovers
biom
culturally
entren
internationally
resting
restoring
headings
argu
121
sung
responsiveness
freel
html5
labyr
marcel
interacted
shortages
summoned
influencing
ocr
serviceaccount
philipp
presid
socioe
copenh
##anka
predisposition
ethn
preferable
professionally
ullam
morals
bittorrent
151
homepage
selectors
massac
##zegov
documentclass
##loader
edged
lengthy
botan
ballon
transformative
antics
optionally
filler
centering
probabil
##lett
168
debunk
minimized
initializing
establishes
##worker
providedmax
graduation
imagining
cutter
halos
indexing
journeys
separator
1415
screening
inspir
timber
timedel
naval
pickup
households
maximus
symbolism
symbolizing
planted
commitments
##ielle
threaded
comforting
taxable
pairing
222
dedicate
richness
collaborated
stripes
extracts
4090
ecx
##ancestate
originates
expands
surrounds
stdin
completes
romania
violin
shook
duel
duch
httpd
pdes
pdte
declined
declaring
kilcher
uncased
##ademy
capturegame
utc
inventors
buttermil
functionalities
launchd
indicative
pinpoint
##naments
210
inheriting
attendance
contrasting
270
venv
babylon
##hoot
semant
gladly
dolph
summarise
attaching
bootstrap
beginnings
crying
snowpack
tennes
walnuts
##contract
##controller
therape
calendars
1976
dispers
dragonfly
galloping
enhancement
cornerstone
drople
##crapers
clockwork
429
olives
1933
1935
bolts
ranger
advertise
raylib
spelled
brushdataset
forgery
logo1
minimalism
huh
dictators
fetching
vacuity
kilometres
cbwritten
advocated
injecting
transmitting
exploits
##iiii
interruptions
interruptible
salesman
podcast
cosmetic
cosmetics
supervis
moldy
loginform
superconducting
exhaustion
gentlemen
symmetries
granulated
urbanism
appointments
illustrated
rodr
ponder
insulator
guten
rentals
tiempo
suspense
shockwave
phosphorous
savedinst
pineapples
marxism
ginza
amd64
conquered
infringe
dialects
unequal
guarded
pumping
disturbed
fifa
approximating
washed
1797
avocados
soyj
caloric
franchises
gddr
mongo
trilogy
shrub
blankets
pedals
##ныи
inferred
##country
goddesses
gorout
synchronize
puedes
cantina
membranes
equilateral
densely
enforces
recurrence
cheesem
crossbow
perpetuate
anecdote
levitic
##iciary
tirelessly
montg
ethnicity
deductive
horns
israeli
supplied
conceiv
spoiled
sponsors
revolutions
atlas
quotas
spoonful
hatsune
pioneers
persuasive
eagles
scavenging
dispute
rwanda
disguise
bosnia
deadlift
konn
oppressive
oxidation
whispered
pharmac
seagulls
olympics
registers
jamaican
metagenomics
occasions
inhibition
bhopping
##corper
betrayal
ngrok
mattis
renovations
##address
prejudices
esotericism
gastro
pornhub
supercomputer
supercomputers
transcendental
motifs
nikola
##human
tedious
quirky
confronted
divisive
placerat
skyscrapers
gregory
embodiment
hurricanes
disregard
uranium
impostor
confidently
incapable
improvisation
democratization
abcdef1
ondragstart
xfinity
alkaline
appcompatactivity
palestinian
tyrannosaurus
canyon
nibh
unavailable
scooter
intertwined
percival
prehistoric
roberta
detrimental
blonde
synonymous
bongcloud
impartial
reminiscent
decadence
diarrhea
triathlon
probiotics
которы
klingon
##alldate
shimmering
multitasking
tremendous
uterus
lewis
indonesia
afghanistan
superficial
malapportionment
irenaeus
tantal
amphib
disbelief
multinational
schwab
microscope
nanoparticles
prototyping
supersymmetry
holographic
rehabilitation
cemet
cauchy
jermacraft
luggage
varchar
yannic
yuv420
acromegaly
mycelium
deficiencies
bohemian
labyrinth
serviceaccountcredentials
socioeconomic
copenhagen
ullamcorper
##zegovina
timedelta
capturegamecommunications
buttermilk
tennessee
savedinstancestate
leviticus
yuv420p
4m
680
70s
7mg
864
880
98
a7
bd
bw
bart
bog
bip
baham
bribe
cay
cider
cto
cixin
dag
dorm
d20
dazz
ely
elo
ety
fx
fml
ferry
g7
ges
gpl
gds
groom
hime
homet
hamm
hams
hdm
hstack
i1
ian
jon
jess
jerma
k²
kent
kos
kui
koh
lle
liz
lbs
mn
m2
ming
mime
miku
nou
nim
nach
nai
nurt
p0
pore
pud
pare
pizar
rif
riv
ropes
rpool
sly
sip
sres
tuck
taming
tinder
tapping
tiger
tacon
u32
vor
vort
viz
vold
vae
violet
wre
wore
wich
wok
wakes
woof
yor
yards
¬a
как
ма
фи
##hab
##htt
##href
##iour
##iors
##post
##person
##e2
##eet
##eus
##eous
##rates
##rays
##tp
##teen
##tags
##giving
##move
##bj
##bv
##ben
##bas
##bach
##bian
##buck
##bands
##brok
##aj
##affe
##400
##cn
##cra
##css
##cution
##yi
##fn
##free
##kc
##kra
##wend
##wee
##qd
##zheim
##vals
##5c
##57
##uz
##uch
##xm
##xb
##пе
##га
##ча
##λο
##ют
##ма
##╣╢
thym
##erkin
##inburgh
##atics
##escent
##orra
##enable
##aned
##anonym
anders
andorra
inline
inception
oft
##isse
##eleris
##entive
##entext
##rose
isempt
##owing
reint
reaper
##utan
##utic
##utpat
beasts
stair
staring
stella
##amos
##amide
##amous
##olo
ont
##idity
##igma
ana
anne
cane
##iman
##thora
##ulus
##ulance
exoske
alarms
alaska
alonso
alzheim
combo
##ldr
##ifer
##tera
chel
##umbers
hailed
##akon
nef
neat
##riad
tray
enigm
shipped
seize
##plane
fruity
##activ
doggy
mead
leib
pla
plur
##ppelin
prud
prune
##angled
heine
abusing
abusive
##period
resent
resur
soak
soaring
libs
uniqu
unjust
looph
imprison
contend
contra
contests
##acher
composing
incur
quar
quam
quora
scik
scamp
sceleris
butler
clan
clipping
cliffs
crepes
modulated
manor
##aco
feij
hass
additives
outward
outsk
outperform
##veland
upbr
apro
amule
coy
perf
perig
perish
proves
##xtures
overst
overweight
overpower
##intestinal
newvalue
specs
systemic
matty
rooft
buys
##erman
##arius
noah
baseline
idk
obey
obedience
assured
##ubuntu
##contr
detrend
pyta
pypi
cramps
##iah
exploded
startswith
thresh
thrilling
curing
##erty
##ertz
listbox
##present
##prises
##yss
flp
flames
remn
20px
transitive
filelist
filetypes
wells
charities
retraining
subnet
lifts
webxr
elong
elvish
paraph
parody
redd
redes
backpack
endgame
cheering
humankind
107
10x
1080
cork
herr
herzegovina
bloss
infeas
lair
ours
carve
carved
capped
populate
1900s
point3d
downfall
afrika
typos
monaster
readings
##ismod
daylight
surrender
surfing
counted
countable
memo
sombre
dijk
eleven
harden
harding
freezer
mucho
limp
expir
##omme
changer
notebooks
multiplications
developmental
profess
airborne
sizeof
brewing
estos
bats
##owski
issuing
skilllevel
bien
arrest
entw
entitled
organelles
restr
restoration
efficacy
cattle
##example
magenta
colorado
headqu
risen
euismod
##elson
legality
hypo
hyphen
fret
optimism
marco
hellions
chats
temperament
shortened
maxdepth
##scopy
travelled
sn8
causality
sidechain
##rette
volts
volutpat
successor
##pointer
secondhand
2010s
predomin
superco
superpower
supermarket
##ushed
bitwarden
discredited
15n
152
153
urho
arche
enterprises
##ouseventhandler
selectively
posters
modernist
livelihood
kindly
documenting
stev
stews
edinburgh
baron
barbar
flooding
cleaners
##whe
antix
limitless
detectives
drawback
##clable
adjusts
adjustable
conversions
copyleft
consumes
virtualenv
linking
linkhref
##working
collectively
presentations
condiments
destabil
cardinality
terry
fitter
closehandle
damn
holoc
cutoff
halt
rais
primates
fulgur
continuation
137
starport
##naire
standardize
standardization
145
cools
greentext
navdrop
totalitarian
##shsh
settling
welcom
magicians
##ielder
embro
embry
conditioner
shady
evergreen
pca
##izzle
plotting
epub
appliance
sustainably
cupboard
mitigated
eccentric
crypts
cryptic
vulputate
stresses
galerkin
frontier
##inois
##inoff
aligning
illinois
battlezone
##oada
publishes
romanian
escaped
connectedness
conducts
brightest
giraffe
declining
declares
annie
secretly
academia
qualitative
counteract
lennon
appends
appended
visionary
christians
photoshoot
comparative
pulp
thickened
sandbox
judiciary
seminal
sweetness
plethora
vibe
thorin
habitable
watt
wattage
guesses
industrialization
dolly
diagnoses
hypothetically
thermodynamic
grammatically
dwarfs
unityengine
##contents
dropdown
candle
##chemical
faq
constitute
illegally
rhyming
fulfilled
billing
madness
1937
eliminated
stimulating
advertised
albania
hobbit
merges
meshes
chuckles
lords
spotted
registeranonym
dissolves
bubbly
wizardry
drummer
criticize
tonga
hesitant
fabrication
mason
masks
uncertainties
sharpen
25565
liebe
plateau
ambitions
ambulance
upsides
torture
exports
athena
recovered
hamsters
endlessly
explosives
regulators
mailing
benchmarks
deckard
straining
torso
witty
crustace
analogous
tapepointer
440
halls
oregon
metaphors
cultivated
476
refreshed
comprising
negotiation
cereals
pounding
zeppelin
##aciones
corrupting
shelters
disciplined
1905
stationary
fertilize
malloc
neighbour
plaintext
granting
inducing
hormonal
pretending
casualties
infringing
recyclable
##model
judgments
widgets
slender
inspections
1793
1795
decrypts
##льз
telesc
trademarks
blueprints
kinetics
##5555
graceful
foolish
mercen
chambers
libx2
mesabi
fearsome
fungal
warranties
subscriptions
metamask
##pooling
puncture
terrorist
gcp
fishermen
##smanship
boulder
picnic
composer
witnesses
moderately
parliamentary
concerts
tempest
collapses
rebellious
scraper
exchanging
cfop
cfia
tangible
wooooooof
acknowledg
bibli
sistemas
fermi
survivor
obligation
##aaaab
subprojects
hatsu
pioneering
coalition
persuade
existentialism
dignissim
annoyed
scavengers
monopolies
stanza
hackerrank
authoritarianism
consolid
airports
slogan
1863
sidelength
sterile
excluded
sugary
remedy
ihwinterface
peripherals
sunsets
tumor
marginalized
lubricant
qaoa
qwertz
voyage
trigonometric
jefferson
sagan
sewage
interchangeably
regenerate
hospitals
##help
##romatic
shouting
carbothermal
scheiner
gazed
solubility
dummy
reefs
prestige
squeeze
rigorously
crowdsourced
##zhou
insults
salvage
safeguards
theatre
stalking
utterance
millipedes
millipede
homelessness
cherish
practitioners
illuminated
inclusivity
analyses
convolutions
trajectory
piskel
modulo
pertaining
skateboarding
##request
suspended
lemons
nudge
abdominal
clerk
curtains
deprecated
hollywood
discrepancies
voxel
shanghai
encyclopedia
##karyotic
theologian
smollett
coroutine
eskimo
legionnaire
cambod
burritos
masculine
omnipotent
bourguiba
rearranging
forefront
##irectional
attenuation
prosth
ampere
brittany
rallies
systime
colloquial
emulator
aggressively
insensitive
proclaimed
yyyy
zogar
repercussions
quizzes
monochromatic
someday
photorealistic
silicone
hydroxide
biodegradable
gimmick
rhapsody
tio2
nectar
francesco
adrenaline
myelitis
autoregressive
arguably
philippines
presidency
therapeutic
gddr6
gastrointestinal
etym
gdscript
hometown
hamsa
hdmi
nairobi
pizarro
taconite
isempty
reintrodu
alzheimer
enigmatic
leibn
scikit
scelerisque
feijoada
outskirts
upbringing
pytaj
paraphr
dijkstra
navdropdown
welcomed
registeranonymouseventhandler
libx264
0h
2q
2π
2ab
6x
747
8am
8th
ae
aaa
aaron
bj
baaaark
c8
ces
cac
cwd
dal
dare
drow
dread
danced
dmit
erect
eros
fg
feline
fused
gg
gou
gem
gamb
ghib
gandal
hp
hath
hertz
iau
iec
icy
jw
jj
jong
jquery
jfets
ksoft
kali
kworker
lap
lays
lively
mpl
mwh
n1
naz
nah
nero
nests
naked
oise
oll
oasis
pf
pv
ply
pant
pies
pays
pasc
ppo
pumps
paved
r0
r3
ronald
sda
sapi
s22
t1
tate
tach
tux
taut
tai
ucr
vy
vain
vous
vying
wb
wy
wig
wof
x3
xam
xyl
xubuntu
yem
да
ца
че
🤴const
##h2
##hift
##iage
##ske
##size
##pis
##pter
##patch
##pedia
##effect
##rents
##nished
##top
##tos
##teland
##mand
##c0
##cup
##counter
##dyn
##diet
##dlp
##oque
##you
##yect
##fter
##789
##kn
##kill
##wire
##wait
##z5
##3000
##vings
##vices
##51
##59
##uent
##ucle
##uador
##сли
##бо
##ませ
##нь
##чи
##ים
##כל
##×10
##תי
threw
##erit
##erity
##inum
##inars
##ati
##atz
##ativ
##atime
##only
##nde
##ority
##oub
##anadas
tops
toby
topping
##alon
##alone
inau
##arg
##reverse
##lete
##learn
##isive
##isable
##aso
##asil
##roding
##ilit
##ilize
fores
forem
forwards
##chi
##owa
##owers
##owidth
stark
stokes
##amiento
##otta
##olas
##olia
##urity
##urized
asc
asio
asymmet
##igur
connot
ananas
anilist
proin
##imental
##import
##imiento
##ulis
##irqd
##adors
alps
deed
##iflower
ch4
chie
##abl
##aby
##uming
##emort
##emann
##iste
ussr
neapol
##union
enlar
shin
seating
frens
##usb
wors
adul
lease
leaked
legged
plains
prague
pranks
heur
heim
abrupt
abyss
##ellations
liar
intext
unin
unordered
imperson
##outons
goos
goggles
quat
scams
scanned
cleric
wasteland
creatively
strat
strlist
spears
##avag
##avings
##avia
modest
modulate
##acc
##acer
feu
##oughts
mayor
diferent
interrog
outgoing
outtext
outfits
gritty
##assy
evade
aboutme
##ignon
apfel
disability
disintegr
pert
perplex
spont
##ensable
newroom
speculated
systematically
matth
maturity
ember
emily
rosem
##ariat
indisp
tying
##loin
noam
##ftime
brace
bruss
idol
recv
parte
obama
obfus
wrists
exampletes
##auce
invari
assimil
##cius
defamation
playback
boats
booting
booby
pyreverse
crick
crumb
croutons
thrones
foliage
transplant
justo
textbox
textarea
keyfile
retract
powerless
subl
subplot
lifted
webm
webusb
polske
reds
redness
backlight
minions
minval
steph
105
offices
cori
signing
blair
factually
##ocytes
infamous
handwriting
carpet
carvings
cairo
drank
droughts
lookout
fiance
caliph
typeof
easter
hooks
##bras
monobe
mondays
monolithic
confir
servic
servings
chooses
warp
applicants
surplus
surgeries
writefile
assisted
swirling
tooling
dijon
cleveland
envirom
hardened
directx
metz
severely
testim
##ronium
passages
outputting
outputwindow
researched
schizoph
schroding
questionable
webserial
entangled
organisation
gee
verses
librarian
logowidth
catches
##tedly
furthest
arguing
divider
##server
delorean
##extension
achieves
platinum
protects
glstate
salud
quantization
optimally
marry
teammates
digested
summers
snork
sniff
causation
excels
painters
reachable
farthest
reactjs
philanth
sentimental
quicker
audi
auditor
sympath
privately
superj
superhuman
secular
specialties
morale
bitte
bitnam
propane
157
pasting
1886
apiurl
blackberries
angu
loopcounter
balcon
steven
collies
collide
barley
baroque
floods
cleanliness
fallout
fallback
negate
donec
antim
antiox
##aijan
synaptic
3080
databricks
feedoptions
fillstyle
europeans
##maninoff
1600
initialise
governmental
financing
oppose
panama
empanadas
cardnumber
ledpin
associates
meetups
slows
slowed
globalization
progressively
misses
nuance
normalizing
merry
doctr
worthwhile
chris
symbolize
tomcat
cebu
halfway
axiom
finalize
iran
footsteps
resistors
cosplay
petted
casts
castles
cmath
boarding
buried
skyrim
ecuador
mastercard
banach
frontiers
budgets
stacking
directional
unsatis
denying
mido
midpoint
guitarist
irony
shovel
hashtags
##ocratic
tournaments
annually
annivers
dielectric
seasonings
uncrust
switched
butterfly
unlink
resolutions
millimeters
nullam
strafing
sprach
inherits
tagline
uplift
hydronium
parallelizable
climbers
venom
azerb
hyperion
towels
victoria
1966
cpuhp
walt
##contin
1970
##erald
dealt
concentrating
wondered
galleries
juan
puree
auction
diversification
intranet
cornerradius
drown
allocative
polyp
hopeless
sshd
daisy
innerhtml
tribonacci
crowded
ranged
clustering
narc
1949
cabinets
overwhelm
registering
317
tighten
overlaps
kilometer
vrf
winged
lucas
imperdiet
numerator
skew
injectcode
rhythmic
gears
hexagonal
athlete
podemos
##olescence
reminds
propositions
asyncclient
raspberrypi
provenance
rupert
doubling
migrate
ps4
ps5
345
redditors
ergonomics
ebx
patented
bassline
dyed
metaphysical
pdfreader
unwell
fluctuation
kickoff
rationale
flashcards
alphabetically
arcade
embraced
ceremon
nicar
ethereal
vec2
facilisis
stakeholder
eightfold
phosphate
fertilizing
cancers
enthusiastic
aquarium
tweak
recycle
h2b
h2a
h2o
unease
unicode
prisoner
elliptical
protestant
vpns
thirteen
capsule
microwaves
exceeding
mosfets
blown
blowing
vocaloid
hubble
lisp
fooled
intimidate
eruptions
changefeedprocessorbuilder
anonymity
leverages
ethanol
anthropologists
##command
genuinely
determinism
motorcycle
mandatory
handlesubmit
lawyers
restarting
cautiously
ciphertext
composers
tikal
documentclientexception
plagued
moderated
freqs
bodhi
btn
mindedness
johanna
montreal
g2d2
mappedvalue
banglad
cynics
cynicism
lithu
sailing
acknowledged
grieving
agendas
aerosmith
conceived
metaphorical
stabilizing
revolt
immigrants
hallucinate
todd
cyclone
orchestra
anchov
ceramic
ceramics
pwa
exerts
trucks
dilemmas
##мер
scavenger
antarctic
bsd
saber
reverb
grinning
dissonance
turbine
borel
francis
lenders
##matrix
contaminants
imbalance
tetra
inhibit
##digit
canceling
deposited
inevit
nmemb
introspection
parasitic
diagnostics
tempting
cavity
wandered
investigations
##▓▓▓▓▓
eigenvalues
transmutation
cactus
gilman
juggle
antigua
flattened
boilerplate
blessings
refugees
inefficiencies
hinduism
bisc
uint8
deltatime
stunned
herbiv
embodied
hurricane
roger
##variable
refactoring
practitioner
ridiculous
blandit
rollerblade
impulse
mondegreen
elephant
expenditure
dealloc
frightening
conserved
cousin
ejempl
riemann
theodicy
subreddit
artichoke
extruder
ransomware
inadequate
pesticides
creepy
addictive
disliked
columbia
deviations
grandparent
wooooooooooof
gizmo
bakery
gadgets
rachmaninoff
typhoon
ingenuity
tristique
reflexes
combinatorial
deepfakes
interpolation
undecidable
implantation
cauliflower
multidimensional
landfills
zeitgeist
fidelity
dastardly
vengeance
xgboost
prefecture
flammable
synopsis
lymphocytes
halloween
rationality
tscn
wobble
##haviour
alumni
interdependence
percussion
probabilistic
duchamp
gutenberg
conceivable
cemetery
bahamas
kuiper
voldemort
##craper
loopholes
remnants
infeasible
afrikaans
memoization
urho3d
raisins
embroider
telescopes
leibniz
ghibli
gandalf
ksoftirqd
oiseau
pascal
tuxedo
🤴constantine
##ません
foremost
chiefs
neapolitan
rosemary
indispensable
brussels
obfusc
exampletesr
monobehaviour
schizophren
glstatemanager
bitnami
antioxid
uncrustify
azerbaijan
bangladesh
0a
0000
010
1d
1gb
1tb
2b
3a
399
550
611
714
9am
a3
ari
arian
aez
ariel
arose
bate
berg
bleep
bjs
c4
cth
cpt
cdu
cures
cmos
cried
cudd
dell
dbo
dared
dave
dank
dll
dmaj7
ero
eric
fern
f12
fusing
fathers
gill
gfc
hm
hed
hkey
i7
icing
iloc
jor
jed
jaz
joking
kt
kok
kaz
ketch
kurt
lc
lod
lined
lvalues
mle
mla
m40
naps
nym
noses
nf6
oder
oym
ogres
ooh
pect
pond
punt
pnoise
raging
ranc
riot
rdb
rivals
sons
savor
sails
sflix
t3
ticks
ttk
vout
vases
vina
wm
w3
wad
wack
wile
wont
wiring
xhr
yel
zig
zombo
дру
зна
или
ни
так
яи
██
##hor
##ipl
##payer
##eating
##rf
##rif
##nl
##nard
##tch
##titor
##token
##lt
##lation
##lass
##gal
##gent
##gath
##mem
##mesh
##mah
##matic
##bg
##bss
##based
##aad
##8x
##cies
##cap
##course
##dl
##dg
##d4
##oir
##yst
##yatta
##yakon
##f4
##far
##fires
##0x
##kl
##kb
##ker
##kum
##wj
##wound
##qh
##q4
##qj
##q5
##jp
##jwt
##z3
##zac
##3r
##3v
##300
##9e
##vx
##vider
##vian
##vae
##500
##uo
##uj
##uan
##uire
##си
##бы
##вет
##68
##μg
tho
thaw
##infol
##atric
##atonic
##onn
##onin
##ndoe
##anmar
tome
tostring
##alia
##itted
##aru
##argo
##represent
##ico
##icons
##iclet
##ometh
##asper
##asks
##asia
##ente
##etus
##rost
##roots
##ilton
##static
##stitution
##chio
##chlor
reiterate
##utations
##utils
beg
bearing
itert
whale
wholes
stv
stench
aspar
##idal
##iga
##igious
##igger
##igrette
anus
canton
prozac
##imens
##oda
##odon
##oders
##ulhu
##advis
alas
aldr
deer
defer
deput
deuce
degrade
##pegg
##iferation
##tering
chor
chen
chilled
yourtileentity
##umm
##uman
##eming
##embour
hai
usize
##antes
##unas
##unia
##unctions
##unnable
shh
shun
shields
##mental
##ortment
notices
noticing
##uscript
byprodu
##acter
meine
ademas
lepre
pls
primate
##andr
heuristic
abnorm
resin
reservation
socks
soaked
softer
intimately
##arters
unans
unbal
unzip
unhelp
arug
arcs
arpegg
##icht
##apar
##apest
useeffect
quail
quier
quasar
scopes
scorp
##ogame
strc
strains
mojit
heli
##ieu
manuls
manuscript
acai
hashing
myscroll
myriad
myanmar
##geois
interse
intergo
addint
outrage
graft
knives
##ksc
##ongo
commuting
##ignum
amel
amater
amuse
amalg
disen
disob
coag
coaster
coaching
perpend
examined
##ipit
##ensor
overt
overex
newtons
genus
genome
matte
eminence
getcolor
roster
##ermint
peh
pea
pegs
pecks
valleys
nov
noval
bred
##ishment
underutil
partly
whoever
##ethon
foe
focal
differenti
invitation
highpri
formdata
playground
boast
crank
crane
crunches
starters
accustom
regain
regimen
##othar
##pran
attentive
flap
flax
flutter
##encent
remem
decel
transcribe
textile
agave
larvae
retelling
powering
subur
subcon
subfield
respuest
polls
av1
distin
redo
backbone
mainactivity
skim
mined
minmax
blessed
finer
classifications
##te3
##tega
##ocular
##ocyan
launches
laerte
handic
handsh
locale
lightroom
donate
cared
carib
carpent
##rolling
1900
1916
point1
pointless
downstream
lifecycle
lifeforms
includegraph
inputfield
typename
fixtures
hadn
terminated
belize
monoth
monoxide
multil
readline
readme
righteous
realestate
visig
betrie
softly
swamp
elevation
metus
printstack
llam
replying
checkmate
stillness
paises
paused
pauses
paizo
askopen
refrain
refund
airway
airships
friendliness
commander
foodief
famine
linea
lineage
esto
estud
earthy
productions
economical
existent
layering
biologist
explainable
interneur
harming
harrison
portrays
porttitor
generalizing
slime
slits
slaughter
122
standalone
trader
gland
glance
gliders
intelligences
statesman
freundlich
beginpath
blockers
##vernmental
shortening
maxval
##scapes
##screens
travers
snoop
naturalistic
deepen
prompting
promptly
reacting
succession
graphene
replen
leftover
leftovers
leftimagedata
100000
archer
americas
apikey
automob
##ahn
documentary
##ocks
steals
##loaded
sleepy
edm
positioned
flood
latvian
##ometrics
accountant
negatives
##ropic
blueberry
antid
detectors
viability
storefront
##ooow
fullest
252
analyzes
16dp
majorana
sampler
##lsx
facet
iliad
initialization
dimmer
condiment
panor
##ographically
cardinal
##ofs
authorize
sequencing
streamers
coursework
circa
progressing
##interest
norway
dreambo
evaluations
crossword
fixe
##ammed
missp
139
starcraft
147
navier
000000
budapest
draggable
armenia
housew
simplification
treeview
misused
fluores
embargo
garnished
forwarded
eyesight
taxpayer
utils
everest
urlenc
urllib
croc
voiced
motivating
containerization
scaler
centralizing
skywalk
ecdlp
geometries
budgeting
capitalized
mike
sweating
transporting
undoub
defaults
midf
midor
violated
bleak
blends
dui
encrypts
penny
retrievers
dryness
matrixroom
001
freshman
clara
announ
coordinating
didnt
uncss
hairstyle
comprehensible
craftsmanship
pepperoni
felis
compilers
politely
454
453
counterpart
lena
foreground
restricting
resolves
mills
230
augue
sprites
austerity
fingern
caffeinated
vanished
hydrop
honored
contractions
proofs
lucia
susan
judges
malevolent
##uffs
grog
azerty
liquor
ignis
ignition
commenting
alcoholic
victories
dolore
transitioned
diagnosing
upgraded
tenure
wales
libero
disposed
dispersion
affordability
accomplishment
hydrochlor
infectious
autoimm
polyps
hoped
dunes
therapies
dbpedia
1930
writerow
##ccion
bearings
1940s
alerting
quietly
forgiving
logo2
fingerprint
extrapol
casa
homer
websockets
tightness
compliment
##windows
soulful
masquer
ventures
deliveryman
bundlers
180°c
exhibitions
exhibiting
screenshots
injections
possessions
pottery
##ilingual
selectedwall
declarations
depicts
depictions
hamilton
coinbased
prefers
furnace
intentional
crusty
protagonists
correlates
shootout
tesr
sundar
barbados
inquis
familial
tsun
umi
peppermint
proceedings
unusually
luxembour
retailer
juniper
##omplete
minty
catalonia
5432
aqui
vampie
unconstitution
initiated
immersion
tweaks
kenyatta
supernova
protesting
protesters
pumped
cursus
proliferation
irritability
watermark
thirty
approximated
unlocked
uncovered
spheroid
1791
a100
suffice
adventurers
henri
gripping
husk
surprises
accelerated
alleged
fraudulent
preprocessed
workflows
harmonypatch
lstms
##ков
cheerful
portrayal
##ные
hurting
rnns
absurdum
manifestation
psychoactive
autonomously
gigabytes
weakening
picasso
harnessed
unmount
districts
swiftui
pitfalls
snee
spacer
tentacles
exaggeration
captivated
synthesized
##chaun
versailles
delighted
cigarette
viva
clinic
mocking
relativ
johndoe
acquisitions
exchanged
intersects
pandemics
rectangles
cynical
ripeness
qrunnable
forecasting
oauth2password
scrolls
revolve
championship
##iyomi
orchestrated
concatenated
tectonics
vmware
wounded
scholarly
averaging
mismo
overthrown
influencer
disclosed
reinforcing
craftsmen
neutrality
dopamine
tnx
konnen
externos
facilitates
zorbl
auditory
liberalism
adheres
contemplate
pending
disproven
octopuses
neuropeptide
concludes
kraaaaaaaaa
kraaaaaaaaab
bourgeois
tumors
##picker
impairing
mattress
temptation
discarded
nostalgic
caval
qaeda
rudimentary
scissor
phaethon
calibrated
eigenvectors
interchangeable
##itzah
revelation
untrue
flickering
condensed
msftoptions
niece
pagination
reeves
havok
grappling
improperly
terraform
embarrassing
biciclet
lilly
conlangs
actuators
divisibility
##eeeeeeee
ww2
skyscraper
shrinking
ricotta
coatings
subclassing
fermentum
bidirectional
kyoto
exemplary
infiltrate
trajectories
scrubs
nouns
sternum
impulses
disparities
codecademy
elephants
glaciers
golang
reluctantly
antagonist
##bytesread
vernon
reptiles
delegate
seawater
axioms
galileo
fanfic
gracias
cocoa
deserves
inversely
pulsing
bunker
lurking
inertia
recurring
propellant
turbulent
coincidence
izan
nurse
yolk
unplug
microbial
psychiatrist
psychotherapy
anthropomorphic
fringilla
scandals
labrador
circumnavigate
gruß
distinguished
googleapis
denominator
nicotine
01100101
bureaucracy
kampu
lwc1
raptor
autotokenizer
confederate
epitax
ecometals
telephonymanager
nvme
aspirations
incandescent
mojang
outwit
upscale
monumental
massacre
debunked
pdte2
droplets
goroutines
tantalum
jerma985
thymus
nefarious
scampi
amulet
thresholds
reddish
expiry
restriction
headquarters
cambodia
etymology
dmitry
tachiyomi
xylothar
heuristics
matthew
crickets
sublime
metzitzah
schrodinger
doctrines
narciss
lithuania
schizophrenia
antioxidants
bateman
cthulhu
ketchup
oymyakon
pnoise2
vinaigrette
##infolist
asparagus
aldrin
deputies
byproduct
leprechaun
unanswer
unbalanced
unhelpful
arugula
myscrollview
intergovernmental
addintbutton
amaterasu
amusement
disobedience
perpendicular
novalgin
accustomed
includegraphics
printstacktrace
interneurons
skywalker
undoubtedly
masquerade
coinbasedata
luxembourg
unconstitutional
bicicleta
012
1pm
2t
414
4tb
610
770
855
ao
að
aur
aeth
aether
aleg
aura
bn
bz
bant
bie
bise
bpa
cep
citation
crip
dl
dow
ea
ehr
eloqu
fst
fint
f64
gh
gnd
gag
gual
huss
heter
hulu
homme
iw
ihr
iphones
iowa
ja
jur
jum
jak
jedd
kir
kem
kub
kob
kicks
kla
koch
lud
lav
loun
lys
lax
lane
lighth
mt
mhz
nop
nac
nug
oo
o2
oily
owe
ola
pt
pg
pome
pall
pav
pts
ponds
qobject
rode
rumb
rizz
s0
sizing
sgd
saga
t2
tz
tul
tir
tand
tib
tund
tonic
tapped
tanger
tanto
tpu
tencent
ugh
uru
vga
voted
vnc
wels
wenn
xn
xone
xstr
xpath
yuk
zel
¬w
бу
если
од
пе
сво
את
##hanger
##hammer
##pb
##rar
##race
##rarily
##raged
##romic
##nn
##n2
##nx
##nhe
##tff
##tings
##long
##gm
##mony
##b7
##bro
##bang
##ao
##c4
##cf
##cx
##cir
##cad
##codes
##cores
##dian
##draw
##oce
##ye
##fh
##fdom
##02
##kh
##kr
##kick
##kits
##wk
##was
##wig
##wild
##wash
##worms
##jt
##jack
##1f
##256
##zb
##zf
##zens
##9q
##vr
##vg
##v2
##vault
##uere
##6f
##ят
##σω
##ды
##ши
##мы
##τικ
##ще
thom
##inas
##inia
##atum
##atable
##onation
##onaut
##orate
##oufl
##enues
##enae
##encias
##aning
##anity
tolist
##edigger
##itas
##arion
##reas
##icer
##leum
##leted
##isc
##eta
##etect
ish
isdirectory
##star
##stairs
##chromic
reim
replay
reese
rejo
bei
begg
bends
beij
whim
stutter
##otonin
onboard
##sei
##sea
##uri
##urp
asan
asinterface
##idae
ange
ansel
anagram
canva
cantera
##ithesis
prod
proces
probe
proyect
##imely
##imilar
##imura
ortega
withhold
##adora
exempt
albe
comets
##agua
##pez
##verted
##terior
chry
chern
chops
chigur
##ainable
##esty
##estamp
##abel
##abatta
##empot
haptic
##aky
##akmi
usps
##ungs
##ckgo
tru
enrolled
enacted
encontr
shaken
shirts
seab
seized
seoul
##ptive
##plan
##plash
##oso
fren
##ivo
dozens
##quil
worsh
leeks
pluck
##allis
##allerg
##angelo
##angzhou
heed
heck
heals
hendr
abras
abelian
abnormal
reside
##udad
soared
soggy
ato
##arta
unal
uname
unful
unreg
arin
##output
conting
compiles
##apital
teil
inclined
##ormal
goarch
quicks
quota
scour
cling
clot
cline
clamp
closes
allen
createn
##ogne
datash
##format
moh
moku
##avis
feats
syria
##ounding
##ibel
##ibank
mydata
myblock
##gran
##eport
interes
additions
addiction
outermost
grime
grann
grilling
granny
knots
##aceous
##assic
upheld
commute
apivers
amorph
disin
diseng
disarm
disodium
discontin
provoke
spf
spill
spies
##rygian
dese
desu
overwrite
cologne
newt
newell
newman
funn
speculations
specimens
serfdom
serotonin
##ientos
keanu
##duckgo
phrygian
emulation
roaring
##local
braw
brune
idyl
idiot
idempot
underlie
undertake
recru
posuere
wrath
genera
generals
relent
##veloped
persian
differentiable
invade
inviting
assurance
##ubsc
smut
formulation
pyx
crater
varius
importante
cured
##erton
##ictions
##pray
flop
flaw
personified
filewriter
##pson
advising
keydown
keycode
keyvault
subculture
subseed
sax
sklearn
##erged
109
numberpad
##ceptions
corp
corpse
blizz
finn
classifying
##oca
##ocamp
guangzhou
handwritten
lightest
donne
donkey
1920
point2
inputstack
fillet
drifted
pots
insane
insulated
##phosph
hades
evenings
monks
readonly
realise
dayan
giveaways
surf
visc
soften
swarm
toolkits
markipl
directive
directives
metro
histone
histsize
muchos
llama
checkers
interestrate
##licit
sinus
outputstack
breasts
believable
mathcal
moveelement
biotechnology
##version
organisations
geek
rested
detailing
coloring
contentious
customizing
fury
himal
docstring
speeding
speedcub
broom
linus
bushes
##params
glor
glutes
salted
localization
packs
olds
authjwt
optimum
##ikal
marin
maribank
necessity
necessitates
##inson
##aza
table1
snare
meaningless
sidekick
volley
cyc
presum
nonvi
sentenced
landlord
predic
auditing
symbi
tariff
superp
superimp
morb
morgath
disclaim
immanuel
1582
##porter
urged
archives
##onto
blacksm
modernizing
automakers
steer
edo
barrel
##awei
positional
normals
virtu
microscopic
roland
antithesis
##bean
rooting
verwend
captivity
259
##close
##club
163
samanth
rustling
usefull
usefulness
nightclub
oppos
cardano
##lexia
germs
routers
fitz
cuttings
halo
raids
raiders
meetup
heartfel
dreamy
doubles
dangling
gravel
gravedigger
1792
starring
turmo
americano
badly
passwordinput
passwordconf
nutme
osaka
historia
camoufl
guido
##strateg
tasten
letterpress
derail
querying
falsehood
simplistic
theorist
theorists
plantings
misfort
tomb
##aurus
hotline
aliasing
carbonated
conditioned
finalized
coded
##door
taxed
footnote
everett
linearity
savers
moonlight
castling
diseased
bowls
collaboratively
extractor
40k
manipulates
masterful
keyboardtype
capitalization
capitalists
winners
##111
swept
spirited
cuando
coldest
cruise
dishon
denver
wildly
##gsm
mistress
shoots
spanx
duo
dukk
duplex
solidify
northwest
oxides
gendered
##bien
amazement
24gb
demanded
democratically
broaden
bulleted
permutation
permutations
212
inserting
breadth
manuel
mortar
contrastive
stickers
derivation
groove
sonnet
##colormap
georges
circumc
idealized
roma
##result
destroys
fearless
bootcamp
bandit
snowy
mornings
einer
einen
fascination
pollination
1959
breeder
sacram
dragonborn
dealer
juices
diversified
##blestone
##guard
##elike
unfortunate
sennhe
mathematica
puzzled
fabul
##chemistry
intrud
##olecular
allocating
fauna
msvc
madam
excessively
shotgun
punished
thinner
1936
unknow
wireframe
1946
opinionated
isolating
unfolds
caso
conveying
huawei
homogeneous
hanger
hangovers
dissatis
dissimilar
durations
forgetting
330
kernel32
consistencylevel
echoed
stuffed
cbread
##authent
559
exhibition
stretched
benign
benny
conquist
disrupting
skewed
locking
comedian
geared
ladder
poder
fragments
intricacies
cosmology
migrating
trending
timestamps
strained
scholarships
scarring
openssh
opensource
waals
prototypes
pools
neurot
duckduckgo
gaul
gmem
wheelch
faithful
##urgy
mercurial
zipf
staples
heapify
470
cowboy
electrochromic
hermes
herman
comprised
republican
unnecessarily
ceremony
nestedlist
##lamation
vec3
chromium
lacan
preserves
gtkt
##hrte
##925
011100
cartilage
quadtree
catalogue
##ochond
mcfly
120hz
nestorian
polymers
dvd
cockpit
mkv
baikal
dyslexia
sickness
unintention
royalty
decompose
boneless
arbitrarily
terminals
diplomat
dissolving
slee
cautionary
jetpack
##ется
titanic
aesthetically
intermolecular
pentest
gracefully
foolproof
cbdc
evaporates
simulates
accompanying
##bullet
foul
relievers
walkspeed
teenagers
crawled
biosensor
gorilla
interconnectedness
terrorists
mimics
mimicking
fishery
stalks
ellen
rushed
fetal
tempos
collapsing
synthesizing
nsfw
nodding
nodeport
untreated
untimely
delightful
fontsize
grassroots
intersecting
catastrophe
daddy
##roads
bibendum
ddec
hmmm
##кая
supplier
mantener
reckoned
extermin
marveled
oauth2client
oblate
centauri
quotation
quotations
quotient
assassin
merchants
##odoro
hdd
##чест
exerted
roleplaying
##mmmmmmmmmmmm
sabot
reverence
stoicism
disputed
descended
undermines
reinforces
chromosome
jacques
##тель
isotope
lending
outlaw
waterfalls
##jjjjjjjj
cachedcamera
ganesh
grandmamma
facilitating
5x5
zorgon
homeowner
astrophysics
syncop
tambien
##birth
andrei
disprove
provinces
eligibility
hdrp
##corino
conformity
interdum
ciabatta
ciudad
gzip
inverting
valkyrie
patriotic
privileged
alpaca
mulch
##obyl
##secret
unleashing
submissions
elevate
pigeons
fragmentation
cacti
gilgames
cliffhanger
cancellationtoken
dnf
rearrange
stiffness
adhesive
cobain
cobblestone
poignant
thumbnail
dizzy
reassure
algunas
algunos
monopsonies
squeezed
neglecting
bicarbon
##eastern
safeguard
gerhard
ncbi
placental
autocomplete
игро
##польз
##εις
##igslist
recruitment
enchilada
nlm
uranus
rollerblades
qfileinfo
##animation
bankruptcy
nomadic
deallocation
machiavellianism
dematerializer
brainstorming
electrolytes
tranquil
9x13
pomodoro
##document
omitted
использ
clogged
caucasian
##distance
laurent
##generator
reagents
##graycode
apricot
overlooked
apprentices
craigslist
carolina
bioluminescent
ingots
alicorn
pyroavis
verdict
bufferedimage
768px
untrusted
melancholy
bahrain
пред
##bearer
trenton
overdue
apprehension
pylint
reductio
sanctuary
01110100
hawaii
все
petersburg
michelangelo
unhappy
hippocamp
##mousemove
prodigy
unravel
quesad
amateur
basmati
bockwurst
14159
semantics
supervisor
soyjak
shrubbery
mnemon
##broken
##week
hassle
detrended
monastery
professors
holocaust
crustaceans
xamarin
foresee
frenschan
quatria
coriander
caliphate
webserials
geehrte
balcony
anniversary
ceremonies
nicaragua
aezakmi
jazzy
wacky
zomboid
##bssystem
chorizo
##ummary
underutilized
deceleration
subconscious
distinctions
betriebssystem
askopenfilename
freundlichen
antidote
fluorescent
midoriyama
fingernails
autoimmune
zorblaxe
grußen
epitaxial
bieber
bisexual
cephal
gualtar
jeddah
klaus
ludwig
nuggets
pomegran
welsh
beijing
albeit
chernobyl
chigurh
##allergenic
hendrerit
unfulfill
myblockedit
apiversion
amorphous
donnees
markiplier
superimposed
blacksmith
samantha
heartfelt
nutmeg
dukkha
sennheiser
msvcrt
nestorianism
gilgamesh
bicarbonate
hippocampus
1f
1kg
3mg
3cm
4g
410
4mg
530
6b
656
7000
716
717
876
aun
arial
bx
bere
bist
brib
bici
barte
cz
c²
cms
cement
cstd
d7
ding
dul
derm
dup
ew
eject
e12
f0
fon
fand
fff
g4
gav
grop
gosp
gaba
hig
hound
hone
ihnen
ji
jag
jab
jard
jlabel
kum
kite
kron
lich
luct
lumber
lengu
linger
mers
mck
mplot
niv
nour
natures
pgo
pedi
pardo
qi
qde
qatar
rast
rio
ronal
rho
ses
sak
sdp
sipping
t0
tx
tart
tern
tull
troph
uh
uf
v4
v8
ves
vas
vista
wp
wab
wux
wahl
xcode
xiii
xlsx
zod
zum
ειν
προ
τη
το
бо
вам
го
для
жи
те
█████████████████
##h0
##hara
##iacese
##pid
##pable
##paces
##e6
##eer
##ecess
##ender
##euver
##run
##rative
##nolf
##tz
##tri
##tight
##l1
##lics
##lana
##lifting
##gre
##gages
##gbe
##mu
##mag
##mac
##makers
##mountable
##mongo
##bq
##bons
##bee
##aire
##8s
##cw
##cest
##dor
##dan
##del
##dam
##dia
##oard
##oche
##fre
##fow
##7°c
##kd
##kok
##wl
##went
##warm
##jf
##jer
##1q
##1°f
##2𝑘
##zi
##zd
##z2
##z9
##zos
##zano
##3l
##9m
##v1
##v3
##vol
##vins
##valu
##viation
##vielle
##upt
##uated
##xim
##сло
##たし
##вля
##61
##ну
##нно
##█▄
##█───────
##╣▒▒
thyl
##erable
thess
##inen
##inci
##inently
##atal
##aters
##atron
##atches
##nda
##orc
##orth
##orter
##orum
##orrh
##ouk
##ouhal
##ouvielle
##enches
##enistic
##anit
##anter
##anum
##alis
##align
##edrine
##itur
##itimate
inad
inland
inactive
##arp
##ariste
##isofs
##eloop
##entry
##entropy
##etr
##etches
##etoric
isro
isdir
##stations
##stalk
##styles
##cht
##charm
stale
stash
staged
stamps
stmt
stumble
##otide
##olar
##olph
##olades
onload
onwards
asd
##idon
##idun
anub
anki
##uli
##uldian
##ershire
susc
supran
##adder
##added
##adriver
alope
comida
deformation
chk
chis
chol
chore
chased
chanting
##estie
##ablo
##umpe
##umann
##umbral
##isters
##istine
haiti
usu
neob
neouvielle
neumann
##rians
##anton
##ighan
##cky
##cked
##opadding
trab
trunk
shu
shalt
sealing
##plit
##osha
##mented
##illusion
##orting
##oreet
##uspect
##quaad
worcest
mend
adec
##ighty
lender
leaking
plums
plague
##pppp
pric
pruned
pristine
weeds
##anding
hend
heater
resets
##udio
howard
##artney
unter
unify
unifying
logr
imposes
imprec
impulsive
arous
arrog
##outed
##achable
##achord
##ormaps
quint
##ferences
scape
scuba
buttern
clippers
therefor
stride
strftime
strouhal
moo
moore
moody
modell
modelling
manners
##acename
acute
fey
feyn
sysc
hast
##grid
anytown
mayan
maynard
interlo
intergal
addend
adddigit
outman
##asswd
eva
evariste
upstream
amm
amusing
disfig
discontent
disqual
disorientation
disillusion
covari
##xtract
spur
spire
spying
desal
overeating
colormaps
##intop
newcom
funeral
functor
emuls
emacs
##etwork
seth
setter
getpass
getdata
getaway
getlog
getstd
getorientation
bufs
##ending
workstations
pei
peg
pecorino
indif
indigo
opi
undergoing
underwent
positivity
poets
poetic
wraps
wrench
foooow
createelement
createfrom
##icked
##ologic
differentiated
invitations
smelling
playable
boop
boasts
pylon
pyomo
pybullet
pymongo
pycharm
crest
crab
crus
cramp
cranks
explode
accolades
patas
##prices
##ysic
solst
flue
flank
flaps
flute
##encoders
20xx
transient
transcends
transporter
fileinfo
firsthand
charco
advices
trainers
keygen
keyframes
computable
larva
retina
runnable
subter
subspe
subnets
webinars
saunas
ella
elbow
gameworks
avian
aversion
backdrop
enddate
chee
cheek
hts
takeaways
sketches
10g
numberless
signifies
herbal
blumen
sourc
infall
guis
laz
laoreet
##dera
locating
popes
methanol
autor
fixture
##phs
hadid
hoard
hooked
muy
terminating
monstr
confess
confines
readbuffer
##swana
algorit
learnt
centric
centimeter
betty
prominently
swings
swipe
diode
diodes
divert
diatonic
proto
behold
betterment
hardiness
ensured
metac
purify
purification
difflib
exponents
##ricies
##ommiss
sins
profiling
refusal
airlin
thinker
foodie
encuent
eras
erst
pubmed
estonia
believers
##gerald
structuring
layoffs
schl
schm
schwar
biologically
arrr
cultists
awa
entails
significado
geeks
geographically
restful
logopadding
socializing
##mlinks
harper
tellers
portability
magically
maguire
itemize
generalizations
colorlist
colorama
personalization
demise
inflamed
carefree
eventhandler
maz
maec
animelist
worksheets
safari
2025
linq
lining
storks
glam
natively
soundtrack
soundscapes
localized
statistic
succul
weightlifting
##ophen
hellion
hellenistic
chatroom
necessities
viraw
interactivity
snout
snugg
initiation
thanked
thankyou
114
farquaad
reactivity
##reduc
sociology
breakup
wording
wordplay
predecess
childbirth
motions
preferential
etwas
specialization
purported
morgan
bitch
proposing
180000
1887
1879
cookbook
postp
modernize
kindle
angola
##ocken
songwriting
collider
barack
barber
barren
titem
titans
botswana
floats
ultrices
ultricies
situated
setshow
sendall
sendstatus
3070
payback
photoc
vias
sensational
##balance
##ornith
drawline
professionalism
fullscreen
randomized
##raine
tunic
friendships
buttonpin
moneygram
fireball
fireflies
expects
uniq
loaders
destined
##priority
fishes
##uggers
ancillary
closeprices
walkthrough
fulfil
##bolt
doesnt
##interrupt
norwe
crossroads
handlechanges
muted
132
133
130000
inns
artificially
replacements
turtles
merr
convallis
148
149
lacked
timers
rowing
##espace
##esponse
dynamodb
##strom
budd
gpa
dragged
##mosis
interestingly
mapdist
suitability
consciously
critiques
miscon
miscell
fluently
weld
welding
embassy
ceil
varwidth
50px
malnut
smarts
##doing
segue
taxi
crotch
formulaic
melaton
epigen
strives
scala
mitochond
extractlinks
hiem
closet
##ancers
##ancetor
novelty
banning
raining
stressors
eyeball
budgetary
##weet
cameradriver
unsuspect
sweater
revolutionizing
programmier
ode
denotes
wildest
scranton
midnight
##keyrange
expertly
transferable
dwelling
roadmap
ipcc
penumbral
fatalities
##ocracy
cyberbul
claro
kiloby
readystate
uncountable
aston
astro
utopian
inventing
heroism
phenix
451
456
rebounds
cpan
attributing
appendages
appendchild
dearest
prioritise
230000
##ervice
sprang
sprite
2100
sharks
wished
##observer
attendees
sandstone
mortgages
##plot2
judging
semper
decrement
sweetener
azte
miracles
wastewater
georgia
piggi
watches
watashi
267
aidunge
1961
masking
bootloader
bandage
obstet
grammy
emptiness
oceanic
dividends
363
tripadvis
1957
palettes
##flu
mountainous
papal
candela
liberator
splitlines
diversifying
##120
##guy
##guay
fictitious
##cauldian
equivalents
autoencoders
deliverables
sellers
sshuser
illegitimate
cooperate
##aminophen
##lorometh
kidn
moller
molestie
lifestyles
dominates
calmness
30080
kernighan
rhetoric
spotify
gardener
unreachable
crimp
fingerings
inhaling
fortunate
exitprocess
dictate
dissent
overlay
whisking
baggage
poured
vrbo
ventured
lucrative
lunchtime
spectacular
benin
benito
obsess
celcius
nationality
##3d3
upsampling
400°f
exporting
depicting
subtracted
fertile
##attacks
laden
moistur
davinci
reminding
reminded
instantaneous
ps1
##haus
incrementally
supervise
occupies
ebp
crusts
waited
communicates
cornmeal
swallowing
gentleman
racist
barbuda
nij
nike
pills
friedman
unwilling
broncos
kickbacks
rationalizing
##chea
flashing
alphabetic
arcu
poseidon
physicians
photosynthetic
pounded
umbr
umami
2000mah
anthony
anthocyan
macrostrateg
lacinia
renter
renters
fateful
wedges
##office
exceptionally
##stacks
fertilizers
cartel
perceptual
catalan
hobbits
barker
owed
##preted
##нии
stimulates
weekenddays
tweaking
overspending
baark
nerf
pacif
commodities
caveman
dyson
dyslexic
decomposing
decomposes
##modern
strobe
procrastinating
prolific
diploma
darwin
ihp
showering
showerhead
1921
decrypted
decryption
siberian
tapest
hrs
louder
accelerates
gdrive
reqwest
blurred
erupt
mesmer
graphicx
reportedly
##visual
inferno
foucauldian
hemorrh
relieved
crawfish
portraits
lectus
bouquet
hurry
rnai
plugs
cloak
funcion
pueden
pseudonym
##skommiss
configurable
zoho
disconnectnamedpipe
appetizers
##anoia
73925
ashamed
faxes
3x3
swiftly
concerto
synthesizers
##vsz
untold
breastfeed
kanban
trolls
inexper
relativism
negotiated
fsanit
allergy
belgian
passports
glycer
ripost
sailors
ninth
archaeology
spook
742
##rodite
zhang
thunderbolt
bracket
exacerbated
i2c
nadh
werde
leonard
##ocentric
walletconnect
53000
eurasian
stoichi
chimera
cohesion
disclose
anticipated
mislead
doping
doped
doppler
##partition
suicidal
jurisdictions
rospy
##cvd
alibaba
oversee
overseeing
monoidal
tremolo
teleported
astrophysic
omnibus
adhering
adherence
bubblesort
nihil
toothpick
aphrodite
permeability
detonator
morphine
morphology
superset
ovens
ovulation
calibre
gustav
mermaid
sagitt
sewers
charisma
submits
submerged
elevated
underscores
incentivized
wurde
recessions
abbreviation
interferes
inductor
downtown
empowered
sanitize
dawkins
pupil
allegations
##forgeeks
embodying
axes3d
bazan
sbin
prestigious
introverted
defective
jealousy
volcanoes
embarrassed
necesario
surpassing
gumtree
##ции
autocapital
injustices
mistakenly
pleasurable
flavoured
pronouns
vowels
wyrm
cherries
mahler
greyhound
##normalization
##tileentityspecialrenderer
xsx
antecedent
lipids
disregarding
bastet
alleyway
##location
glacier
discernible
hindered
helmets
conserving
alfredo
tranquility
ephedrine
##🤓🤓🤓🤓
seaweed
artichokes
extruded
##──────────────
baaaaaaaa
dichlorometh
mccartney
railway
tidal
vicinity
acetaminophen
grenade
superstition
caucas
xrandr
reichskommiss
uncontroll
provisioning
margaret
administered
lanterns
brynolf
iaculis
mastodon
rashidun
lobbying
accesst
getstarty
brady
enslave
burrowing
ignorance
encompassing
brioche
lethal
##jamar
chardin
pledges
interconnection
ammonium
endangered
scrutiny
corridors
misinterpretation
[...]
